[UNK]
!
"
&
'
(
)
*
,
-
.
/
:
;
?
A
B
C
D
E
F
G
H
I
J
K
L
M
N
O
P
Q
R
S
T
U
V
W
X
Y
Z
`
a
b
c
d
e
f
g
h
i
j
k
l
m
n
o
p
q
r
s
t
u
v
w
x
y
z
##s
##a
##i
##n
##t
##o
##r
##e
##g
##f
##l
##k
##u
##h
##y
##d
##m
##p
##c
##A
##R
##I
##E
##S
##w
##K
##b
##v
##G
##C
##B
##U
##M
##x
##H
##N
##T
##O
##Y
##L
##j
##V
##W
##D
##F
##J
##P
##q
##X
##Z
##z
##Q
##er
##in
##on
##es
##en
##ed
##at
##an
##ing
##or
##al
##ar
##ic
##it
##ou
##ion
##ent
##st
##id
##le
##re
##el
##il
##mp
##ot
##is
re
##ol
##ac
##ay
##om
##et
##ig
##ly
pr
##as
in
##ec
##ation
##ers
##ru
st
##iv
##ow
##ur
##ad
##em
##am
th
##im
con
##ce
Tru
##op
##ort
##est
##ess
Trump
##us
##ut
##ist
##os
##ate
##ver
##ct
##ir
##ff
##ul
##nd
##nt
##ld
sa
##oc
##ak
##pp
##ch
##ep
##ew
##ill
al
not
##th
##ment
##and
##ear
said
##ge
##igh
##se
##ri
##od
##ity
##ould
##ident
ex
##art
##ant
ch
##ub
##esident
##ter
##ra
le
##ial
##ive
##mer
##ies
go
##ans
##ight
##ack
##all
##ast
##her
##un
##ab
de
##ov
ad
##ud
sh
co
##ect
##end
com
##ain
##ne
sp
##ell
se
##ong
su
##lic
##ia
##ok
rep
##if
wor
##ice
##ally
would
Pr
##ions
##our
##ary
pl
##ence
pol
##ve
##ite
##gh
##ik
##ob
##ign
for
St
##ous
##cc
pe
##ard
##og
an
##ry
##ublic
##ag
##ople
##um
##ated
##ap
ne
##ss
res
cont
##ount
people
##one
off
##act
##iz
##ee
cl
##ake
##meric
##rou
Americ
##ord
##ations
un
##tt
##ely
##ress
##ib
inc
##ass
year
##are
##ie
##old
##ip
dis
ev
##int
##ook
##ust
##ime
one
Rep
##ail
say
Ch
##ates
exp
wh
##ire
President
##ure
##aw
##itic
##ide
lik
Th
##ost
##so
##day
##ace
en
##hing
##ouse
president
##uss
##ement
##ian
cr
##ome
comp
##age
report
##ore
part
##eal
also
man
##rat
##ine
ag
new
##ue
##ens
app
me
att
##amp
##ind
per
tw
acc
##orm
##ert
ar
act
House
##qu
##lect
##ors
##oll
be
rec
##eral
fir
Republic
us
##ough
kn
##itt
New
##ks
##ons
##ance
inter
inv
##uc
##able
count
##emoc
##ict
##ult
##reat
Wh
dec
##ber
##vern
##av
##erv
like
no
Russ
work
##ont
##ase
##ink
qu
##ational
##ish
law
##ration
tr
or
pre
##emocrat
##ade
Ob
could
##oss
##ory
time
get
##enc
##min
know
comm
imp
Obam
cons
Democrat
Un
Sen
##ith
govern
##ame
call
##ious
##ond
##und
##pport
##ound
##ning
op
ab
##ft
##ey
##ax
##ead
bl
ever
offic
##ited
politic
##ition
##ang
##oy
##ree
##oun
##ays
##ings
##form
sec
##ues
back
vot
##onal
##ents
right
White
##ern
sc
##iss
elect
##ose
##lud
##ealth
government
##out
even
want
first
told
##man
camp
add
wee
ind
out
lead
bill
##ked
it
##ood
##orth
##minist
##mm
Cl
##iew
##oint
two
med
##ild
##anc
think
resp
do
##ied
##lear
ter
wr
rem
##ical
##ach
##app
##urr
##ann
hel
pro
support
reg
##aking
##aign
grou
br
Trumps
last
American
tax
rel
##arg
includ
that
years
##ick
##ities
as
invest
##ork
administ
mon
we
##ual
with
campaign
##ments
##pt
##vel
ass
all
stat
##own
te
def
##uch
going
many
##ower
##hn
##ism
war
##onald
prot
##ful
ins
see
leg
int
every
##ording
##ath
##ative
US
des
##ists
need
##ark
official
country
am
conf
##ating
fl
made
gr
state
##leg
prov
show
Donald
##ise
##cent
##other
##ret
Obama
##ives
make
bel
##ef
week
may
mem
##iff
##ince
public
##imes
##ered
health
##urn
eff
##ater
##air
Mr
Fr
end
group
##irect
way
##ton
imm
administration
str
former
Republican
##ange
##ram
investig
long
##ting
ref
North
iss
##arl
##ible
Kore
disc
percent
##ex
high
##ock
pers
Al
Cong
Senate
Clint
##ased
Republicans
##rib
mov
##ether
Congress
spe
United
attack
##ile
##ich
und
em
political
help
##ys
contr
news
month
##ently
##ier
adv
##rem
News
##ets
much
##aim
##ily
ac
says
look
cour
wom
mill
##led
Mc
##ederal
##pr
id
is
##ency
mil
##ere
media
prob
belie
##gan
fam
well
##oot
election
##ein
In
care
take
##ected
polic
prog
##ution
sign
tra
Democrats
##round
##ashing
Sp
##aj
point
##ever
##hip
contin
up
##bers
Russia
##ank
##urity
world
fact
##view
##ts
##ision
sur
on
##its
Br
##iol
##omm
conc
Clinton
##ility
States
play
##con
##gg
##ox
claim
##ady
Sec
ob
##ounc
##der
ent
direct
any
sub
##ually
##au
##epart
day
##ool
##uct
##ior
called
##ific
##ands
deal
still
statement
reported
Jo
##omet
though
bec
fe
ph
##res
according
##inal
dr
gu
##ife
tal
##ajor
happ
##les
hear
prop
Sh
##ense
plan
Washing
##ollow
##yst
quest
##ather
milit
##king
aw
national
##ah
federal
since
diff
real
meet
##att
Washington
Russian
run
##ave
dont
Is
bu
##ms
found
ret
##ash
aut
left
pass
##ott
Mar
##ular
##ized
so
##ants
including
car
tru
##ner
##urs
gen
fund
##ins
good
stud
under
Re
viol
det
##ivers
Tw
##ope
ro
##ven
##osed
power
##ix
compan
ant
did
##ats
America
spec
Americans
requ
put
press
##ror
immig
serv
cond
##iness
##io
##az
far
ann
Man
##etter
##ecut
##up
sch
officials
pay
ser
col
##ional
somet
Hill
##conom
big
##eep
twe
min
Korea
##stit
##red
##atch
##ote
clear
appr
##ling
##outh
##epartment
##ican
York
##used
pres
##ued
##ines
never
##ush
inf
military
##atur
##use
million
over
##orn
threat
try
program
commun
inform
critic
##lish
##ests
bus
another
sl
##ason
major
##xt
follow
Ir
##ject
Sy
start
without
##ech
ext
prom
three
##hor
Comm
job
##ately
##ember
##ised
emp
use
##ering
el
beh
child
##ially
them
##ened
##ned
police
leaders
##ared
come
opp
sm
##olog
econom
##oney
##ians
##ces
num
##ention
##ina
##ience
##ief
##orts
cor
around
expl
really
policy
##als
John
seem
##retary
the
soc
appear
saying
##ices
##arge
##ull
##acy
set
allow
cre
##ending
Syri
Mon
old
white
great
##itter
##thing
trans
investigation
##aid
McC
stand
prev
##ren
##loy
##ator
used
##ove
dep
poss
kill
states
rele
head
whether
##owever
##ittee
ear
miss
sen
tri
Democratic
women
##ystem
something
##vers
Ar
##ness
##emp
##eg
members
cover
dist
business
##son
days
fin
##uesday
hist
##cept
##ained
Tuesday
##isl
##let
office
##ged
top
##aff
asked
you
##med
incre
vote
##iving
him
##akes
Department
does
case
Con
An
##ize
##ody
next
money
security
##ested
##ruct
conserv
##earch
##ept
differ
system
terror
don
he
might
order
##atter
spok
##BI
##ined
##ically
change
fail
##OP
things
il
##elf
dem
curr
post
cut
##iet
National
information
##ustice
Pol
##ames
legisl
sex
lot
proble
loc
near
ca
##ved
State
##nes
##ided
took
air
##ready
FBI
keep
tweet
##over
inst
interview
alleg
turn
oth
author
##ars
##BC
Twitter
person
##ides
find
cap
Ass
they
hand
Act
are
arr
##ertain
##ics
Monday
##uclear
We
life
CN
hard
Fl
##ators
prof
party
already
Har
arg
##reed
to
ide
least
GOP
##ney
deb
pos
aff
proc
##ty
came
story
fight
Bl
The
##for
##oday
est
##land
tell
##gin
organ
team
Hillary
mor
place
protect
fil
##ph
meeting
question
gun
Im
decision
import
##ified
sever
added
##imate
ed
Come
Ad
##ward
##iting
less
vis
cent
stop
##iven
fr
##ellig
prod
got
##uck
announc
##gy
email
cost
Sch
##ds
rest
win
##ived
##udg
home
##riend
pop
##ures
believe
hum
nuclear
months
red
lib
##less
Sc
May
##idence
consid
##ying
av
CNN
wrote
##augh
night
##rict
Am
later
##imp
One
number
partic
working
##ising
family
##ike
Le
##iday
priv
##iel
##elligence
rac
view
Fox
Bar
Med
school
gl
##ursday
cand
##ably
vict
open
past
##ug
making
##pect
##ries
Wed
insur
##ale
Thursday
Chr
##nesday
speech
##eign
thing
##iously
##eng
##oad
fac
Af
##ittle
##urrican
Wednesday
##gress
likely
##here
Int
Obamac
issue
##ony
decl
didnt
##rough
recent
must
##ient
##els
Co
##yp
candid
##aul
some
##ended
##iversity
sugg
##ico
groups
##aily
and
sw
result
##erson
Acc
##ocu
away
mark
##nal
foreign
##ital
del
court
four
##ute
rece
##book
mar
Obamacare
concern
##ream
invol
main
mod
par
oper
art
host
done
ow
Friday
##onn
Times
effect
trying
##ains
##fort
##stein
##unch
Comey
execut
employ
sup
presidential
better
activ
now
actually
bo
went
##ization
discuss
es
##ross
##CA
South
read
important
met
social
bre
Iran
several
test
##alif
little
##ted
mean
##erence
den
children
legal
##ired
##ury
Sund
rul
##ivid
class
sent
was
weap
anti
sit
history
hold
##oci
sour
War
protest
##aken
##order
##omin
Bann
account
##onse
##ean
ra
among
##ric
level
##ards
second
Face
fire
##vey
laws
##ley
event
##side
##line
based
strong
immigration
##arlier
kind
Col
##ways
respond
Gen
underst
record
##atives
free
city
##crib
control
seen
##oung
reform
reports
mass
##ivil
Go
chang
##ases
##ages
enough
yet
##ees
attemp
give
staff
let
No
##urricane
Sunday
pot
response
##ential
black
##inc
death
vide
Sand
For
##resent
ben
simp
mess
pub
Cour
become
##idd
##isc
##ke
Ge
##ro
certain
best
Tex
rights
known
doesnt
Secretary
company
China
##stitution
reason
process
shoot
##lam
today
##bs
illeg
list
different
##orney
friend
Ind
nothing
move
##ividual
hes
##ured
##itch
grow
Facebook
##itiz
thats
able
##lim
feel
nation
##row
men
hour
others
conservative
##velop
Syria
saf
course
##ham
Calif
##eb
there
individual
human
##rug
repl
taking
across
##ev
build
violence
##alf
issues
book
ban
problem
special
dra
##ening
foc
local
Committee
##aster
Texas
repeal
larg
##ones
young
har
According
Court
Bannon
targ
large
docu
##ral
##ively
supp
comes
##ither
Charl
always
Min
Daily
##ison
Geor
along
##uge
Part
##erate
neg
provide
action
this
##IS
non
short
Cent
evidence
liberal
her
##akers
tow
##ole
Mus
intern
billion
comment
Mich
##pite
##reement
chief
getting
ve
possible
Christ
Off
##gn
voters
##ournal
continue
director
coll
countries
##reme
##ences
face
##oor
sol
full
##ften
##ium
famil
anything
It
##ced
##une
Paul
##ille
dead
Post
##ger
charg
bad
given
develop
##ves
dest
##most
fut
times
intelligence
taken
Rob
##enn
Justice
advis
##udget
##pl
##itted
describ
ris
sk
sus
##oved
announced
##of
general
##ogether
##br
thought
ago
confir
relations
##einstein
early
often
Par
economic
la
citiz
Californ
##itions
sing
##iver
##struct
Ex
ther
##ccess
##lished
research
En
pros
##icle
Eur
ident
##pportun
benef
legislation
immigr
Sanders
sure
return
##ission
border
executive
behind
##ners
mom
Bre
morning
insurance
pur
##rupt
matter
name
exc
congress
five
Sup
enfor
##sw
efforts
Pu
stri
using
##ming
weeks
video
earlier
future
private
ple
And
opportun
##ances
strate
##iminal
drug
DA
##ister
However
companies
Pl
won
##itor
##ll
small
weapons
University
Car
occ
##aps
chall
understand
six
tot
##usion
##by
address
##wh
line
plans
climate
bas
##anct
released
respons
Islam
##ibility
cho
coming
##ield
interest
community
Muslim
West
indust
##way
orig
pat
aud
particular
dev
following
##ville
watch
form
##sh
af
exper
conv
##imin
refer
##ify
eng
im
lim
current
Isra
##etw
##onnell
entire
politics
bring
spokes
talk
##essions
term
killed
push
travel
Not
##ulation
equ
##reedom
##ron
Ju
Sept
led
##ipp
role
General
presidents
val
ce
Ant
##illing
within
poll
examp
##elly
He
dam
means
close
oppos
ap
##uation
##ault
California
Bill
##ecess
civil
Europe
Mu
represent
comments
##edi
##oub
##lu
##rew
##omp
idea
success
##ried
##ilar
##erto
##sel
almost
##ining
##ories
##ias
##ops
##yan
fav
alleged
target
wall
ur
##iddle
wants
cant
market
Flor
down
##udge
leader
##anger
criminal
##aturday
reve
##obal
Or
held
##irc
complet
##ology
woman
Saturday
sanct
##istan
effort
##ender
##umer
together
sim
##uel
speak
personal
side
##echn
James
##urd
wanted
low
recently
reporters
majority
agreement
began
Israel
wrong
contact
Put
##unt
however
victim
DACA
Ph
fall
##ored
Vir
prim
Puerto
##be
force
##ature
##gency
##oke
step
financ
someone
here
detail
##epend
##atic
nearly
illegal
wa
Gu
##erman
created
##irst
##iam
##hood
funding
McConnell
Security
##eration
##FL
Weinstein
##overs
makes
Mo
Ste
unc
race
Mex
##cement
##osp
opt
again
jo
Medic
Florid
IS
eas
##eff
##ades
colle
Res
##aled
##reet
##izing
looking
cann
##rief
##ule
Be
expected
##eter
questions
Kelly
##uff
##ene
seems
##ump
##ites
claims
div
meas
hope
chair
position
adm
storm
##lex
late
##rab
##aged
##eller
##iter
##eck
Dav
coverage
Att
##omb
##ortion
Virgin
treat
Thats
sexual
##itive
lost
tweeted
##ata
##asing
water
emer
words
##oph
reach
cou
answ
immedi
candidate
##ots
attacks
deep
continued
Till
Harvey
rad
avail
NFL
doub
anal
##anned
inj
of
##EA
lear
Sessions
##uary
##amed
##pec
quick
exist
##atest
budget
Kim
##irl
spending
As
Florida
citizens
mind
senior
mis
hit
estab
Jan
example
##ird
isnt
##elt
##ensive
express
rather
cult
product
Aug
profess
compl
outside
##iety
##ability
room
launch
players
anyone
pred
relig
deter
##oming
##lement
##ped
Party
mult
stay
needs
doll
students
##makers
enc
Pe
##my
##fully
Charlott
Found
First
cred
addition
forward
happened
##eated
##uit
lawy
argu
##eed
calling
abs
##ows
half
Robert
member
simply
available
##por
##pecially
##yn
letter
init
Ryan
brief
Hol
Barack
##ett
fear
##ection
lives
latest
influ
##reen
##aced
char
##iron
bar
Supreme
March
conduct
##esville
talking
hon
similar
hom
message
Hurricane
failed
Brit
immigrants
shows
##istic
hours
policies
##ought
Def
##umb
techn
typ
remain
jobs
##tern
claimed
true
##body
##enda
thous
fired
game
Jeff
begin
involved
fig
##add
broad
##ouncil
##utes
##iding
global
instead
access
theyre
secretary
convers
single
##eth
##viron
nomin
signific
##itting
ISIS
##port
whose
propos
key
Charlottesville
accept
running
prep
charge
specific
##aring
Oct
##head
live
enforcement
##ape
##ghan
June
Tillerson
##aker
data
##ises
moment
phot
risk
son
##very
everything
trade
netw
Wor
received
gave
##oti
foot
regul
either
workers
prior
started
##rought
potential
everyone
##go
Ira
land
cannot
Count
especially
Ed
industry
##vironment
Even
review
##itb
clos
ground
##oth
danger
suff
actions
##ma
##isis
##eph
Iraq
suprem
relationship
saw
##iec
Korean
##though
##oval
##uty
incident
focus
##pril
##ipl
Rico
ord
respect
##IN
##aper
regard
##hem
##read
worked
##ality
##itbart
Afghan
##lyn
agency
noted
##aud
situation
April
Putin
City
agenda
##ights
July
self
favor
tried
September
millions
journal
stru
independ
##ented
soon
study
##igned
became
##isan
congressional
##ging
Call
Tr
leadership
Gr
international
##now
##ery
##ana
##AT
conn
pract
De
##icult
trad
##off
break
##ring
Mana
leave
theres
Bush
August
committee
##ribut
officers
progress
base
##ids
rally
area
##uring
forces
share
You
spent
##ends
missile
significant
defense
##ients
##rage
Ab
shooting
##oon
families
cru
CB
impr
Lead
appro
Center
visit
wind
Virginia
passed
conference
service
expect
##idency
##uce
despite
impact
sold
##str
##ball
brought
supporters
Syrian
include
financial
##abor
associ
Health
George
##iple
increase
Cont
Foundation
serious
longer
toward
controvers
fell
district
##erc
income
love
##ounsel
content
##arter
rules
Breitbart
##lev
Office
crisis
##encies
##oul
chem
published
difficult
##ON
audience
due
article
##uced
sy
expert
wal
Direct
##ival
##owd
Pence
rev
They
##ague
rate
hot
ball
front
food
hop
##raham
thousands
lawmakers
drop
hate
votes
behav
turned
paid
final
##iles
youre
probably
Well
lower
##urk
San
##ental
surpr
then
exact
##ael
coup
##sy
susp
repeated
shot
##rod
economy
crime
Mueller
##haps
described
##roy
##endment
suggest
##ract
##olution
Veg
happen
circ
ey
##raph
##ural
corpor
lack
calls
World
whole
David
sense
##rect
Inst
counter
negoti
emb
cases
gener
##pir
Police
Spe
educ
nations
original
movement
Serv
project
##iplom
needed
allowed
approach
App
demon
decided
Law
##ift
##undred
necess
Vegas
##self
source
Naz
##ving
accused
release
attention
amount
flag
debate
ener
##oman
Per
cuts
heard
knew
points
##ER
var
##andal
##reg
fun
trip
rule
indic
cause
##ode
Can
German
##isions
Str
Manafort
Director
Jew
East
appar
taxes
##rain
wasnt
else
presidency
Senator
##uses
leav
##icer
##care
ign
assault
##EO
disp
##lt
sal
##erty
Steve
sanctions
Mike
##entially
Pal
friends
fake
mot
chemical
webs
##ask
attorney
Se
resident
##anding
comb
Rich
total
girl
higher
McCain
communic
##using
truth
justice
immediately
reportedly
##attle
##wood
series
Matt
spoke
compet
primary
require
currently
##ama
advoc
Michael
prosecut
##opri
sources
diplom
ens
related
adviser
##arks
Press
##tain
cele
victims
##oud
Politic
##sequ
Mexico
##berg
documents
piec
willing
Associ
peace
##ety
##the
Jr
decades
third
vers
lic
manag
##he
##osing
destroy
##atory
nar
popular
El
Lib
##IA
TV
##af
##lynn
##atural
coal
##urch
Attorney
Ther
ways
vo
##ength
signed
canc
Flynn
Nov
pain
quickly
assist
issued
##iod
appeared
problems
Cap
Las
charges
individuals
house
##ane
avo
##aught
extrem
weekend
##ck
hearing
environment
temp
##urb
dism
confirmed
opposition
medical
##hold
appoint
##lection
ask
organiz
##ober
##ler
##ushn
supremac
dollars
regime
Cons
can
energy
hundred
Islamic
County
##ully
prem
events
##ester
Conf
amb
debt
mention
Medicaid
Kushn
lo
People
conflic
terms
January
has
##ania
common
included
##ceed
##ibly
concerns
Obamas
secret
pressure
Black
obs
wing
firm
hor
previously
certainly
allies
prevent
goes
increasing
##ona
phone
ran
body
Arab
perform
didn
opin
##sid
Cor
##verage
wife
Moore
##imately
shut
##illy
through
defend
##ustom
##ench
Dr
##iar
##aughter
establish
##epar
senators
fre
voted
Care
request
Graham
at
##oric
heart
changes
##arily
##alse
Many
##eless
##lin
##icted
father
revealed
NBC
elected
consider
God
Every
##udic
October
Ag
##ij
reality
areas
condem
costs
attempt
wont
refuge
##aks
officer
create
##ada
mag
organization
town
appears
Cr
elections
showed
carry
building
##stitutional
Tom
##stant
Des
Council
mid
##inks
##irt
Afghanistan
period
##ping
##aces
counsel
employees
Paris
allegations
##iation
##que
##avy
middle
Govern
behavior
##ocked
##raw
leading
##ino
Saud
living
region
Intern
Steph
##ously
##ination
Aff
##atal
religious
overs
board
light
crowd
criticism
Dec
gas
giving
##tty
harass
bomb
##lis
scient
So
particularly
Eng
helped
vac
react
strateg
Mor
freedom
answer
Air
ult
other
hosp
judge
##ilities
pan
##acter
obv
document
Last
loss
##gest
died
Leader
ess
Mark
abortion
##NC
Mos
##riz
Wall
word
##per
programs
remains
challen
agencies
website
bank
##iers
exactly
ability
Russians
false
suggested
##bor
Assad
sound
details
network
Ang
##aging
Kushner
##urning
hack
##ble
##udd
multiple
chairman
Her
separ
norm
##urt
powerful
services
##itness
forced
hands
subject
But
##ogn
too
encou
That
##urder
##PA
##ript
fem
unl
conservatives
Spicer
link
explained
particip
##come
agree
##iction
inside
influence
##ires
massive
##ris
adding
Iv
victory
experience
fair
terrorist
previous
reb
pretty
##uing
ep
draw
er
Ive
please
Theres
sil
ahead
exch
spokesman
##ilt
tro
Mel
sell
season
##ago
unf
terrorism
##lean
opportunity
##lywood
##asons
##inese
more
publicly
chance
just
lob
##ander
anthem
Chinese
##co
Johnson
Ken
eight
prison
Turk
Day
Now
served
worth
##rif
tweets
dangerous
telling
boy
responded
sides
contract
numbers
speaking
##raft
neigh
##ished
fighting
##racy
Jones
Pat
Cru
British
lawyer
protests
replace
directly
supposed
strike
path
poor
online
safe
##while
remarks
Sm
##ause
parents
ded
seven
ren
contribut
##utions
stories
reporter
safety
Cork
##iance
pen
agreed
wid
asking
MS
status
goal
felt
biggest
##erve
Hollywood
damage
offer
##vert
murder
Caller
bit
At
Ros
Alab
warned
Oh
star
healthcare
recogn
All
guy
gets
continues
opportunities
cities
offered
##rut
esc
cy
tre
##AS
##back
strategy
choice
##alt
provided
##anks
buy
##ession
ill
Ber
##itten
Aust
south
fra
##het
##ancy
age
##rimin
considered
##cast
argued
##RE
##olf
proposal
commit
Clintons
creat
authorities
elig
challeng
block
growing
Since
candidates
##rations
discl
ones
present
Federal
##illed
statements
quite
worse
##mb
Ben
emails
Americas
conditions
##ograph
believes
raised
strugg
aim
Irma
purp
Saudi
##angu
racist
residents
##pay
##earing
doz
Mac
disapp
##rom
Bern
##down
should
conversation
gone
wealth
leaving
perm
##ources
capital
CBS
Feb
flood
lose
##arian
hurricane
round
posted
pict
repeatedly
##airs
##eet
interests
##ordable
sum
minor
doct
warning
stated
November
complain
clearly
Pel
page
European
takes
Te
serve
views
pra
##enced
threats
denied
##ING
ties
sort
##know
##fer
tradition
growth
##arm
mist
Street
tens
insist
violent
piece
alone
##ledge
sched
roll
Instead
vol
hundreds
protesters
Jim
seat
arrested
changed
Amendment
##RA
center
bey
UN
Mitch
beyond
ste
Corker
tour
##ki
deport
Alabama
completely
##ston
played
##ouch
kne
absol
critical
Hes
sat
huge
believed
##asc
wond
knows
perhaps
##stream
benefits
appeal
explain
Minister
##ador
Defense
##oring
##chie
senator
Lou
mother
mus
most
proposed
college
licens
island
couple
blood
trou
results
Ariz
governments
publis
eligible
trust
culture
minutes
search
meant
uns
Pelos
Lond
upon
finally
##ocks
super
celebr
##any
inn
##eat
troops
##oted
society
King
oil
This
track
Carol
##going
acknow
French
largest
filed
Ivank
legislative
Jap
organizations
doesn
langu
interf
treatment
correct
remember
eth
average
##artisan
##ials
unp
seemed
introd
era
restrict
pack
approval
science
responsible
demand
schools
##band
##atever
cal
##estic
##lets
veh
site
##iling
avoid
Georg
subsid
reasons
princ
achie
agents
surv
##stitute
includes
##ai
##gr
##ude
pul
London
Former
politicians
emergency
career
Today
##aith
Gl
phys
Christian
##ruary
firing
Schumer
concerned
caused
cross
population
##eland
dom
Freedom
written
records
February
committed
character
##ayed
collect
Alex
##ateg
hus
##amin
Chief
crimes
fellow
parties
taxpay
scandal
editor
disaster
sett
##omes
ready
rid
Miss
works
necessary
businesses
##aching
battle
tough
##rative
standing
##mine
Ms
Administ
##ung
##raz
##struction
Prot
Pelosi
Japan
figure
measure
Cruz
##aries
owners
funds
refused
estim
hav
telev
version
##emy
bef
seeking
##fact
fix
promised
##oom
##erry
##aur
accomp
opinion
raise
dismiss
##ips
seek
##hib
custom
Major
voting
pointed
Will
purs
education
experts
worst
##emb
shared
Two
##aters
aggress
named
additional
field
fru
lawsuit
CIA
relief
judg
Ne
Intelligence
declared
##ront
communities
Joe
rates
fully
Padd
che
##emocracy
kids
looks
charged
moving
summer
student
##ns
playing
governor
##ushing
Another
followed
natural
There
forg
rise
##amer
thinking
focused
reached
challenge
##irth
##aked
Gold
determin
Sar
Capit
Soc
Ivanka
##oes
blame
corrupt
establishment
object
conflict
##set
road
corporate
Lee
harassment
Goog
largely
Angel
check
ended
##cript
conclud
floor
Sean
Despite
##vest
reporting
Wil
##ese
conspir
ang
##utely
##jected
##ashed
daughter
mer
CEO
regular
grand
##bur
language
recover
##prot
##istrict
after
Confed
##ps
mand
authority
##ysis
##each
##ground
administrations
pick
##woman
payments
criticized
discrimin
expressed
premium
##ersey
##opriate
plat
regulations
Union
Vice
mater
apparently
backed
grant
aid
meaning
Mosc
before
strength
technology
accounts
various
ir
oppon
department
Ill
lif
although
Constitution
gather
throughout
##anch
Camp
consequ
door
School
beginning
witness
Franc
##ulf
##light
arent
ten
##oses
spread
##inary
Congressional
mainstream
veter
##ez
##pped
##ingly
paper
##rit
port
##aut
discover
professor
failure
Tre
##rant
une
about
Rel
##oo
Yet
faith
tit
##oreign
Phil
ensure
##agon
rap
required
Scott
commission
##uction
killing
announcement
rhet
##ID
defin
joined
##yle
independent
##ems
##ares
film
resist
clean
##oken
##ification
Sw
sens
Mill
Report
##oyal
facts
bip
operations
imag
hospital
##uters
Stephen
benefit
wouldnt
existing
Id
Louis
##rol
pun
parts
elimin
highly
easy
Hum
##ears
##fect
##itz
fraud
##ges
##iring
increased
Comp
Middle
doubt
levels
##iled
suspect
deg
husband
dram
values
publisher
ongoing
send
##auc
racial
Army
design
maybe
drugs
##icked
withd
Right
##agues
Foreign
Capitol
platform
putting
except
##ext
collusion
##kes
regarding
##owed
confirm
##iant
##lying
moved
allegedly
probe
facing
what
##zz
attend
development
stage
##een
Op
##oving
ll
Bob
modern
alt
Richard
demonstr
Moscow
Fin
Jack
Judge
##rastruct
##iary
Mean
capt
##lus
depart
consum
##ological
##iana
resign
but
##ky
##ressed
Rec
Afr
Chic
prec
showing
Follow
Journal
##room
Strange
##ores
displ
promise
popul
Carolina
Media
abuse
##atters
##ternoon
Gov
##rastructure
##roll
implement
Google
devast
Uk
##assador
cast
credit
Mattis
##tained
African
Dan
##bed
stra
happens
##has
##owers
##resp
##gender
##lant
Arizona
##anda
supported
licensing
Bo
birth
hyp
France
OR
##ufact
##urred
talks
McM
television
afternoon
hotel
kept
controversial
##ction
squ
rob
##orks
dog
Gors
##licit
belief
##protected
##venue
resources
guns
##rible
##heriff
##time
##sych
Ro
church
William
##ster
eventually
beg
opposed
harm
coop
happy
winning
EPA
paying
Cass
highest
Brown
declined
##NBC
Gorsuch
cop
range
Hom
##ipped
practice
responsibility
terrorists
Ser
property
sometimes
Like
fuel
Cub
rout
##AN
monu
decade
histor
produc
whatever
fans
frequ
memo
communications
domestic
threatened
##cial
simple
purch
emailprotected
democracy
Paddock
Force
ruling
##ran
looked
argument
pushing
compared
bills
touch
recomm
##ya
measures
encoura
who
Pro
##lands
launched
courts
Spec
lab
evening
surround
Kenned
space
District
receive
bipartisan
Mart
analysis
extra
adult
Wal
via
pled
Em
##CE
rhetoric
International
##icles
decisions
infrastructure
reduce
radio
dig
helping
holding
exchange
missiles
towards
Content
approved
Mad
caught
##iny
price
appl
Germany
planned
sn
limit
claiming
wake
Austral
Meanwhile
learned
Affordable
##omen
Reg
meetings
Although
schedul
positive
Ka
miles
##olic
save
summ
deliver
conspiracy
Chair
absolutely
Qu
##och
rich
happening
featur
Bernie
Service
impeach
Muslims
Chicago
expand
activists
patients
ultimately
DNC
##kins
##AR
##rec
##otten
critics
##wide
##erm
aware
MSNBC
admitted
female
Nations
Smith
Green
sought
Chris
racism
advert
complete
BBC
potentially
writing
spend
##ilit
by
voice
increasingly
Su
table
##ford
Chuck
##ossier
Jersey
soldiers
refugees
supporting
##joy
##uster
##onym
seeing
experi
Pent
pushed
labor
perfect
successful
remind
removed
liberals
actual
Flake
Confederate
##ills
AP
built
ut
born
Catal
ads
standard
ali
limited
December
photo
##idy
##ression
radical
Jewish
Imm
##eilly
hous
##LL
Tal
##oral
##iest
lines
opio
Institute
march
designed
Red
prepared
##eek
Commission
himself
bal
quarter
colleagues
bab
considering
Frank
Bu
normal
voter
Sarah
mostly
music
whats
##oughly
investigations
familiar
OReilly
withdraw
mission
homes
endors
central
Administration
club
condition
ABC
injured
specifically
reflect
Penn
##iate
##inner
supremacists
Pak
##eling
surve
##empt
transgender
tim
assert
affect
##imum
##alled
UK
##umn
autom
nor
##ilty
ideas
disag
acting
weapon
resc
##wise
Majority
##vement
Georgia
panel
##arth
anim
If
Hal
rat
Hou
##igration
couldnt
slow
exerc
Kh
hurt
wel
assess
systems
sect
consist
Speaker
ver
acknowled
coast
Atlant
allowing
broke
traff
bott
##OT
targeted
controll
deliv
effective
Sal
manufact
Py
professional
matters
##oting
serving
Kennedy
Mass
##where
##eline
enjoy
options
becoming
honor
spons
scene
carried
##aying
Nazis
discussion
Park
Cassidy
Sus
neighbor
jail
thinks
Great
Good
difference
partners
wound
note
Yes
log
names
faced
fle
##lege
match
Ham
shown
thr
moral
princip
##elled
Adv
spir
newsp
possibility
##arr
##men
cell
##ota
conducted
origin
Eric
closed
opened
camer
liter
regist
##ny
nine
confront
lawyers
##US
Still
sle
domin
classified
cancer
Turkey
##lad
learn
Tax
pet
separate
apolog
vice
##itude
##enty
grad
Ten
places
accus
football
beat
NY
##ocket
basis
throw
aides
Commun
Coll
Jos
lie
##riage
Hann
Pentagon
##isp
deaths
west
century
psych
vul
wild
Civil
dropped
gra
training
apart
Jong
##acing
Don
greater
##lig
guilty
Carl
keeping
scheduled
##andon
solution
decide
ordered
movie
diss
negative
##emic
Western
##agan
univers
dark
##imony
identity
journalists
##illion
##iated
##atively
altern
promp
stopped
Canada
premiums
nature
gender
##abin
gives
discussed
Guard
activity
losing
bom
eye
##ume
##HS
briefing
symp
##iser
Houston
Agency
sick
##OR
Er
##aug
##oles
starting
larger
##icks
##ique
adop
protection
wish
##esterday
Big
Prime
remove
environmental
attacked
##ishing
Los
##yang
##icul
##ifying
planning
With
##ih
hell
Pen
Jared
annual
analyst
##agement
survey
Conserv
Homeland
applic
write
golf
destruct
knowledge
nominee
##ES
##anced
appearance
Association
politically
truly
join
option
##aine
amid
dise
Research
investigators
purpose
Nazi
north
##ongyang
wonder
stock
##issions
weve
bra
consequences
incred
##fortun
Mer
Mont
fine
Palest
deeply
identified
Rex
armed
recip
constitutional
Mayor
games
operation
value
##nel
NAT
##that
controversy
som
Pyongyang
stre
Grou
Ev
Melania
##etic
comprom
seriously
Services
stuff
##elling
Represent
dossier
referring
gain
Vlad
manager
Pakistan
outlets
##azine
propag
##AC
pull
##ansas
Look
##how
##reh
effects
Pri
draft
entirely
##oen
type
##ension
affected
##udden
street
po
##icy
which
##umerous
##osure
picture
##iced
Jon
##mas
##EN
daily
Child
arrest
insurers
##ero
Arabia
investigating
##yr
##lines
Dream
##vention
revers
Stud
Thom
##hat
sitting
subm
Dep
##ogue
Second
none
Inter
##idge
##EAD
##asion
tempor
founder
date
circum
fast
promises
NATO
trial
talked
##par
Val
Price
campus
mayor
##asury
Ac
watching
La
Wik
##MA
##craft
Watch
steps
crack
Maria
meth
Cath
##dog
positions
consult
resol
Left
McMaster
progressive
tact
intent
evac
Invest
connect
##iot
opening
scen
##antage
aide
providing
##obody
##ocking
upd
renew
##GB
joint
Judic
intended
Public
dict
urged
wast
Government
Special
brain
activities
obvious
occurred
Angeles
internet
observ
Parent
##orne
diplomatic
cited
##ewhere
##amb
##imir
Israeli
##esty
minister
##aded
##lv
##Care
hero
prove
testimony
Reuters
Bay
advance
deploy
Rog
behalf
gay
##ifa
II
arms
##cing
extremely
desp
##illance
champ
defeat
medic
minute
interference
below
maintain
Com
##ading
hat
had
Planned
weak
investment
funded
drive
mach
possibly
fol
reaction
Vladimir
marg
creating
image
linked
virt
Human
partisan
##astr
Associated
hall
##ucky
Macron
Fed
wait
College
straight
proud
instit
background
concluded
vulner
Parenthood
defic
##enez
Add
##erly
##ocal
heav
narrative
Mary
##ikely
writes
direction
spot
stood
##evin
##mented
sharing
Hannity
player
##arant
##aming
##icide
hopes
have
wide
wer
##ios
Star
##icking
##ansion
figures
volunt
##ara
notes
aircraft
##ritory
##eled
argue
initial
yes
Brook
##ossible
USA
##epern
threatening
DO
##ED
##ula
emot
traditional
##oked
profile
conversations
##others
otherwise
##lusion
deputy
totally
code
chec
innoc
##coming
attempted
Wilson
degree
##eas
allows
##ulated
outrage
promin
numerous
coalition
Oss
Andrew
faces
commitment
##rel
anonym
tool
few
signs
station
east
Social
Get
constit
embr
Politico
subsidies
Susan
##ews
standards
surprise
Lind
basic
hasnt
Earlier
widely
##efore
##itarian
Rice
od
##iger
##oples
unless
exam
territory
unclear
neo
proceed
shes
interested
##abinet
flight
Nancy
covered
Heres
##iable
explos
arrived
Treasury
##orrow
League
##ald
engine
EU
Ohio
scientists
introduced
Though
tells
mob
material
##aire
arm
worry
##riot
reveal
##enezuel
##ugh
orders
Ossoff
attempts
mental
protections
marriage
##elle
##etr
evil
Mn
brand
partner
independence
worried
column
Kaepern
presence
Venezuel
dream
##acher
guys
sales
active
users
owned
Rosen
##izes
Ital
products
prohib
sudden
##field
laugh
will
##sylv
streets
##val
smart
polls
##igan
stands
Mnuch
ont
inaug
##iscal
##ider
jump
vast
##itation
Adam
Pennsylv
ES
green
girls
color
cash
proced
loyal
confident
supremacist
opioid
choose
##opol
model
Sam
##RU
##oking
estimated
Group
resolution
perman
complex
##hern
medd
customers
suggests
researchers
##edd
returned
brut
##opoul
obviously
Krem
##icip
nomination
Haw
Ter
##TA
##ica
READ
##dom
discrimination
Tim
enter
overall
lobby
Aut
Navy
easily
agent
Free
##respond
Leg
roughly
complic
motiv
Thomas
Chairman
predict
gang
constant
Action
##urth
##whel
waiting
generally
dinner
Let
accur
High
Rod
prefer
production
corruption
##ban
##oler
##selves
retire
condemn
##MP
style
heavy
estate
##imb
Back
combat
mentioned
Reagan
Columb
##to
appropriate
Offic
owner
confidence
trillion
countrys
theory
##GBT
placed
deadly
Policy
##lements
campaigns
##rating
##aves
pray
##orthern
driving
lies
suit
##owing
personally
guarant
##yl
##ureau
everybody
Amaz
##rap
##ters
##we
blast
requires
LGBT
Circ
Secret
walk
seats
earth
cha
double
Russias
eyes
unlikely
isn
immigrant
##nam
##REA
dozen
substant
struck
pulled
yesterday
twice
##fall
##isco
Pre
treated
judges
seg
##ocumented
bur
##right
bringing
hed
##SA
India
integ
understanding
markets
##usal
die
sports
obtained
transition
##stances
Medicare
determined
##opoulos
essentially
##uate
consumers
Presidents
##embly
Mnuchin
guid
strategist
##uter
mistake
blue
raising
Pennsylvania
surveillance
bul
legit
Jews
Bloom
##TON
angry
##rees
secure
Iranian
propaganda
##uries
slam
Scar
##respect
ratings
##iqu
extreme
breaking
##uke
##inger
boost
##uration
instance
##kay
##eals
books
cat
insisted
symb
performance
impossible
indict
male
overwhel
##istry
##cl
Ins
der
fasc
negotiations
##encing
themselves
newspaper
initially
Palestin
##ager
usually
brother
controlled
journalist
mount
very
##iment
Plan
##oves
Mal
commer
##apped
Kremlin
religion
powers
institutions
changing
escal
##onc
comfort
##ittees
deportation
strongly
folks
soft
honest
advantage
wealthy
Ukra
England
##ulate
teach
Canad
disappoint
fundam
Wisc
##rian
rank
wearing
##arliam
requests
itself
immediate
suc
##ounce
Bus
struct
unw
##arch
##itely
engaged
##PR
assistance
same
##wards
internal
guess
wasn
lobb
##ecution
plant
prices
broken
drink
##orneys
thoughts
protecting
taxpayers
##oug
abandon
##formation
Rights
Francisco
emphas
finding
literally
##onna
##orders
sending
Ann
##ordin
interesting
unn
Mem
lean
##cle
##atically
shift
appointed
FE
referred
delivered
turning
somebody
networks
Kaepernick
minority
thank
acts
undocumented
##CC
Michigan
##aminer
##ado
failing
##ugg
university
Do
##HING
##ategory
##uana
onto
size
##sen
##PS
challenges
sad
tests
attract
##ucker
##more
connection
Theyre
Wiscons
spokeswoman
text
discovered
Sor
dealing
cas
writer
##arliament
vacc
##lor
bed
lit
mix
disg
nationalist
##anging
effectively
scale
Budget
goals
##PN
##unes
proof
##acity
##acc
determine
physical
##IT
ally
teams
vehicle
Mag
##person
##sey
##rast
tend
bigger
deals
afford
Sov
##ields
hol
cutting
What
involving
##ements
passing
##house
prosecutors
citing
continuing
ICE
from
promote
cry
train
Prog
ObamaCare
trig
own
acqu
feeling
tech
Also
lady
##just
illegally
revenue
associated
Far
Sl
shortly
lived
Martin
Econom
Rem
##aren
Collins
closely
method
ceiling
##DA
##arrass
##mploy
Cauc
Inc
duty
##aust
dozens
reading
##ensus
##ribution
rain
studies
cur
##iliation
Pet
ending
restrictions
Trans
##uted
##rants
##ivals
electric
##ze
apply
##bon
Minor
Sil
##aint
##ijuana
aimed
disease
investigate
Kat
Port
core
##aska
Sun
remained
praised
fan
##oots
NA
##bert
Tower
runs
Pac
provides
##itable
defended
##odd
pret
activist
Warren
cultural
fiscal
##hony
##ashion
plane
##arp
Roy
chann
convicted
quiet
disrespect
sac
established
Among
oppose
##za
reject
Lut
epis
suggesting
council
teen
Tenness
Pru
imagine
Men
trouble
doctors
disrupt
employee
ruled
Wisconsin
occup
sust
feet
heads
##ported
impeachment
priority
opponents
##ronic
districts
unable
Koreas
craz
famous
##fortunately
contain
Ukraine
park
unt
##endum
Dis
concert
fewer
Fund
sites
ballistic
##outs
photos
expansion
feed
returns
branch
forth
attended
Span
overh
guard
rising
vulnerable
produced
Afric
closer
improve
##aration
##urricanes
magazine
protected
feels
##ailed
aggressive
Morning
warming
contrast
Organ
##itors
troub
prominent
box
##CH
##icious
##oma
outl
alternative
embarrass
##antly
broadcast
perp
ESPN
speed
rating
terrible
##icated
##asters
##apers
MO
generation
package
becomes
revel
trail
##resents
innocent
boss
monuments
lying
citizen
Net
surrounding
Immigration
Investig
blog
Nev
pregn
restaur
IR
managed
moderate
##astic
Cu
ambassador
Marine
##iful
recommend
represents
##place
prosecutor
Britain
##arters
easier
##apper
##burg
Ener
Mexican
Lat
developed
Xi
advisers
##gypt
Us
##rick
involvement
havent
spirit
targeting
expensive
spokesperson
Sur
Sever
##ucing
messages
Minority
blamed
Never
##ait
fundra
Church
##ube
Anthony
Caucus
##anged
##overty
referendum
Egypt
mal
thus
removal
Ple
##ribute
award
recovery
advocates
More
Cohn
initi
Catholic
Gill
hired
##ched
##oper
Beast
judic
##well
Harris
offering
meddling
##apt
attacking
##elines
shouldnt
Ted
card
setting
suffering
suffered
bottom
##icient
demonst
Kent
arguing
sanctuary
##iami
Amazon
Governor
##fl
Asked
wage
Pruitt
bod
prime
Rad
notice
clar
punish
Berke
Me
Niger
Sheriff
rein
basically
##eld
spoken
hunt
##athy
acknowledged
fought
##arc
Maybe
indeed
Long
##enses
theyve
dollar
union
interviews
Fam
aside
Time
##ano
Stone
accord
enemy
statue
##rier
surf
##abil
advice
Tennessee
WAS
noting
##thlet
listen
##acement
warrant
receiving
##anges
##uk
Luther
greatest
gri
adults
circumstances
Business
equal
Pacific
inqu
Jackson
democrat
Lets
##nesty
Energy
##esh
DC
Hall
Miami
destruction
##ails
Huck
winds
command
Staff
burd
##bo
##rus
Perhaps
construction
Soviet
##ardon
Scal
videos
Rub
solid
Hand
English
constitu
bid
monitor
suppl
##HINGTON
Tra
##action
intention
Kurd
fit
WASHINGTON
rejected
compar
Huckab
Week
lands
unus
context
produce
##EL
Election
openly
##uts
Nix
##mel
targets
surprising
turns
upset
viewers
Four
filled
##upid
quality
memor
neither
pitch
emerged
comed
##erties
assass
missing
tensions
older
ment
instruct
demands
Viet
destroyed
length
Show
Ut
civilians
##erem
cyber
Haley
song
Oval
baby
Africa
personnel
##ker
Del
remark
##tion
##laim
uncon
heavily
insult
accusations
Huckabee
Carter
amendment
skin
resistance
OK
##oxic
marijuana
gotten
Sim
rape
fashion
enact
dismissed
store
directed
blow
##rial
harder
Ma
##itals
apprec
Whats
sun
##cription
##sc
requested
##arre
##de
ship
cham
succeed
ech
desire
identify
Spain
Rev
sleep
pair
Spanish
##iolog
Dont
McG
slight
##ellers
permanent
sector
##ipping
##kin
accepted
carrying
southern
overwhelming
Pod
scrut
regional
explains
associates
projects
termin
Women
Review
prospect
vet
originally
worlds
neighborhood
##inct
minimum
connected
chaos
Bel
Hit
##omo
lets
shop
spl
informed
burn
##Le
##road
disturb
somehow
Bru
offensive
Rand
doing
Author
explicit
Comeys
exercise
strikes
oblig
##pa
Southern
ridicul
My
intel
Educ
veterans
corporations
Several
Speaking
Rosenstein
NRA
replied
##bl
On
sem
##standing
extent
interp
fram
Miller
obtain
##mar
##esp
chose
##apse
##appr
deny
##rum
Berkeley
bi
consc
##rog
bump
realize
apparent
##equ
VID
##eer
##lusive
##gent
##OS
##insula
##aed
relatively
##ecutive
selling
unpre
VIDEO
accident
Australia
##rators
highlight
##obe
Examiner
hoping
##ounced
##ray
thanks
peoples
uses
delib
arguments
catch
outcome
Roger
Power
sees
profit
cars
driven
Read
Jul
##owski
surprised
committees
Central
taxpayer
##rated
Conway
neighb
##umm
Art
lay
invited
aspect
Mur
##emies
nice
exposed
convinc
bombs
net
retired
window
strategic
##ucc
healthy
Kevin
##rist
overhaul
correspond
opposite
anger
Hel
##oward
indicated
leaked
banks
kid
##pper
fill
puts
##autiful
Manch
##resh
demanding
##east
deficit
Liberal
##rey
##ifth
explan
qual
predecess
essential
actress
##work
Please
##pread
Dam
tick
Rock
##ihad
entered
scientific
Asia
mig
farm
addressed
arch
filib
##itage
posts
wars
acad
league
Judiciary
Antifa
percentage
historic
Indeed
distract
typically
athlet
suicide
weigh
manip
defending
Work
grew
##estival
Waters
sharp
refugee
pod
Indian
temper
jury
AC
recru
mic
##assy
Louisiana
Jer
##pping
attempting
##ivity
Exp
##abilities
symbol
##rich
attorneys
supporter
Protection
stupid
questioned
patter
achieve
##hen
entertain
transpar
Prof
select
veteran
rapid
file
engage
visited
Pap
pardon
reput
passeng
causing
crazy
Earth
frequently
concept
##idespread
Turkish
##ught
Fire
billions
Wood
cert
Bank
commander
principles
##onia
Circuit
spect
##atar
camera
Just
amaz
borders
##agram
increases
Sant
ton
importance
confirmation
werent
findings
##NA
deduct
gold
Three
surge
##cedented
Iow
subsequ
Arr
Out
uncertain
lobbying
granted
Kentucky
sav
Boy
Williams
##gged
favorite
merely
vill
violation
requirements
Imp
##oms
deadline
affairs
traged
supports
Oth
Conn
narrow
Bloomberg
FEMA
##uous
##rump
earned
Ba
stance
capacity
silence
Det
isol
##ounds
blocked
Ross
murd
rock
moves
Kimmel
##Leaks
Ra
donors
zero
##hatt
aliens
donations
fallen
##hol
shif
planet
##okes
condemned
rare
##ords
backl
Hey
##anic
clin
regardless
Project
rebu
Canadian
beliefs
Amb
longtime
entit
vision
##friend
married
Huff
recipients
temporary
hatred
Border
Gulf
complaint
Rose
##IC
outs
ends
forget
Atlantic
##part
ideology
supply
inauguration
management
FO
Make
hair
##ouses
widespread
##arsh
##iders
overt
enroll
computer
anybody
stronger
Iraqi
carbon
housing
walked
##lick
plenty
perspect
army
skept
Dem
aren
unfair
session
Elect
likes
Any
causes
DOJ
Education
unprecedented
payer
suspected
backing
nobody
pip
accomplish
Utah
Murr
pool
##west
##bit
politician
disgust
Kas
stun
insp
headed
##ala
emissions
##vant
##rator
##otes
coach
weather
##me
reference
handle
Take
##ables
##uated
driver
Gri
##rity
undermine
encourage
##point
regulation
images
recognize
##OW
limits
Bost
horrif
Lew
fresh
##ours
overseas
##yd
traffic
plus
Lives
hurricanes
Manhatt
batt
alongside
presented
Instagram
Poll
Peter
equip
mandate
hur
rum
Wiki
##raid
Kl
##vent
episode
enemies
replacement
opponent
handling
executives
devastating
##astroph
cable
stream
loved
ignored
joke
##arked
conce
promoting
capable
picked
sentence
definitely
Nor
##mark
rely
She
learning
commercial
crew
welcome
Natural
banned
wire
##utral
organized
Christians
watched
Page
##etts
jur
Michelle
##ware
ACA
beautiful
Island
risks
WikiLeaks
shooter
Lyn
##athers
shutdown
##emen
trem
Alexander
experienced
signal
Inf
doctor
inquir
##eme
cerem
els
reforms
Mrs
title
interpret
knee
represented
Den
##isive
Kansas
Rick
##erves
operating
assistant
sale
fourth
champion
##wr
broader
penal
developing
Ric
Turn
giant
##hips
resigned
Weve
VA
rall
tweeting
breat
##eah
belong
Prieb
Iowa
discussions
statues
conclusion
forms
Nevada
##ouri
sea
scream
DHS
##uls
devices
priorities
##istics
cooperation
registered
Bur
Harv
Conservative
Deputy
##irty
Juan
Tay
gar
Real
walking
Merk
##odays
fort
Mat
##ancing
explo
task
leaks
CNNs
Manhattan
auth
##com
Boston
Assembly
##arms
equipment
Thank
sole
representative
display
Nation
##like
##ani
sensitive
Cuba
Qatar
Somet
fly
catastroph
##bre
when
Arpa
ge
##math
##ashes
##Trump
epid
Dreamers
Color
Nixon
balance
Climate
criminals
Erdog
drew
tone
Cuomo
transfer
Mil
toxic
proven
depend
Priebus
##sea
##endous
incumb
Arpaio
When
cart
implic
smaller
waste
Zink
offers
See
affil
Super
Friend
##aus
whos
therefore
##ighter
struggle
moments
Venezuela
indictment
Ref
patriot
officially
##ius
YouT
fundamental
anymore
necessarily
staffers
Jord
topic
gathered
compromise
Podest
gonna
wave
remaining
Internet
Nunes
unusual
##oing
hypoc
purchase
##opular
unique
incidents
Fusion
filibuster
practices
revolution
##PD
bought
Palestinian
dial
competition
interviewed
tight
proposals
Talib
##nown
Blas
##uits
legally
decline
Missouri
##DC
inappr
celeb
scrutiny
Vietnam
Jimmy
diversity
Think
Muellers
##erred
Gun
eliminate
Assange
tied
assum
frust
lunch
##inas
##elter
##atures
fault
rif
provoc
##gen
##ches
compreh
drawn
##xit
trend
Charles
bigot
IRS
founded
answers
crucial
Fort
democratic
bear
contrad
encount
wounded
Murray
Brian
Sens
describe
detailed
##etz
flights
younger
afraid
Vict
##AL
##ici
refusing
bag
amnesty
violated
automatic
##nits
reconc
optim
leads
Grass
aftermath
suddenly
CO
reaching
Sem
Bureau
Hist
Six
##ardo
Environment
di
coordin
encouraged
Senators
regularly
my
keeps
Maryland
footage
significantly
contributed
Bash
##actions
holds
summit
Given
Feinstein
parliament
Papad
Taliban
Max
##IV
manner
leaning
Anthem
Equ
Water
weight
Aw
mouth
Whether
perpet
stick
ethn
flooding
##hal
##IL
shout
plants
rush
peaceful
Ol
testify
##ario
CBO
assessment
Ok
reputation
impl
##cel
##ictions
leaves
##amucc
wages
differences
connections
disagree
ridiculous
##run
##essed
##ception
grab
knowing
deserve
anticip
collapse
loud
facilities
et
Chel
sounds
eld
Deb
##poen
discussing
Anti
pursue
Joseph
##yster
photograph
Campaign
anyway
machine
Murph
grown
nearby
##The
supremacy
End
section
##abeth
Davis
magn
##uties
severe
historical
anch
viewed
fighters
county
ST
injuries
household
provision
Scaramucc
phr
femin
Qaed
dress
##iffs
Brexit
Dut
fulf
##avery
Up
max
poverty
firms
Stat
fears
anywhere
Harvard
##angers
reasonable
Abb
approve
explanation
fel
##iveness
delay
ramp
begins
sor
vehicles
recall
governors
handed
TRU
employers
suspended
pictures
Following
usual
##fire
contacts
Lindsey
adds
Eliz
Key
friendly
YouTube
wouldn
nom
Would
screen
complicated
Ell
urging
hearings
##allas
recorded
trib
surger
serves
Serge
actor
Rom
opinions
shock
neutral
undermin
Independ
struggling
score
frustr
western
Gates
##prof
accurate
Resp
amazing
Matter
GPS
##abb
articles
Without
liberty
complained
ethics
Night
raid
Gard
begun
producer
##osen
##eel
##ached
covering
exempt
##roc
Jason
wear
##opher
##ilitary
mort
##iden
passage
Buzz
function
complaints
helps
##win
intellect
kinds
ranking
Balt
##oe
Clark
Some
representatives
perspective
Greg
bond
##endez
refuse
hosts
prompted
##achus
Win
Short
Global
fed
advertising
stocks
Share
Chelsea
preced
tragedy
epidemic
Labor
##acked
Happ
stars
##acks
deleg
signing
hacking
backlash
phil
Valley
##ressive
inspect
##gar
subpoen
chain
##ette
courage
##rid
ignore
##ros
abroad
notion
worker
offices
location
retirement
##rate
electoral
##elfare
hospitals
Dallas
Management
disclosure
Hitler
items
Friends
kick
dish
testing
elsewhere
reduced
##achusetts
northern
stead
Then
infl
ideological
divided
Elizabeth
Lady
tap
##uations
TRUMP
##erald
Again
Unfortunately
unmas
##inois
employment
device
Gork
Jes
bure
##ilege
##eing
sexually
Beij
nationwide
Life
fat
##leges
regulatory
Jordan
bodies
##aval
populist
digital
Cast
##Donald
##stance
upcoming
preparing
headlines
protesting
infam
Massachusetts
##icop
##inees
overd
transport
hoped
##known
shame
expanded
Says
fant
cong
entering
resulted
emotional
Officials
mut
Illinois
virtually
Coast
grounds
tactics
Ambassador
Affairs
##iral
proper
Netw
womens
##rov
Open
Alaska
challenging
Grassley
provisions
CA
##rig
Executive
estimates
damaging
alien
Representatives
imposed
##isa
##ewhat
##ibb
assets
fool
##acle
congressman
enorm
intervention
Soros
scre
obstruction
division
##oed
##erated
legitimate
Ram
citizenship
##inely
relevant
Mod
##phone
DeV
praise
Neil
##apping
Kurdish
Qaeda
##lers
representing
margin
types
Prince
truck
formal
entry
Colorado
dia
Som
##acre
anx
schol
judicial
##ework
##enders
facility
Ron
privacy
advocate
Blasio
Ark
bias
Zinke
gap
band
##eeping
manufacturing
Deal
consumer
Colin
Rather
craft
resort
Dun
vital
vowed
consensus
polling
reck
Play
Apple
Murphy
laid
alive
listed
tack
pointing
##uded
advocacy
youve
supplies
Lago
Ronald
Catalan
Griff
newly
blind
Related
understood
Book
located
##idden
outlet
cust
quoted
stress
grants
appropri
##oximately
seemingly
Later
bound
##ells
advers
burden
pages
reduction
Erdogan
reads
amounts
##ils
finds
hostile
Steven
appointment
##urther
integrity
Podesta
To
##onduct
existence
voices
restaurant
Yates
Papadopoulos
hide
adjust
inappropriate
hosted
midter
followers
threaten
speaker
Japanese
##dem
Shar
admit
predicted
cops
gathering
Philipp
consistent
intens
unemploy
Counsel
tom
impose
buildings
captured
Family
Fake
hardly
departure
rural
##under
visa
visiting
accountable
##ateral
##erved
##manuel
slavery
Organization
factor
calc
somewhat
unconstitutional
youth
creation
Scaramucci
retal
dispute
eat
successfully
Trade
Gary
##rust
Ver
buying
incredible
##van
##stone
##repr
constitution
king
privilege
ought
##arely
abort
airport
##useum
##rop
persons
rebuild
Grand
dedicated
ble
segment
##with
pledge
stret
sheriff
##mans
##odes
##hus
partys
##irm
##ocaust
constituents
Environmental
construct
sid
incredibly
jihad
Ent
pil
guest
unb
why
elite
letters
reducing
goods
Beijing
silent
##LU
excuse
lock
misc
teacher
persu
proved
starts
solve
root
nominees
Pan
##maker
Khan
Gre
billionaire
titled
Que
Veter
parent
legacy
Lab
welfare
corner
diplomats
featured
nationalists
dramatic
ast
Lynch
occasion
suffer
Dems
Hisp
links
tank
##ributed
resignation
toler
Marc
Sub
##ulating
alter
replaced
ho
##sons
counties
joining
Hunt
hab
Support
Representative
resolve
slightly
tor
Menendez
##urance
combined
pieces
participate
satis
convinced
Emm
actors
profits
Und
Politics
bombing
sacrif
Reform
animals
addiction
cycle
ethnic
shots
penalty
bigotry
speaks
##ua
disgr
Jesus
sover
Van
##isters
stepped
##ux
headqu
monument
rival
incomp
industrial
license
ballot
Guardian
Matth
NPR
lots
incent
##ailing
##ita
##ricult
shape
Youre
divers
investors
MORE
Cabinet
fires
Catalonia
checks
questioning
enforce
variety
doors
factors
inev
follows
Ky
contributions
relationships
ceremony
forec
transl
##aunt
missed
Indiana
##boy
rig
##UD
occas
Eastern
##cohol
Terror
##encer
Others
unit
warm
custody
violations
communication
deem
tele
Sol
punch
##iform
Here
River
fate
writ
split
##ello
##cean
intim
finish
readers
##har
##mates
##isers
departments
slammed
Could
##etime
alert
filing
extended
Colbert
minds
plays
unity
heat
motivated
brings
endorsed
Near
##irds
Rubio
ice
frank
tremendous
races
bath
disturbing
tort
stayed
editorial
reass
print
plot
sorry
cold
pattern
contacted
##erg
announcing
swamp
spy
announce
humans
associate
were
##otted
Columbia
Ever
comprehensive
Gillesp
load
##gers
##leans
Radio
hint
Everyone
definition
elements
ped
##BA
cool
##ealing
error
stake
earning
pledged
Merkel
##hab
earn
cheap
Ali
advanced
distance
##ifer
Maine
argues
FA
solar
columnist
##erning
demanded
Ke
##gate
##adium
ignor
pulling
anonymous
Revolution
harsh
##inn
eval
primarily
Dak
##aving
channel
mir
##OO
falling
##KK
##Post
appeals
pressed
##REAM
Christopher
##LC
##icing
user
swing
Laur
unknown
Yemen
Islands
##lessly
nonprof
casual
Cohen
conven
##olling
chamber
innov
Hawai
##ahu
survive
Carlson
centers
Bashar
stating
surr
perce
rallies
##athan
server
fairly
guarantee
reconciliation
recalled
asks
boys
Wein
repealing
inher
stability
arrests
NAF
Cal
injury
DeVos
Five
Fair
Live
Jac
LA
qualif
Program
rub
tested
tout
Holocaust
athletes
flying
coff
drivers
authorized
agreements
Okl
##FF
##anted
dump
fifth
##ophob
##mosp
than
sport
handful
##umption
gained
grass
rescue
Asian
Libya
leftist
Baltim
empty
actively
electricity
everywhere
promising
purposes
##was
##abled
##yt
desperate
Doug
chosen
##erez
ven
##oz
##asts
##ultz
quote
Cuban
fier
##acking
unpopular
gunman
Bannons
hire
forcing
underc
sympath
##iences
hitting
contest
##angel
conflicts
Vide
##isely
foundation
baseball
Economic
illness
inspired
declaration
Beach
Biden
wins
examples
ru
rational
assassination
Profess
where
utter
delet
approximately
breach
DREAM
Merc
fled
diagn
chances
##itical
storms
##senal
surgery
counts
finance
finished
Christie
divide
hiring
misle
explaining
embrace
imper
Lev
Club
responding
neighbors
currency
Sing
unlike
petition
flaw
heading
credibility
permission
exchanges
theories
justices
Mul
intense
##News
bureauc
je
investigated
lawsuits
sued
contained
Custom
brutal
concent
NE
cabinet
Vot
cens
enthus
infamous
Dick
Fall
Military
Science
improv
collection
NAFTA
flo
fees
Perez
##ka
shocking
enormous
Hot
todays
switch
solutions
Wing
ree
patient
Daniel
##oster
##ship
Abd
Childhood
Hold
##assion
competitive
escape
Josh
Gorka
##isted
drinking
portion
Political
Protest
ACLU
nut
##unk
disclose
Kn
ing
headline
civilian
dub
##arity
headquarters
zone
demonstrate
mad
##urious
spring
guidance
criticizing
empower
shootings
typical
publication
ID
detect
##forcement
nd
describes
##gging
forever
acknowledge
##anne
strict
excess
Tor
clients
uniform
skills
festival
##asty
USS
bull
returning
horrible
Montana
Lav
badly
waters
substantial
unve
seeks
Baltimore
inquiry
##isd
concerning
##unction
declare
Top
##riers
Guam
speculation
eastern
spin
ham
##riots
anc
Deferred
dictator
deployed
##fe
##viously
properly
choices
breaks
dyn
striking
assume
Commer
Eth
tape
vig
##gu
shocked
describing
barely
Ash
equality
prepare
deduction
witnesses
Board
Way
##reported
soldier
##force
Corn
medicine
gains
##rary
regret
militants
hasn
odds
##xual
transform
Perry
murdered
frustration
nons
acted
calm
NSA
Sex
##pe
##EC
staffer
##aped
Schultz
opposing
Jerry
NAS
funny
Sign
Young
exists
Meet
sons
Presidential
Food
deliber
intellectual
Dakota
stamp
##isting
shelter
indicate
poison
Est
##lo
Barcel
compliance
challenged
schedule
phrase
philos
##ena
client
##iat
##ordinary
busy
marked
disappointed
accusing
##rie
shall
incor
humanitarian
entitled
papers
##apol
islands
Schiff
Forces
Trib
##asy
houses
intimid
kneeling
addressing
PAC
consideration
fundraising
donor
Atlanta
sponsored
Oreg
scenario
##obs
Cam
##fare
staying
absurd
Heather
elev
exit
##ooth
letting
Arrivals
celebrate
lowest
stations
##ament
podcast
mine
collabor
files
settlement
##St
##izarre
helicop
etc
Emer
Pres
massacre
loyalty
scheme
seconds
listening
analysts
flex
alliance
##iversary
Addition
Oklah
##ifies
because
Pay
Phot
demonstrated
tun
##accept
feature
Minnes
Italian
justify
extensive
##oenix
##ilateral
##osition
removing
humanity
dramatically
constantly
##aining
##eele
dogs
Barcelona
borrow
counterpart
applied
Armed
Broad
Medical
operate
Taylor
##erating
Harry
pure
restore
Australian
Italy
##otic
testified
Hamp
features
Netany
Zucker
feelings
consistently
tools
negotiate
firearms
Warner
conducting
collaps
supposedly
Acad
Moreover
##umber
Irans
haven
##inson
benefic
Interior
Va
map
web
answered
batter
##igation
cameras
boyc
comfortable
bet
anchor
equival
motion
Ukrain
dialogue
latter
oversight
rose
unex
scenes
Dean
##load
Hawaii
runoff
Sandy
migrants
ships
##acon
leak
Barb
explicitly
Simp
reveals
Society
Category
extraordinary
env
Phoenix
##uth
##bery
participants
CH
dying
mech
valid
clip
Anton
endorsement
structure
decre
convent
Oregon
##raged
hits
Fred
jurisd
coinc
##ologies
influential
thrown
entertainment
surviv
defined
pharm
extremist
manage
frustrated
pocket
Agreement
bes
planes
convince
Nothing
dign
##IP
##erates
films
disappr
Veterans
Ford
eager
Spr
realized
Duke
Steele
grid
correspondent
tar
van
McCarth
permit
Die
engagement
initiative
bully
Gillespie
terrif
##ga
carefully
throwing
##eman
samp
Manchester
KKK
Drug
pace
expression
##acceptable
fab
##uro
requirement
comparison
Bec
##otyp
couldn
drove
adopted
org
damaged
materials
iP
Over
Mir
##ontin
trips
Ailes
tenure
extend
Leaders
tired
threw
been
consent
Space
signature
citys
##laimed
bail
Stan
substance
Team
##olt
##ography
tonight
tas
occur
Somal
embassy
rescind
stuck
frequent
misconduct
Cle
being
Control
trigger
Hatch
pal
##away
raises
Thanks
memory
ring
soul
toll
universities
frankly
expanding
Swed
finger
tie
shad
transparency
Kur
Citiz
Old
##LA
None
requiring
Charlie
laund
category
##ownt
##ocol
##azi
speeches
saving
companys
maint
Network
winner
##mond
Yeah
updated
chart
##ovel
brothers
Chinas
##pected
traveled
encouraging
Il
##iti
anniversary
unacceptable
##vernight
##achel
Heller
##itan
Spencer
suspects
framework
##vaney
##itics
##rupted
negotiating
##olen
saved
##ooked
Brady
odd
Joint
focusing
LGBTQ
mph
##rina
alar
Coul
bizarre
Enforcement
colleague
Mulvaney
atmosp
##ibilities
desk
advised
promoted
incumbent
Griffin
conviction
losses
Arkansas
Oklahoma
Nik
posed
Brad
apartment
Lisa
attending
PR
affordable
deemed
##rence
declaring
universal
nationalism
teachers
Commerce
Customs
Minnesota
Cup
Sad
pu
whites
closing
Corps
lied
glass
minorities
interven
models
sixth
apology
porn
unh
completed
Wr
entities
Latin
caution
##ington
Foot
##areness
disgusting
Ukrainian
Verm
offense
meanwhile
landfall
griev
Video
movies
theyll
principle
guidelines
Little
strange
prosecution
pregnant
##aste
##ibbean
##urers
passion
##isation
Anal
recognized
noticed
preserve
privately
anonymity
flow
edge
procedures
Rac
Av
sister
##osta
exception
##agg
implemented
AT
trick
##rete
careful
##OTUS
##omfort
Caribbean
responses
contributor
nonprofit
leverage
reviewed
##icken
employed
rarely
Sea
genu
reverse
uncertainty
SP
##ancial
vacation
Lavrov
##ellow
mechan
AH
##eating
Shes
Appr
bunch
bench
Company
##his
##FP
inspir
equally
##bing
permits
amp
##bec
hackers
Hope
Luc
##hr
Finally
viral
##reach
alcohol
scope
semi
##orse
sparked
subs
Pros
##awk
Bed
irre
perfectly
predecessor
##ria
Congressman
transcript
maintained
comply
retail
##ports
traveling
Seattle
girlfriend
##stri
##alling
judgment
animal
apologize
##rea
Scalise
dynam
kicked
vocal
##oned
##ede
jet
blaming
Son
##weet
##DP
##adel
element
donated
height
accompan
passengers
McCarthy
Ret
methods
Much
Tit
revelations
oust
##otion
Jen
Jess
RE
upper
##Feed
##urry
pleaded
##ophy
satisf
seized
charity
Div
##eded
##onom
reluct
Sn
both
properties
providers
minim
abortions
Vermont
##mann
payment
settled
Pope
##LE
flat
horror
##erb
investigative
eating
vi
Zion
master
Netanyahu
tiny
authors
##orted
disasters
Sk
##cy
##anim
thor
square
plea
mixed
Next
##ching
governing
Bad
shares
disclosed
sympt
reckless
misleading
##anium
regions
unpr
drama
Bald
employer
drawing
maximum
native
sets
tomorrow
Rh
biolog
generals
Todd
bold
##onents
Remember
Hen
collective
further
##ads
detained
understands
Santa
mail
teaching
stunning
##opard
History
pending
##aved
traum
Es
##esel
##theless
Stand
visitors
indication
volunte
sight
pleas
widow
notor
Bey
lesson
##board
experiences
blasted
HuffPost
##ye
Champ
Why
Heritage
contrary
rapidly
attitude
useful
nominated
##illa
contribute
once
denial
ultimate
academic
##ectic
##apy
##ERS
clot
Reilly
stopping
unemployment
locked
Conservatives
Vox
##andering
terr
##andals
shed
exclud
copy
##isons
exceed
invitation
journalism
temporarily
Gall
Hear
reven
refusal
Nearly
strongest
combination
##icon
Relations
recess
criticize
Osc
##isle
shirt
##ogan
Financial
Saf
Weinsteins
Mississ
application
wonderful
tries
prosper
Katrina
Bow
##gt
##rens
##ini
##uctive
collected
ticket
stressed
horrific
colleges
Francis
unmasking
babies
Hosp
overl
appreciate
MA
jour
Jerusal
Mississipp
Game
marks
occasions
Dian
##HA
##shire
Handel
Jenn
downt
##war
uncover
cul
visas
divisive
Yah
##ument
##andalay
Additionally
reelection
surely
Order
flew
catastrophic
cler
guests
deported
##ILL
crash
outc
Brooks
Professor
Bal
stolen
##aware
script
##ipe
suggestion
##author
Ax
alarm
Ministry
quarterback
Der
Stop
detention
Lord
expense
cauc
Appeals
aspects
Gian
RT
fails
earthqu
Hispanic
stabil
sentenced
##risy
Run
##orate
Romney
##BS
##OA
##izz
diplomacy
pipeline
Cross
los
##ographic
historically
Nobody
united
willingness
Lie
Command
divor
surface
Met
Tony
##ato
##rud
##affetz
Mandalay
oath
institution
cruel
mere
vent
##asse
trag
multi
suspic
Appar
Houses
detain
industries
estimate
somewhere
dismant
paint
illust
Ale
##ION
contracts
achievement
##inds
uranium
holiday
Philippines
Coulter
Viol
fals
fathers
formed
remarkable
sustained
BuzzFeed
pour
replacing
advisor
pin
##DF
conventional
Jerusalem
Benn
if
youll
flags
enh
subsequent
writers
##from
inequ
respondents
burning
##iro
##ET
##OL
##isly
credits
precisely
dominated
qualified
fabric
Chaffetz
nonsense
expectations
liked
defeated
Ear
sufficient
troubling
Ku
invasion
Seth
Jay
outright
Jin
Prem
Disc
Linc
disappear
explosive
wiret
Sgt
merc
##egoti
briefed
unexpected
##eselnits
Fact
Mead
Squ
duties
stores
##opical
polar
formally
obsc
Columbus
##ari
##iev
smoke
##rav
presum
vaccine
enrollment
mandatory
##kaya
Card
Clean
IC
exposure
lawmaker
Zuckerberg
Pitt
nurs
chap
##ossil
trading
Studies
##prise
##ika
troll
Orleans
GM
plaint
##asserman
string
thousand
absolute
fury
##xy
feud
rounds
##edding
Bor
bol
trained
documentary
pursuing
warnings
timing
renewed
##rine
##IG
##abe
ranging
association
Mail
Point
diverse
##tons
##rors
##izer
##ifications
route
perceived
deleted
##comm
##ologist
denying
routine
Weiner
Lincol
trigg
##iants
##mad
absence
prol
##uable
discred
applications
Academy
roles
wanting
Kellyanne
##ougher
leaking
theyd
software
##water
timeline
quit
visits
objective
economics
##asted
passes
superv
circle
unnecess
sustain
Sometimes
progressives
steel
trafficking
const
concrete
##lem
roads
iPh
Mississippi
##inated
violate
loan
celebrity
savings
ministry
submitted
bru
row
##oil
##wart
conscious
FCC
mos
worldwide
Allen
observed
Cold
Northern
gross
addresses
Legal
gut
movements
aggression
midterm
documented
procedure
Click
Murd
Blue
phen
extremists
approached
preventing
peninsula
theor
convention
categ
primaries
struggled
faster
inner
excited
slowly
Tucker
##rett
Bol
bother
##SC
awareness
##roit
myth
Apparently
Veselnits
publish
##andom
generations
assured
possession
capabilities
##ENT
felony
##OM
violating
Adviser
##ifax
routinely
ride
##ensions
only
Yorker
paral
Jefferson
ordinary
##put
pose
taught
Change
unders
she
Marsh
Members
##IR
killer
resulting
contradict
dirt
compassion
hadnt
lect
analy
Sher
dimin
li
accepting
oversee
ignoring
Brooklyn
abandoned
Madd
Techn
pm
cloth
Senior
deeper
jumped
Da
fatal
tear
##ties
##sters
blacks
Regard
##iating
Anderson
Moham
participation
Mount
destroying
Hay
fossil
##ales
asserted
punishment
implications
List
your
meaningful
engaging
Depart
Wasserman
##olved
##cher
Information
surrounded
explosion
Cook
Curr
##itzer
Karen
province
Reince
launching
condemning
##abis
##ounded
accel
sponsors
Lt
exh
operatives
Kisly
##istance
airstri
Know
pund
##rip
acceptable
phase
expressing
PM
Wats
##ateful
commentary
ownership
##istle
flu
Roman
compens
elites
creates
swift
unnamed
Cant
Unlike
speakers
outrageous
bathroom
##gun
reward
contempt
##acies
kneel
Front
Scot
disgrace
AL
Murk
##poken
##TV
unle
businessman
##eo
Liberty
apologized
Peninsula
Equifax
Jinping
##ugs
Emergency
##ollah
##angelical
##ecurity
sue
##avor
waiver
personality
phenomen
Mic
legislature
Dutert
Keep
aired
handled
Girl
reiter
Justin
atmosphere
##KING
topics
sweeping
purchased
Crow
Mother
denounced
AHCA
contemp
hal
random
##hand
##ym
Officer
physic
##onest
##osexual
glad
delayed
NOT
Test
##active
artist
##oop
platforms
bankrupt
mistakes
investments
sentiment
performed
celebrated
##errym
tougher
##eli
##udes
cells
hypocrisy
Fre
##owell
recording
threatens
heroin
Lewis
territor
Fil
Adm
rolling
Goldman
grave
Roberts
evacuation
##lined
##inity
extension
urge
Advis
Check
##anny
Sure
eg
nu
thin
Emmanuel
brutality
jeopard
Kislyak
##thur
quietly
##opp
##istent
##ulations
Ing
Detroit
##osis
Jane
hacked
cease
technical
degrees
##acters
Judicial
Under
agricult
##anna
##argo
carrier
Need
Patrol
monitoring
Scient
precedent
forum
relative
##alties
Kasich
AW
spr
##awn
workplace
##aturally
cooperate
Braz
unanim
Editor
Citizens
witch
##eps
strengthen
devastation
Putins
adopt
Hampshire
Case
Easter
Pers
Thomp
##information
uncomfort
Palm
##inge
arrang
ET
witnessed
Meadows
Our
##unity
##ooting
phones
posting
unfold
satell
Ging
wood
##qq
##obb
while
dissent
Connectic
##ovich
scored
CNBC
prayers
##iors
##eds
characters
Strateg
math
rumors
Ton
##urring
exhib
##ella
locations
Pomp
involves
Departments
##mon
##utical
deserves
breath
expenses
lift
pollution
Crime
Ho
beating
aisle
cards
republic
arbit
helpful
Speech
label
loves
turnout
enacted
Late
involve
Patrick
celebrities
soil
motor
dirty
evident
exclusive
scientist
congrat
Ward
##ha
##bot
##oration
##ilton
farmers
Gingrich
Land
contains
##achs
situations
confusion
appearances
versus
##la
unions
##yself
closest
##aughters
halt
okay
urban
Kos
Veselnitskaya
Murkowski
SA
websites
popularity
spectrum
hoax
##ighth
homeless
Year
##ST
heres
Madrid
update
Cy
bars
jets
programme
fet
hidden
##ams
##ource
##aceutical
WH
unre
bright
weekly
restra
destabil
##adelph
Avenue
Hard
mothers
Koreans
##ylum
##OU
credible
lifetime
Hotel
Ah
##RI
##inking
##aze
NASA
Pass
##rying
briefly
Lincoln
WAT
mans
Access
revealing
skeptical
betr
plain
applaud
##iots
nights
his
##opolitan
quo
##lete
Cooper
founding
prevented
Jonathan
Memor
inflation
Hospital
Manning
owns
banning
##etheless
##ourse
Things
Obviously
Diego
Reid
dropping
Lu
Nich
Stock
##ommod
colluded
educated
##BM
tragic
Ry
dispr
Coal
Lam
##ratic
##ancell
fighter
##ko
Thus
denies
##etta
Philadelph
Gianfort
Connecticut
Mid
##den
##arry
obstruct
extremism
curb
##ication
description
Non
charter
shake
anxiety
hiding
mile
fights
Nav
##otton
intercept
##minent
##shed
expects
stable
##inder
##asht
Marco
profound
artific
revelation
lengthy
caucus
Ren
barg
##FK
campaigned
apos
crossed
Raj
myself
reminded
Lake
icon
##state
expose
commented
pleased
recommended
Ur
hang
##forts
##GA
##unct
canceled
comedy
Julian
AM
HHS
##ikes
inflic
minded
##itious
inacc
##erts
compete
Prior
Base
ug
stem
Prob
scared
Neither
coffee
##elves
importantly
Sir
covers
##acket
above
stops
Theresa
Nichol
legislators
towns
withdrawal
appearing
##child
units
hopeful
uncomfortable
ori
##inter
thirds
accommod
scandals
Clapper
forgotten
Communist
fascist
BREA
Howard
##rition
##igs
controls
eliminating
Nikki
##iments
incompet
##but
hearts
prescription
differently
determination
reminder
patrol
spotlight
Jose
##las
chemicals
deliberately
elabor
colon
Walker
Road
nav
mainly
embarrassing
pregnancy
scholars
Yahoo
Ult
novel
weird
blocking
que
##uating
##NT
greatly
ranks
Head
lux
beach
mun
##zb
Roose
screaming
Watson
##owitz
Stein
McA
slave
Chann
watchdog
waivers
favorable
##rin
subt
##sider
Beck
Fight
shield
recognition
Uran
##isans
##inding
momentum
enjoyed
iPhone
##aires
Lor
defensive
##ierre
Emb
vs
##Os
entity
Roosevel
DNA
##hi
spreading
isolated
##aron
obst
bureau
signaled
##fires
NEW
Love
UC
##opes
authoritarian
arrival
equivalent
gest
rogue
insisting
crackdown
fish
sin
##ications
partly
arsenal
Claim
Alt
retweet
walls
wrongd
devastated
echoed
champions
CS
iron
treating
fulfill
##eig
communist
valuable
##iece
tension
##ioned
notably
##ucking
asylum
strip
improved
logic
mentally
##reprene
Kob
gerrym
##bar
##ective
amend
rolled
##ras
##aping
##nty
##erving
nowhere
organizers
Domin
tip
##iy
shr
suburb
##uten
condemnation
NBA
producing
adequ
facilit
emphasized
##fight
encounter
Maxine
Home
gall
similarly
##roots
preferred
inequality
hung
outd
classic
churches
ideal
singer
##rest
##ghazi
responders
optimistic
Philadelphia
Yank
wedding
##abet
##ints
destructive
assumed
Clear
dat
greet
##anth
Threat
releasing
Convention
edition
globe
advisory
Death
Patriots
Uranium
##irmed
professionals
Alliance
##Ps
##ubb
pressing
accomplished
bases
##atism
Chap
loans
##burgh
esp
doubled
highlighted
marginal
recruit
flip
smugg
Matters
##iaries
##acept
issuing
dad
conver
##ahl
delivering
bullet
Awan
##ancellor
##ito
##irk
imports
revised
Di
Wild
##ca
administrative
Cow
pill
unrel
FBIs
Reserve
fu
lad
##eding
uphold
featuring
Sports
Leon
excell
elderly
Prosecut
Murdoch
hole
Truth
marketing
unnecessary
##ims
awful
install
civ
km
pref
impression
Benghazi
aims
embraced
##oft
##orous
defence
affair
Dead
hers
reviews
Stephens
unlaw
Independent
Ethics
survivors
Jud
feared
Kingdom
JFK
bin
##IM
##itism
##ema
warfare
homeland
kil
Inside
portr
debates
moron
interfere
achieved
Sergey
disastr
respected
conclus
GOPs
renegoti
##rad
Corpor
Thompson
om
wed
##icate
avoided
##respons
Shortly
inevitable
Football
WATCH
##after
Critics
labeled
Community
Matthew
jokes
pride
electronic
supportive
Keith
laundering
symptoms
refuses
##prising
implementation
Silicon
##apolis
Sav
subsequently
heels
Duterte
Hus
##aza
landsc
retaliation
inaccur
falls
downtown
Gut
blat
Teh
dumb
pump
##rob
blunt
III
initiatives
Cop
##ila
crus
prayer
Manaforts
bow
memos
habit
##pers
##edict
cares
picking
Commissioner
##fish
pron
instances
Similar
##owdy
dressed
statistics
Ow
gift
##eted
crow
##ucks
racists
Pompeo
GDP
Wom
snow
##olly
species
indicates
Rohing
Emp
rent
modest
consulting
nerv
Ly
##ket
##bie
aligned
such
reprod
##ultane
abus
socialist
wrongdoing
museum
pays
##igate
Acosta
Kle
Whatever
warn
airline
deadl
##perately
Abbott
depression
outspoken
##held
undert
charging
experiment
dictators
Happened
Ep
sabot
Northam
partnership
recommendations
sacrifice
Norm
soph
exports
projected
Watergate
Jean
##lymp
##encys
parade
divisions
ers
dignity
##bal
export
theme
ensuring
Ak
sorts
customer
Reporter
lobbyists
Gal
ram
sinc
Story
manif
backs
guide
nightm
Develop
touted
##ni
##iller
drone
classes
proceedings
grassroots
Kate
camps
theft
Christmas
choosing
outlined
predecessors
flexibility
##ileaks
Arch
Century
lifted
tactic
deductions
Nap
Almost
genoc
underway
assaulted
Angela
awarded
##comed
Premier
Aaron
mining
panic
wher
accountability
confronted
grade
contracept
insists
McK
distinct
Hezb
##elihood
Bible
ease
htt
reliable
visible
altogether
Osw
recount
Activ
celebrating
##OOD
Bang
Olymp
Lawmakers
##fast
normally
unsu
Trude
confused
possess
pursuit
anticipated
Oscar
Gar
##agn
scores
Better
dealt
helicopter
Henry
Bry
HB
twitter
clearance
capability
##bridge
journey
Hezbollah
SC
##eness
factory
##uctions
mainland
brave
##eignty
Bas
Summ
overwhelmingly
rushed
Garden
migration
sand
##jamin
impacts
looph
demonstrations
registration
rooms
Wikileaks
burned
Klan
boycott
diet
daughters
fields
stadium
centre
##cribe
salary
Nuclear
egg
sar
emerging
##borough
Raqq
Burr
##ikh
weaken
desperately
Peace
disastrous
Lomb
relatives
formerly
atroc
solely
FDA
ecl
ours
Everything
aggressively
overturn
unveiled
Tehran
how
mocked
##agu
disorder
briefings
##holders
intentions
rifle
Kurds
##TS
brill
prisoners
harmful
##ermore
##iciency
Intel
##urthermore
Main
Rachel
##gage
suspicious
capture
repair
whistle
lobbyist
Cornyn
Less
Islamist
broadly
Corp
amm
rant
unins
overcome
welcomed
Laura
ju
##attered
marketplace
bitter
piv
considers
researcher
Phill
##emon
Cham
brok
failures
developments
mobile
rocket
entreprene
litigation
earthquake
mas
Prop
blank
couples
robust
Clarke
Clevel
##oh
##inth
downpl
delivery
confidential
rifles
populations
affiliated
##hell
##imm
devoted
reflects
Gianforte
BREAKING
Deep
bans
##inction
depth
Joy
Ray
mat
tall
arrive
windows
memorial
campuses
authorization
hosting
mechanism
forecast
falsely
sends
toss
##agers
survival
Maduro
graduate
roots
wra
flash
Within
neck
vess
repeat
offset
barrel
compromised
obligation
reiterated
hyd
tur
Benjamin
sponsor
Local
decent
grateful
##leged
collar
creative
hammer
##igg
chronic
aged
boat
coastal
Os
View
##contin
item
##arland
Burn
##oice
reviewing
##enth
productive
tackle
stark
meat
safer
comedian
dry
##oning
##riors
nationals
ec
##kward
##hes
intends
endorse
pharmaceutical
Memorial
##inating
passenger
qualify
Ban
mock
##lights
inability
spotted
candidacy
Roosevelt
notable
##orship
commentator
Carson
Attack
legitim
Article
shadow
Rohingya
Host
nasty
Legisl
Baldwin
Brazil
dating
admits
participating
Build
Centers
Liberals
mog
Princ
deciding
transm
donate
moderates
##runk
Overs
torn
ups
Going
managing
Pa
mood
zones
demonstration
Pitts
##etically
##izza
countless
motive
Days
Jam
Sat
bust
wore
activism
illegals
trusted
fueled
Cleveland
##ola
desc
torture
Meg
tab
##icism
chant
evangelical
register
banking
PRE
myst
##iac
underlying
Opp
shit
physically
demonstrators
exhaust
##itudes
##umes
dealings
Investigation
plaintiffs
Channel
smoking
##lishing
assertion
Camer
Nic
Say
##ogyn
##yers
##chest
Priv
residence
clashes
commissioner
sits
clubs
hyster
##idays
Courts
mobil
selected
sovereignty
##burn
audio
laughing
talent
inflam
Conference
##ograp
Minutes
Country
birthday
tag
ineff
autonom
landed
Latino
Airl
##igious
Brenn
Common
Tell
inmates
Reports
simultane
maintaining
##archy
vaccines
Gab
Made
Stew
operative
households
Cather
Tur
indicted
agg
designated
Dar
PA
withhold
assembly
advances
directors
Fla
heroes
village
riot
Adams
discip
recommendation
AWR
Ext
Lad
clock
##ulty
aspir
Palestinians
virus
##ressing
caps
Campos
Furthermore
dangers
blocks
heritage
honored
enthusi
##nik
##anity
identities
ugly
##col
relent
instru
packed
settle
principal
presumably
ocean
##irts
unse
attached
disagreement
kiss
##worth
Maddow
Got
TH
lists
admission
NYT
conscience
vit
membership
norms
Berg
ancient
conclusions
POTUS
Tapper
##ele
##PP
transportation
Section
Tech
Years
##RC
##ibles
freely
touched
##onies
negotiated
Finance
societ
subjects
neighborhoods
Baker
Koch
rail
truc
cruise
Title
partially
abrupt
awa
rebels
flooded
Ha
Kar
enl
retreat
##umph
Champions
##azines
Woman
funct
shouldn
Scalia
shifted
##had
Children
Authorities
Hor
lapt
urgent
financing
producers
Hung
##can
alike
basket
Photo
datab
corn
disputed
Dow
##hum
##mets
##urer
dispar
casualties
gear
##anes
inex
workforce
Core
Storm
##ipse
Seoul
trees
thanked
fee
volunteers
Pul
smear
battles
artificial
nervous
Sachs
tears
##otal
##odox
millenn
Moon
Wallace
searching
##yer
##ennis
Gowdy
##fortunate
Labour
Trudeau
##osm
resur
Beyond
clothes
interactions
justified
escalation
Pot
famously
generated
diplomat
Seb
wis
##onent
drast
Myan
abuses
statute
awkward
MSNBCs
Bruce
Cond
hij
##partisan
agrees
cannabis
##OST
whenever
Stewart
antifa
drag
prompt
feminist
##ancer
improving
stepping
opioids
subpoena
##Ar
signals
##elters
homosexual
midst
publishing
crowds
Ferg
##mail
racially
herself
Mov
costly
Insurance
##acious
regimes
Austin
wondering
observers
uncovered
Vill
fence
##itect
perception
Regardless
Ire
plastic
economist
Conc
survived
pretend
rav
##antic
surfaced
luxury
##ographer
gent
Really
roof
penalties
fundament
Bent
HIV
Mah
Yell
gif
depending
generous
##ashtag
Boss
Mosul
Hamilton
Leadership
Employ
prost
Palin
celebration
steady
Airlines
##leys
distribution
protects
##EAL
consultant
Refuge
System
##igar
##anner
ambush
ambitions
emotion
Ingraham
BL
##estyle
existed
irrespons
##oan
frame
##regard
##oportion
##ensible
##lected
depends
defendants
##iques
incorrect
Tribune
AFP
Mult
##err
##backs
introduce
hanging
Larry
Mall
Vat
bn
execution
unfortunate
TheDC
##ISA
Peoples
Airport
crossing
pilot
##oid
imminent
cancel
Authority
Fergus
Ca
RNC
Shap
Kellys
Heyer
Garc
cleared
dece
Cole
Lawrence
sharply
accompanied
chapter
Sud
##ien
unfortunately
wheel
attendees
Bennett
Kobach
uninsured
Limb
nick
ages
sky
misogyn
practical
channels
tapes
stretch
Wright
overnight
##ingu
##uting
firearm
competing
ambitious
newspapers
Rodrig
Native
##rell
##irs
##idding
hateful
dismissal
troubled
Nevertheless
Anyone
triggered
sided
##alk
##opping
unch
Puig
barriers
NBCs
raped
Quest
collapsed
Vatican
Pew
invent
indef
praising
excellent
Lombardo
lucky
##GE
##osh
committing
wider
skilled
beaten
Pittsburgh
GA
Hod
Var
##liminary
divorce
Parliament
pounds
##lando
Expl
unwilling
Town
yield
cook
abused
Brennan
Jake
Want
##ordination
Tweet
annually
##arations
computers
sworn
panels
contractors
weakness
hypocr
magnitude
Raqqa
administrator
##bersecurity
alleges
Abed
yourself
sophistic
stunt
Castro
##dad
##onz
##stand
alb
Amy
##night
guaranteed
disabled
exclus
admitting
Peters
temperatures
Bagh
##break
##UDY
Illeg
Best
Mick
Class
missions
Based
dies
sake
spark
Beh
intentionally
undermining
loaded
Spring
Terry
haz
inches
##iann
proclaimed
Exc
performing
Stephan
patriotic
Rou
##zy
intoler
greenhouse
brilliant
##rent
Chem
define
Calls
philosophy
Oswald
Ott
slaves
theater
drain
Steel
disproportion
Low
graph
decides
solidarity
Krist
hashtag
waves
##etary
##reshold
leftists
injustice
dynamic
Limbaugh
rage
rivals
##asp
##retion
studied
hopefully
dubbed
lessons
Leban
favored
tracking
confrontation
prompting
volunteer
##boys
outcomes
DE
Dev
##ounding
After
imprison
attendance
Jennifer
phenomenon
Womens
Note
relie
organizing
Voters
Vol
stakes
legend
libert
Maher
economists
modified
silver
complaining
Progress
Freder
landscape
rough
Flag
restaurants
clothing
Sally
##oded
Start
Third
warns
Orlando
drafted
reversed
bat
tanks
##auty
campaigning
fright
suspension
participated
Scarborough
sacred
nightmare
Money
##elson
##who
fleeing
Hamas
buck
##luding
infect
Using
alarming
inject
threshold
##onder
loose
tracks
##demont
##ae
##inton
##cribed
against
Yankees
##aunch
##mate
##ivan
These
prosperity
undersc
knife
orchest
militant
Poland
cheaper
Puigdemont
beings
believing
studio
concealed
How
##irming
##iped
favors
emphasis
##flix
clinic
bridge
simpl
impacted
magazines
Patriot
##otypes
rewr
shelters
Semitic
myster
pact
sic
acres
Arm
technologies
unsuccess
Ap
##aver
##esis
##isk
##minster
##regation
treason
generate
condol
convictions
patriotism
Scotland
RA
exped
advertisers
exercises
bombers
mogul
Gh
Mess
tol
sweet
suspicion
Gore
Wars
vague
##agger
##assed
ripped
##zed
##ulent
##ova
##rats
##atched
commitments
occupied
wise
faculty
Account
Gray
Netflix
Marg
Wolf
Whit
insane
allegation
##ethe
discovery
##authorized
Berlin
Husse
wisdom
Cotton
Sent
##lee
alleging
##shore
engineering
chambers
sequ
worship
operational
prospects
##isanship
Cra
WOOD
insight
endless
harassed
sounded
loving
##bel
cloud
McD
overdose
dod
##pool
##igen
awards
parking
Eff
Moor
tropical
asset
Development
Oversight
Dave
Rah
sne
##oria
accuse
advancing
painful
counterparts
Partners
enforcing
Jeffrey
ethical
submar
Ricans
tasked
Bart
Hugh
cock
luck
DREAMers
genocide
##life
##ignment
unequ
clarify
Axios
SU
##rah
forb
##ogg
protocol
expecting
utility
manufacturers
wildfires
Bab
##vy
##ternal
Mexic
checking
ingred
Simpson
Ferguson
Cand
preliminary
justification
fixed
tum
scram
intend
therapy
squad
weren
Zionist
JC
contribution
favour
shopping
hurting
mutual
innovation
Antonio
manifest
##embers
default
Capital
Tea
prohibited
##Ch
agencys
Univers
##oys
diseases
##RUFF
Hawkins
WOODRUFF
##lel
##elli
plag
##awks
displayed
Communications
dreams
fundraiser
##endered
Prov
god
##ouncing
Ireland
##iture
stab
McConnells
rebel
shoulder
Fourth
Manchin
##rons
spite
sentences
merit
fleet
attracted
temperature
Tonight
Abs
NR
##ribery
declining
settlements
##umin
secured
youd
Cambridge
Wel
bacter
humil
communicate
##isen
invested
obligations
Making
Nick
##idal
Trumpcare
##ssels
affirm
waited
wishes
Eight
violates
authored
nonpartisan
ignorance
discipline
Myanmar
Bell
JUDY
Mob
##osures
clim
delegation
Baghdad
Nob
Sources
Uber
##acles
##akh
##ousing
joked
outraged
empire
examine
biased
architect
Ultimately
dear
##asive
sexism
rolls
submit
Patt
##tedly
lethal
transparent
##istant
##which
bullets
Hass
##inging
##ingers
##aria
stir
assigned
##oxide
respectively
checked
FOX
coordinated
lights
##ATE
superior
disregard
evacuated
DEA
Rican
Trust
Bridge
Golden
examined
Somalia
poses
pupp
##about
climb
outreach
everyday
metal
unlawful
Dub
du
sugar
privi
secretly
buried
revenues
Soon
raw
sail
consol
centrist
##iciently
##oard
##power
resett
proves
fallout
emerge
psychological
distraction
vigil
Neb
stim
barrier
Disney
Kam
##inos
##owars
brown
transactions
killings
audit
considerable
Chiefs
impeached
gaining
messaging
Magazine
Brussels
limiting
machines
Devin
gamb
##iner
NYPD
Something
Oper
furious
Tob
##ho
##vis
Senates
discretion
Obamacares
##epr
Everybody
meantime
Someone
genuine
ICBM
Bah
Democracy
pic
knock
bless
heated
shifting
Debbie
Hell
tune
neur
##ernand
outf
discou
organic
honestly
Means
DON
##omed
contentious
Oliver
instinct
casting
applies
telephone
Sudan
Buck
southeast
Pra
fundamentally
screw
slip
slaughter
Operation
shouted
Rush
childhood
Weather
tickets
Wa
##armed
reign
##ersons
Dianne
##continental
AR
Mun
##ologists
##egu
contributing
eliminated
tree
##entic
defect
conclude
Doct
biological
Either
##dict
##ilation
Through
Lo
##mental
offenses
##itchen
Israels
doubts
lifestyle
Roh
Early
##have
monopol
warhead
robots
earnings
eclipse
Hills
centered
kidn
Sab
chairs
Abu
provocative
Mons
dates
ditch
naturally
desert
proving
morally
Decl
reacted
Mitchell
Salv
reluctant
cow
dire
quant
patience
updates
inaccurate
Ty
##chez
unm
dragged
mounting
album
Kerry
##no
##New
criticisms
reactions
excessive
##ewise
meets
##angled
educational
hunting
Ball
##owder
##izations
maintains
incarc
refers
artists
controlling
Safety
egreg
Summit
Criminal
Egyptian
ignorant
Division
exclusively
Grow
Wis
shoes
expire
Du
coc
##acco
invite
abol
Assistant
debut
approaches
Heart
simultaneously
AG
Hav
##OC
lasting
financially
managers
narc
Shapiro
##eor
imposing
denounce
audiences
worthy
reflected
Yellen
wine
Thous
scra
traditionally
weighed
Coalition
carries
horse
Morgan
permitted
spiritual
incentive
##gor
##isit
steal
phony
Hillarys
victories
Cost
reop
##oween
resent
quotes
assemb
ideals
winners
poorly
Christianity
mandates
affecting
escalating
interpretation
medias
operated
absent
circles
##icipal
TO
##uates
knocked
frag
crying
CDC
##week
##utt
##thodox
##ifle
##soever
impressive
slogan
problematic
mel
counting
commonly
containing
notorious
Hussein
bon
##terror
bread
fruit
tolerance
##etical
##onto
responsibilities
renewable
Rogers
sovereign
bullying
Cut
Kid
##ELL
##unition
lawful
drones
structures
nickn
Iss
mit
hesit
memoir
Sweden
satellite
Bets
Give
Powell
intercontinental
##reek
McCabe
protester
symbols
Tes
##oup
##sthat
unite
compare
freedoms
Students
Semitism
airstrikes
Festival
Treat
veg
##father
##eef
prej
regards
avoiding
##eu
##enance
flames
oppression
economically
Workers
pundits
Rest
liqu
##unior
enable
discipl
resolved
Halloween
Holl
staunch
##ctic
##artial
Whitefish
radar
trucks
underground
reductions
##demean
Yiann
tyr
Newt
damn
whatsoever
bombshell
Lock
Mot
bribery
cigar
##itively
unst
##atorial
epic
consequence
Immig
Venezuelan
##MZ
shell
scary
Reed
Irish
regulate
Alexand
##LLOW
Federation
accomplishments
Kathy
OD
Sinc
Repeal
trends
questionable
processes
shouting
Sanct
Zeal
taste
notified
Web
burst
Huffington
inflamm
Pop
HOST
##IF
##isher
Prod
McGow
##nered
thread
centuries
irony
Dana
##will
remote
discourse
trapped
advocating
Assads
Embassy
Full
aver
cake
##amas
spaces
jurisdiction
irresponsible
Dur
##ache
unpredict
noise
##pro
studying
Imag
influenced
obsessed
Boeing
Infowars
ammunition
##cles
##zing
worries
foods
characterized
marched
Bergd
Betsy
Fields
Hon
coordination
appreh
Acting
severely
representation
##KE
offended
firmly
util
Cowboys
Ocean
##jo
scar
Washingtons
Halper
Rap
dys
partial
dishonest
compelling
attributed
diagnosed
Hate
Hart
coward
##entation
##oping
##eyer
conservatism
barred
Bushs
Therefore
CEOs
recovered
tribal
Moores
wre
thro
##ubble
editors
Flynns
screens
Ral
river
##uously
##va
##opez
boom
##undreds
voiced
affects
deadliest
AD
vicious
##inations
placing
humor
funeral
grav
surprisingly
Lamar
##utenant
sophisticated
##itters
##rooms
applause
Belg
Phillips
DPR
##assing
blown
identifying
Magnits
Experts
hug
staged
##iah
button
drunk
##keep
distingu
executed
breast
struggles
judiciary
kingdom
Sonoma
ousted
Did
Klu
hook
##lades
##NF
##Face
crit
careers
sooner
flawed
tail
##na
##astian
plate
unified
unaware
##ancies
Klein
steep
complicit
purported
veto
Dest
##box
##lett
Chancellor
Syrias
donation
Theyve
##ophobic
Gay
bot
##iates
covert
sexist
energ
reproductive
rever
regulators
##AND
sympathetic
parallel
amendments
Room
offshore
mayors
longest
wondered
pedoph
tolerate
##rical
##piece
unauthorized
##existing
monthly
arguably
automatically
vetting
Upd
screening
gerrymandering
Clearly
fuels
Cult
grat
prosecute
licenses
Curry
##esome
resil
unint
Paddocks
##ophobia
NO
##idate
treaty
troop
##rogen
Megyn
##fr
distributed
significance
bloody
##erally
##edy
incomes
wrest
relied
Alb
damages
misdemean
professors
applicants
Keys
SPLC
egregious
DPRK
Herald
Che
Clar
discount
franch
##ascus
Goodell
Museum
##alo
##stal
##oven
beer
##ouns
longstanding
policing
Amid
scholar
Contin
NYC
Thousands
Fifth
cyn
##NY
##itably
##pton
statewide
trump
disputes
mirror
##andum
firefight
separation
cybersecurity
remembered
medication
succeeded
utterly
Abedin
beauty
Andy
measured
objections
Nate
hip
powered
payroll
solic
Correspond
implementing
sympathy
Mitt
Snow
chicken
depr
volume
fantastic
sabotage
efficient
Marx
Tuesdays
Sundays
difficulty
##criptions
fantasy
Od
vary
retain
McCask
operates
Franken
FOLLOW
Sa
lam
withdrawing
murders
Denver
Abe
gig
sed
tons
##mit
teens
##rows
approaching
Throughout
##vin
##icides
##uez
aboard
Brother
Posts
##ausible
dust
##ullah
Study
mortgage
Tam
##UR
##esc
legs
##auer
engineer
dependent
Micros
##AB
inclusion
decept
preexisting
##iley
debun
opposes
Transport
Lopez
Ways
dance
Prom
extract
oldest
successor
ballots
##Facebook
relating
##inski
acceptance
hotels
tourists
portray
Damascus
drilling
##ologically
dominant
substantially
beneficiaries
elaborate
##igenous
bitch
clic
spends
Obs
Iron
demographic
Silver
Help
hurts
opens
Along
##otta
landmark
stunned
trauma
consciousness
veget
Hait
##ups
punished
Magnitsky
##gence
comparing
Who
electorate
##iffe
arriving
honoring
lowering
Sanchez
cheer
Franklin
inspector
Cas
Shel
suppress
friendship
Madison
psychiat
Independence
Fel
curt
jersey
##get
##Prog
safegu
##coin
Glenn
Respond
##ses
##Pr
sticking
##onsc
ministers
advocated
deployment
gangs
venue
Vote
erupted
parks
Indust
Rosa
Bentley
guards
Argent
airports
boyfriend
BR
##asses
##ernity
freeze
Market
portions
verdict
Interest
satisfied
oh
sink
stere
##ima
consumption
immunity
losers
Microsoft
FISA
defund
deton
civilization
Edward
MacAr
ABCs
mystery
Sincl
##eracy
Beacon
Saudis
Square
##Progress
joy
tense
##ati
subjected
absor
embold
podium
Dod
fold
fiction
hike
clause
Blument
Edwards
instructions
territories
Gonz
JO
##kov
organize
##iasm
premier
Email
isolation
Holder
Prosecutors
Belt
##ahn
##orated
##aling
institutional
infilt
Californias
defendant
matches
##arrett
decrease
Scientists
Does
Gate
##idges
expertise
Queens
Bes
gate
adapt
##obby
recre
creep
##beat
laptop
Chemical
captain
evacuate
persuade
occasionally
Zealand
##attled
Colomb
correctly
embarrassment
insults
Jeremy
Electoral
ThinkProgress
McAul
AI
Oak
divid
yeah
relax
beloved
Month
depict
flee
garb
assuming
censorship
arrangement
Bergdahl
Has
Sull
thugs
auto
installed
neutrality
Barbara
Hundreds
washing
dioxide
Monsant
bears
trash
lasted
intellig
provider
swept
landing
requesting
Sunni
Certain
naked
insider
distinction
reasoning
predomin
Sebastian
overth
sarin
Chamber
##lings
reserv
likelihood
attitudes
secrets
##oga
##iber
exposing
While
idiot
injunction
NSC
Pos
exemp
enab
##heim
Getting
subpoenas
rebuilding
nursing
Beg
Priz
liv
unrest
strategies
compensation
legitimacy
Royal
liar
stor
insurer
listened
painted
yards
##ules
selection
suing
weekends
factions
restored
confirms
Exx
CSR
Bomb
into
trav
postp
supreme
marching
prohibits
undercut
Dise
##dain
##DS
immune
skill
radiation
fierce
categories
##amely
Corby
halls
inaugural
mountain
Investigators
JCP
Poverty
makers
rd
insuff
fringe
portra
Cover
##bands
reaff
wounds
narrowly
unhapp
Imagine
By
Wy
##nings
crude
Richmond
##imburs
thorough
Technology
nose
pension
##herent
secular
Frances
drives
academ
deductibles
bonds
stabilize
Advisor
Banglades
##UT
indicating
unbel
Violence
##post
##istol
rightly
directive
Barr
Resistance
instructed
catastrophe
##repres
Bon
Fried
pestic
stealing
##owned
##lington
winter
detailing
focuses
challenger
Sorry
##abetes
experiencing
Event
permanently
nerve
##ela
##asting
alloc
##points
Targ
Together
Wat
disch
deliberate
maps
##irates
highlights
Warmb
preparation
OReillys
##committee
civic
Mom
Nash
mild
filings
historian
prostit
unequiv
Fe
gh
hostility
dim
peak
copies
Illegal
Tour
##MS
##erpt
##asm
stal
sentencing
Kaiser
clarity
undercover
Hopefully
Craig
Cobb
sod
##orical
##adh
tea
admir
Kurdistan
Garcia
##IE
##wing
##bell
##agm
##ques
Initi
ourselves
##rance
##arious
##agraph
guilt
Schne
Queen
Bowl
adj
retract
Palestine
sample
dismantle
McCaskill
SH
aer
##lan
##olph
##olving
Unite
medium
promotion
##anyl
teenager
Jacobs
Rocket
##places
improper
Behind
##bull
##ensively
administrators
charitable
doctrine
accusation
JCPOA
##entanyl
##real
decisive
quarters
regarded
songs
municipal
Nad
##ackers
##uces
behavi
motives
Claims
kilomet
portrayed
Bolling
FL
##oline
##anded
deaf
##ishop
outstanding
filmm
familys
indictments
Currently
Halperin
##arians
##quest
Russell
Kushners
Dutch
hinted
unrelated
erect
publicity
jurisdictions
Roll
royal
##ripp
##iano
upgr
##azz
Barron
##ATED
disclosures
Blumenthal
MI
span
resemb
finances
credential
clinics
improvement
reimburs
contents
milk
Joel
specifics
discriminatory
forthcoming
database
Roth
heal
Alan
McDonald
painting
Enter
Rajoy
suburban
##MF
##istically
##ablish
offs
##iances
allied
technically
priorit
prosecuted
##DAY
Ru
##ded
crises
efficiency
risen
##uddy
##terrorism
ele
fame
##fund
##orary
##sto
joins
##itated
##awkins
endang
singing
launches
Officers
affiliate
##ALD
optimism
gentle
keen
repealed
##shot
disrespectful
incentives
Rohrab
MacArthur
kitchen
##rand
##rome
##odys
##ifty
Administrator
Confederacy
Compan
Gallup
Yiannopoulos
##rim
##alls
tournam
Series
Stanford
Garland
Kirk
gru
gard
thwart
examining
accurately
SDF
brib
vandal
##II
##rep
##eto
##uding
safely
battlefield
Sheikh
##DonaldTrump
liability
lone
shipping
Anne
curious
Booker
Matthews
Germ
bearing
##isible
interior
prohibit
Catherine
Pund
##due
##erent
##enger
hypoth
Emmy
Protesters
bacteria
Fut
cites
arts
securing
addict
monolog
childrens
references
tradem
synd
authentic
cra
exagger
cogn
reson
##issa
assumption
parad
proposing
skepticism
ravaged
Ralph
##esb
crashed
##ereg
Noah
displaced
disagreed
universe
Prize
rom
##Democrat
foreigners
treatments
virtual
Toronto
blatant
##eets
##erted
outbreak
asc
exploit
basketball
AN
interact
Constitutional
subsidy
Working
intervene
syn
cultiv
unbeliev
laying
##nold
##tered
smile
unfairly
Sadly
Exxon
Gins
receives
paragraph
nationally
##oubtedly
##bes
capitalism
Nebr
Az
contamin
investor
surveyed
Famil
Respons
gesture
Similarly
##bling
incons
opted
Bron
conceded
mini
errors
deficits
acquired
Voter
Joshua
retweeted
LLC
fits
fucking
lashed
chat
shaking
Makes
Pences
Yale
filling
tent
##rates
spray
abiding
Palace
correctness
reversal
bare
fest
wield
##enberg
stages
align
recons
explore
objectives
Area
Cancer
Hook
Marines
minors
obsession
advertis
enthusiasm
pause
teeth
groc
adoption
tapped
##oct
##In
##Bl
commem
cartoon
bankruptcy
Klux
##VER
handgun
blew
Ox
overst
param
Orange
misunder
populism
geopol
bureaucracy
riots
##aca
blames
transferred
##key
chest
Philip
Ta
Temp
##emble
##anson
##quer
array
arranged
owe
appealed
Must
Yesterday
naval
##eh
stalled
Jacob
kicking
##ockets
hardest
equipped
Fal
Mason
Sum
loses
olig
viable
compr
presents
urgency
untru
Levin
##lib
stumb
directing
enforced
premature
disruption
bolster
##arma
clown
referenced
Walter
Consider
orientation
Sullivan
##tr
##omic
##eston
Stadium
empathy
Actually
nominations
Travel
rooted
Strategic
Disease
Creat
##ww
independents
Multiple
Kil
fishing
mour
mocking
vind
realDonaldTrump
Salman
motivation
Around
##ubern
Barry
walks
Taking
##mes
True
##istical
##aches
sway
Idah
##weight
disappointment
incumbents
maintenance
Metr
confer
##uffed
whistlebl
Kenn
Sasse
##lock
##ulus
sevent
Wheel
readiness
thoroughly
##ubernatorial
##ublished
Reve
posing
gunfire
##umpt
Looking
adequate
Buff
Liver
Natal
##AD
##asure
##ocally
Texans
Musk
precious
Talk
Researchers
Na
compiled
oral
accounting
travelers
PRES
Battle
moon
##luded
Brandon
behaviour
Aud
Moss
Naval
Person
Save
Vin
tower
reloc
establishing
Crisis
Award
Gets
Yul
bilateral
pants
thick
brands
programming
Barrett
appointees
Abbas
Fem
Its
##GM
degr
whoever
##ORT
burdens
##breaking
overseeing
Nelson
ost
##eath
##Americ
Stev
insiders
Youve
Melgen
Singap
wherever
##drop
##wan
Stri
memories
Already
attacker
hedge
battery
Urban
McAuliffe
##inate
index
executions
exceptions
McGahn
Lewand
Rule
confirming
techniques
circulated
looming
calend
insulting
tariffs
chanting
Len
##uepr
##aser
sheet
clash
##hner
majorities
Muham
Nebraska
cave
##through
interim
##ishes
guided
Bra
maneu
scare
shooters
symbolic
sleeping
Overall
##aggering
agriculture
Sinclair
IN
byp
##acerb
##iph
##usters
Tillersons
cooperating
https
Billy
reception
those
eventual
cancelled
appointments
Gods
Recently
acknowledging
laughed
foolish
Marl
##sthe
##urse
smooth
airpl
appealing
husbands
paperwork
##born
abund
defeating
intrig
carp
fract
collecting
Protect
photographs
libertarian
offenders
inclusive
mistaken
Million
Danley
grabbed
Ay
##aph
parano
magic
revolutionary
dictatorship
prejud
Mand
Resident
fitness
##not
sham
delight
Forum
embarrassed
Belie
Kath
Lear
boot
##bury
input
stone
northeast
Ryans
Margar
Awards
Cann
Rome
##izon
##encers
obl
commanders
Dunford
Rouh
Rohrabacher
##erver
##olve
concessions
Twenty
Donn
Father
nob
spying
##iferation
economies
arrog
##iscl
globalist
separat
Bernard
cautioned
debunked
PBS
prox
Interv
mode
excerpt
##etween
periods
withdrew
summary
inevitably
Marshall
Census
##era
rehab
enrol
scrat
its
ofthe
##offs
Sheriffs
mysterious
Absol
##uda
evolution
protested
Orrin
versions
##istricting
sheriffs
coincidence
Down
Hours
REL
bubble
peers
inters
slated
undermined
Bull
Durb
Fle
dil
##orically
compound
beneath
negotiation
encourages
voluntary
predictable
atrocities
unhappy
aston
bell
expend
anytime
referencing
agreeing
Secrets
##rudge
##children
##Times
##storm
##lice
defender
robot
Turnbull
Mohammed
Bangladesh
Hy
##ionage
counted
undo
annoy
mentioning
southwest
petty
intensity
Tenn
##gl
exacerb
enrich
midnight
branches
exemption
astron
Because
Tesla
rot
tends
reun
serial
corps
pursued
Bedminster
Dear
Gi
median
congresswoman
bulk
rampant
ampl
Loretta
Li
WW
fentanyl
tob
vend
recession
initiated
occupation
memorandum
termination
functions
TODAY
dysf
Bit
fert
Unless
investing
rulings
Israelis
Attorneys
injuring
relying
locker
ON
Slam
hub
commentators
fascism
Outside
concentration
##UL
##amm
impressed
##rams
Blackburn
branded
casino
unleashed
Bhar
##vation
prisons
stays
component
Yorkers
##IST
##ettes
Browns
diabetes
unanimously
inflicted
Fitz
gubernatorial
##ayer
##illon
##ribly
undoubtedly
Shooting
ordering
edited
emailed
occurring
inquiries
Gib
bio
##organ
##opath
abd
indirect
pressured
AfD
nonetheless
disappointing
NAAC
Besides
Use
##urprising
##ulous
shy
dealers
Imran
Boe
Pakistani
dated
oxy
##yc
Portland
Supporters
incorpor
disappeared
Singapore
NC
Pip
hates
##cer
antib
Mondays
misinformation
Deir
constra
lun
intermed
Woods
Broadway
discredit
Building
ME
##rik
disad
twenty
courses
Inv
achieving
fraudulent
Simon
manipul
patterns
Sin
##rup
seize
incap
attackers
convincing
Fallon
Hicks
yard
yellow
articul
challengers
pedest
nutrition
condolences
Sadd
rab
##fol
##insky
caut
Hop
pockets
##feed
##ormer
Sek
wildly
incompetent
Monsanto
Rey
Tamp
hurd
triumph
##IDENT
Ricos
greeted
##isi
##unger
proportion
Shah
prevention
merch
surrender
Napa
##ueprint
Ara
Sky
cous
##inational
##itis
warrants
insens
realistic
enterprise
dereg
lav
##zo
##icial
##enter
spots
homicide
lifting
designation
logical
battling
Find
lined
scrap
Claire
hostage
thereby
procedural
interpreted
sidelines
hated
outline
monetary
grace
militia
Weap
Forbes
beef
woke
##etown
##ther
compelled
monster
deserved
filmed
##phones
strengthening
teenagers
golden
crews
borrowing
vib
##anas
criter
shortage
concludes
irrelev
calendar
Occ
hilar
junior
complim
Sha
toile
Seven
emotions
reinfor
SB
Wray
namely
pig
##ributes
##auk
deputies
Resources
defenders
counselor
##initely
Consid
demonstrates
implied
Initiative
Cele
##pace
Prison
##adequ
womans
infant
resolutions
chaotic
Hodg
inflammatory
Giants
Yan
##HN
##itement
clashed
attribution
decency
Johnsons
photographer
lacked
essay
surveys
wrapped
##hot
##eries
##acular
plausible
meme
liberties
delays
respects
cleaning
voluntarily
besides
hydrogen
Idaho
budg
governance
expectation
virtue
surrog
abruptly
##ernandez
fingers
meals
applying
highway
boasted
objects
Evans
signaling
Ginsburg
bog
cosm
healing
##idi
seasons
suits
Schm
profession
suggestions
Advoc
echo
Warmbier
##icable
prize
staggering
##ader
presentation
troubles
disapprove
Nobel
Sekul
Emin
wary
##arized
##idel
##hinged
grasp
##ometown
exciting
grapp
Lebanon
unpredictable
Corbyn
pushes
Eag
Hong
NH
bone
tiss
##ationally
stom
##ateur
buzz
##alsh
pastor
elimination
neighboring
intelligent
Metropolitan
convey
sheer
Standing
##ogen
##assified
wholes
recon
releases
suspend
contraception
assembled
Field
##reated
Congresswoman
lacks
merits
Lewandowski
Dog
Due
Past
eag
tant
tang
##ych
##ravel
advise
Commander
socialism
certainty
lacking
organizer
sustainable
tamp
##uition
##FC
##amation
figured
micr
Impeach
Buch
IA
luc
deplor
determining
Millions
wasted
terrifying
Empire
franchise
Rifle
ax
lately
enabled
Uns
eyeb
steam
adversaries
Eisen
Walsh
dup
picks
##ifically
Schools
pretending
##ierrez
gifts
Transportation
melt
Scandal
traditions
Healthcare
floods
Georgetown
pilots
Pars
prone
quot
airlines
handing
swath
sket
Liberties
cheered
accuracy
manipulation
misdemeanor
Rouhani
Emanuel
SN
pink
pedd
worldview
slash
glor
effectiveness
classroom
weighing
##ablishment
Cern
Karl
Mes
Sev
dare
excuses
occurs
gasoline
Redd
Prevention
collaboration
credentials
Cat
Cord
Han
Riy
##Cl
##ums
credited
peacefully
contractor
neighbour
breathing
unmasked
Rodriguez
tournament
Absolutely
riding
##gs
##case
advising
tale
##letter
benefited
Carlos
proudly
Players
midterms
Revolutionary
Sexual
NAACP
Walt
##eting
##ackets
Cha
Billion
counterterrorism
##IDS
bedroom
teenage
flaws
TheDCNF
Future
Ign
Kal
erod
rated
##eem
McN
Medicine
deterior
grandfather
alternatives
Listen
RELATED
turb
##ba
##erd
inadequ
##rath
drill
Robinson
regulated
substantive
floated
venture
Movement
Frederica
Cox
Nau
cle
##zez
drops
exploded
habits
Kill
##atus
spear
twist
interrupted
Fridays
Sput
slap
rejecting
Weekly
evaluate
passionate
jeopardy
HBO
McGowan
hailed
##rift
shaped
reply
resume
preempt
drinks
legalization
suppression
Carmen
assaults
rebuke
televised
mandated
robbery
bragged
worrying
Online
improvements
Lim
Yorks
hometown
shirts
Thr
practically
escaped
poised
##etrated
rationale
ancest
iconic
Gateway
Lemon
##eous
##moil
##identified
##arged
belt
##lessness
ranked
Correct
vehement
Analyt
Race
##urbs
interaction
CBP
Perdue
narrat
volat
Idlib
stockp
intimidation
garbage
Durbin
Sputnik
vouch
##owners
stranger
Plus
formula
afterward
functioning
applauded
Said
##hard
distribut
reaches
assaulting
shutting
wealthiest
consumed
certific
bags
betray
Gutierrez
defining
##print
linking
unfit
##EST
Bat
Gang
Kong
Lik
##thouse
gov
##lical
disdain
##azy
McCains
topp
boards
budgets
reflection
slim
##hamed
Laws
mosque
cocaine
predominantly
Kings
##base
spike
reserved
attach
governmental
facto
Centre
Grant
Standard
loopholes
Companies
Bee
Sac
Wind
incoming
sentiments
Holt
circuit
fairness
restricted
recalls
storage
Gil
illicit
Partys
competitors
crowded
purchases
balanced
bomber
Sergei
Hef
ego
greed
##Th
##abul
carriers
preserving
Records
tactical
escalate
episodes
dubious
contempl
Laden
Wow
impuls
##addy
risky
brains
entitlement
Mercer
Bossert
Gord
tide
##mart
##eway
scoring
advent
enjoying
literature
Turner
subtle
criteria
Okay
tribute
##oons
##urp
##oding
spell
disability
youngest
##hetic
introduction
rejection
obtaining
ruin
Cernovich
ironic
##CO
##itual
##limited
Parker
commerce
Riyadh
cite
##atis
##ovs
Brzez
##beit
##othy
ultra
searches
Wales
IP
click
foster
xen
##ilater
##igm
unarmed
##ahawk
genetic
poster
Scouts
##lamation
certify
boundaries
alarmed
Corey
DONALD
ODonnell
Tampa
honey
##making
##anders
parliamentary
hysteria
##ilaterally
Rav
fever
##acted
Indones
essence
irrit
Religious
attractive
Ricardo
CR
Cart
silly
blowing
tolerated
Emmys
facilitate
stabbed
Jets
Rein
##leased
shore
repeating
blueprint
##icket
Other
Dickerson
genuinely
obstacles
sincer
unstable
geopolitical
Liverpool
PRESIDENT
Muhammad
Margaret
stomach
Golf
Witness
haul
investigator
organisation
salaries
oversees
##recy
arena
steadily
Pict
plun
propose
Syrians
equity
coaches
fortune
Presidency
purely
turmoil
narratives
Inn
supplement
domain
Kamala
Certainly
overthrow
Wonder
##mother
##aro
##izers
redistricting
Agricult
Small
accidentally
Brotherhood
Manufact
##attering
demean
affiliation
boats
terminate
puzz
ingredients
Sekulow
Ari
Cory
IQ
Rio
giants
pit
##yard
##bled
criticised
Committees
Arctic
medications
Bul
Psych
mast
maker
##iably
replic
##athon
caring
info
protective
visitor
stripped
touching
mentions
pools
cripp
##hin
##ilia
##omy
##ockey
informant
responds
##rawl
Accountability
Alexandria
Data
##da
stole
##ulates
forest
Stal
intact
Samuel
sailors
Ec
yelling
Jessica
Pain
##udged
forfe
ashamed
technological
dominate
Planet
vessels
Interview
Voting
cab
##cons
unilateral
newest
assure
infection
trials
airs
debris
fascists
firefighters
Ast
pragm
resource
sometime
buyers
tourist
dominance
abusive
seventh
meal
sir
##olan
seiz
remarked
Newsweek
promot
identification
Neo
precise
darkness
engineers
pleasure
Bharara
fores
Holy
partnerships
graduates
escalated
holy
Indianapolis
Swedish
agricultural
##osity
quake
orange
##ierra
denouncing
heaven
proceeded
Response
Gardner
WA
banner
peril
assisted
tourism
gradually
Inspect
swiftly
Germans
Comb
accessible
hadn
migrant
maxim
shameful
pouring
patch
##EE
suite
Proc
recuse
taxed
relies
confisc
flour
persecution
swim
separated
discriminate
disrespecting
crafted
Racist
millennials
sadd
##ICA
##rior
conting
bloc
Insider
breakfast
rallying
##afe
Quinn
preference
irrelevant
rip
sisters
##rison
##olics
##ante
flown
costing
supervis
Kaine
Row
unilaterally
##loyd
Douglas
ATF
obscure
Fat
##atement
##tery
relation
Arsenal
Salvador
Pundit
Fra
Hurricanes
fines
haunt
##front
##athing
##icers
convert
Station
tex
Amnesty
Warriors
waive
Linda
graphic
Todays
mate
##oni
confusing
Mars
locals
Europeans
Allah
resentment
AIDS
Link
gym
##legraph
masses
breakdown
sectors
dissem
highlighting
loudly
beneficial
trolls
##gorith
bent
mish
pills
Strip
##kinson
tendency
##ummings
inspiration
Operations
lamented
Rout
SEAL
Wyd
ouster
##wind
Whip
##formed
drills
##quez
forgive
resigning
belongs
tunnel
rescinded
Jesse
Cher
lap
pile
##lees
scam
admissions
jumping
shifts
disgraced
Eventually
factories
retained
recordings
chiefs
Suprem
fixing
granting
imagined
bargaining
Gabri
lesb
sessions
##bc
electrical
outsider
probes
founders
multinational
weakened
heightened
disproportionately
subway
promotes
Ellison
##antha
oligarch
Saint
##found
prest
shower
hyper
embracing
Hunts
diagnosis
Hayes
Cummings
OP
Set
chase
##ensic
Shul
tracked
endorsing
welcoming
Catholics
STE
AZ
sealed
Thought
defiance
corporation
jihadists
discredited
##pol
external
accum
Shin
cared
theat
stronghold
crush
pathetic
Goldstone
grip
gotta
www
##uity
##pired
reserves
unjust
incon
indigenous
crypt
grieving
##osal
##onda
viewing
preparations
Lawyers
recipient
rainfall
Terrorism
HUD
Mach
invented
allegiance
handc
Campus
Trey
FEC
horrifying
##guided
helicopters
Nonetheless
entrepreneurs
Wheeler
Bitcoin
##caster
##esy
##unately
USC
insistence
pledges
Snap
physician
cockt
praying
overtime
Ord
financed
produces
bottle
guarantees
unwanted
calculated
restraint
##aukee
##pin
chilling
Clay
Brand
damning
Student
imperial
wiretapped
bothered
Olympic
Code
hey
##gie
##ora
Reps
overly
personalities
controversies
musical
examination
physicians
Update
##town
##TH
##leting
straw
##erner
##airy
unconsc
verbal
Victims
Luis
converted
Cz
Jihad
Side
these
secession
helm
Brig
billionaires
cultures
Perkins
Goldberg
Havana
Disp
breed
##DT
spur
slog
grows
Engine
explosives
Mexicans
insensitive
UPD
Prices
Delaware
Vanity
achievements
Corporation
Hungary
antibiot
Hud
Lah
unacc
Chad
brink
systemic
Sharia
resettlement
Dra
tips
##leep
ard
extending
Socialist
feeding
clarified
eggs
ineffective
relentless
awaiting
Bom
yelled
##would
##VE
unlimited
Thursdays
difficulties
introducing
Milw
appropriations
inspiring
loser
unanimous
unsuccessful
Families
Pai
tatt
strain
processing
skyr
Calling
premise
Specifically
rescued
encountered
floating
Saddam
Housing
hy
##illions
bridges
distant
protestors
presenting
purchasing
deranged
Wayne
stamps
Jenner
Age
Bund
Dossier
Move
cents
##racies
##Rep
albeit
healthier
Isnt
creator
##edded
BLM
bbc
gal
##illery
Chall
paink
Consult
##onymous
margins
segments
villages
Wyden
Dal
Ger
uk
wipe
wors
defends
answering
Gillib
perpetrators
minimal
Large
nurse
##bu
inch
resh
socially
searched
whereas
marginalized
Nether
erupt
fer
##te
##eats
Repl
##arling
rebell
cheering
Hab
holes
##feld
##urances
crops
associations
Strong
culmin
unbelievable
Brzezinski
Line
Sierra
bona
##obally
Stra
decert
suburbs
thoughtful
interfered
asserting
thrilled
Samantha
segregation
oxygen
bashing
##ICE
##aya
##ags
immense
Shoot
retiring
anxious
jihadist
disapproval
Somali
Vik
fren
##uum
peer
##ucked
undec
metr
Britains
##irmingham
##isclosed
Most
masc
##sl
##iations
algorith
terrified
samples
Schneid
Hed
##che
##nex
##ussions
undergo
earners
cellphone
##colm
Hassan
privileged
Birmingham
Rolling
ports
##itas
whove
##ashington
prevents
sweep
respectful
ambul
Emirates
Massive
enjoys
jailed
enrolled
inspire
grabbing
skyrocket
MP
omin
##wich
##former
Chron
Melissa
Supp
northwest
demonstrating
Establishment
Girls
Film
narciss
Netherlands
Cred
HR
pound
vile
##ea
##orously
##solete
orbit
Tweets
meteor
marketplaces
Electric
##ulsion
##human
kilometers
##umptions
Dia
Dyl
Fast
nod
##Po
##ersh
##emost
constitute
chip
takeover
entrance
Shia
Shows
library
urges
Charlotte
Milo
adjustment
REP
Milwaukee
##earl
persistent
visual
fraction
Iranians
Smart
Georgias
recovering
Opens
revenge
jerseys
Boehner
AK
Ga
eighth
tuition
##elp
##urities
##ista
unhinged
consecutive
titles
Portman
##abbing
MAGA
lucrative
Job
##lie
##anked
##entice
##igated
expires
invoked
secrecy
intrus
endure
probable
misogyny
JOHN
monologue
Lank
spill
whit
depos
##ego
Accord
limitations
bottles
rallied
Meeting
poured
Jun
wet
##ridge
##erk
##osa
seated
ash
showdown
onFacebook
Facebooks
prisoner
##faction
boxes
Half
SEC
UA
lesser
erase
squee
streaming
sporting
Abdul
Probably
Gaza
Kirst
Nico
bite
jab
##wealth
##arro
##adi
Clo
grim
proclaim
loos
Recent
espionage
##gement
##Sen
instantly
Leave
valued
Worse
actresses
Modern
contemporary
Typ
naming
ende
upheld
realm
infected
respective
manufactured
spiral
Malcolm
frustrating
rigged
Jenkins
plagued
emboldened
wholesale
Gillibrand
MAT
hawk
##forward
harmed
chooses
commissioned
##ranean
verify
outlook
provocation
societies
##President
Residents
spies
Choice
faction
reasonably
specialist
Survey
transformed
monopoly
Led
Omar
fur
##atics
obsolete
legislatures
singled
outlaw
championed
recounted
grocery
Mika
ire
##list
##tha
forc
knowingly
behave
ears
Happy
imperative
hazard
Beth
##hill
reh
##eard
##neys
publications
farms
execute
nurses
autonomous
portrait
grief
##agans
##prod
possibilities
Consumer
vacated
Round
##inces
##olves
##ifiable
inclined
crop
confid
CNS
debated
##alez
Andrea
Plans
muscle
prohibition
abandoning
##IVE
Foods
elevated
Gerald
Hu
Where
freed
##ppo
doomed
violently
exploring
Robertson
wasting
terminated
recruiting
Otto
unequivocally
##izable
statut
preval
Sciences
analys
##goers
Googles
richest
clinical
##emele
provocations
altered
conferences
Ald
crap
heck
##onel
seas
unravel
unidentified
appalling
proxy
enduring
critically
instant
advisors
renov
Feds
puppet
Mind
tir
##lyph
instability
morality
breakthrough
lecture
Natalia
enrollees
Cash
Coming
Sold
forming
detected
##ISE
draws
erad
fabricated
joking
##rh
##ensibly
strang
capita
Reporters
diminished
Midwest
Nauert
hunger
lamb
##say
##kamp
buff
Blood
Attacks
verified
logs
males
spectacular
unborn
inherent
pornography
arbitration
aggrav
EX
OB
piss
components
Alv
traject
Except
misguided
designer
Kasowitz
##people
inadequate
Route
Gul
cam
##arn
##igating
talented
collision
baseless
digit
reconsider
Les
dement
##bow
##zer
genius
smiling
doubling
confronting
fuck
wash
wished
##ois
##uming
interrog
politicized
defer
endured
reader
Elaine
strictly
retailers
enhance
Destroy
Weapons
Stern
ferv
##Sh
##erable
##esity
##ivism
##ami
##imated
##ewed
surp
cream
airfield
shoulders
mountains
disgu
Surve
framed
raids
inad
##orton
righteous
assumptions
undisclosed
Shay
##CAR
traded
salt
historians
Official
mounted
SNL
##nels
adher
##ensing
meg
lawn
acid
militias
intentional
Casey
Nicholas
AS
CON
hors
mant
##illers
accuses
antics
destination
Abortion
digging
##club
comparable
Broadcast
envoy
orchestrated
Sanctuary
contaminated
Gordon
##lyphos
Cry
OC
Ruth
Tel
##arios
##usc
contested
persist
Arts
Leah
Janet
Ashley
envision
Nicol
Refugee
intolerance
##ounsels
Bears
NG
hikes
nuts
sib
##rub
##ulatory
miners
empt
secondary
Goes
neglig
##lementary
Announc
destabilizing
Gonzalez
Oil
##tin
Stre
Arthur
Appl
sounding
slamming
MOAB
manipulate
Private
maneuver
Hernandez
SW
Wants
hats
##Is
##uma
##iblical
aging
booked
ambig
Tomahawk
##ORK
stationed
predictions
bleeding
smuggling
enthusiastic
cynical
Gaz
Jemele
Kess
earl
lung
##steps
agend
subcommittee
carn
nominate
grandchildren
Bolton
##worthy
rewrite
vehemently
catal
##ento
inviting
remot
speculated
holders
identical
congressmen
educate
Huma
acquis
beside
hawks
wiped
Altern
Barn
facial
exceptional
councils
fiery
cognitive
Oxford
Ian
VT
##uments
##hole
##WS
##istans
expired
infring
##affe
positioned
Emily
eldest
fulfilling
philosoph
pion
##itivity
suck
negatively
Ask
afterwards
verge
cautious
cad
cargo
hein
##oky
##aux
aviation
readily
Grace
##ractors
projections
ensl
straightforward
preferences
unusually
Cardinal
halted
entrepreneur
Jamie
tissue
Inspector
Dark
TA
##hl
##rien
##umed
complying
scor
infur
Abraham
##rawling
resisted
punishing
Colombia
garden
Vacc
tipped
##heric
##ardash
prototypes
independently
grandpar
vastly
appreciation
adverse
frightening
Sot
protein
Monument
transf
Southeast
secretaries
Latinos
drastically
promptly
Doesnt
##Russ
conj
mega
realities
prescribed
amongst
Indians
##ICK
Ramos
sidew
Bronx
carpet
Believe
astonishing
mud
rocks
##chair
implicit
charities
##ethat
practicing
withdrawn
graduated
Belgium
Agriculture
Jobs
##oped
spo
##ellation
##iked
useless
interrupt
preview
refrain
Spicers
Music
apparatus
printed
Petersburg
Drudge
cin
cod
##ovych
##isms
##iamond
Beat
Agents
sells
angle
displays
reminds
sections
sadly
certified
coordinate
excluded
detainees
Aleppo
nickname
liquid
UPDATE
KY
Kardash
Lost
restoring
Katy
Rivera
tortured
Stevens
earliest
bones
mask
##teen
##Public
worn
backers
refund
foundations
conservation
shortages
Gucc
mindset
murderous
Doz
overdoses
prejudice
statutory
His
Lions
Rat
Wont
Wash
##inable
##osby
foremost
underw
Saturdays
treats
constructed
analyzed
disgraceful
Donnelly
Ess
Rally
TX
Zero
fist
##omatic
##ece
perv
disconn
antagon
##when
crushed
unfavor
aiming
Campbell
EPAs
Across
photographed
championship
Nut
Won
vowing
##orge
foref
Brock
colors
approving
travels
Richardson
bragging
backgrounds
predicting
Boyle
pronounced
hypocritical
enabling
##lyphosate
##GC
##change
imported
ordin
recognizing
labeling
Martine
observation
feedback
malicious
intimidate
relieved
Yanuk
pizza
##han
##icter
reserve
begging
exploited
toilet
Dor
Mas
##gom
Albert
costume
Breaking
misrepres
empowered
territorial
heinous
Him
usher
##including
subsidized
objection
Timothy
Ironically
insufficient
Nicole
Box
Neg
Ped
horm
na
##look
##Washington
##this
Inaug
potent
portfol
drafting
landsl
##ICO
Stanley
hungry
incapable
spearhead
Suff
tong
##bodys
informal
blackmail
colluding
angered
Immedi
Hamburg
accommodate
Kenneth
Kyle
aided
cord
fond
##PM
Stormer
boasts
rises
Editors
revive
dispers
restricting
FOIA
drastic
Hudson
Tro
birds
laughter
assurances
transit
Adolf
globally
pushback
Crooked
frequency
Modi
Greens
Sherman
hilarious
Rules
##ioc
disinformation
##berry
toughest
bureaucrats
arrangements
incompetence
Om
Tai
dose
waving
spare
wholly
##qual
impartial
Heit
Wells
Swift
disagrees
##eshia
Victory
Ri
remin
inval
brackets
stricter
Flakes
productivity
barbar
Serb
exercising
critique
Fraz
##ta
##ira
crown
Institution
themes
transformation
transported
marking
proceeds
pitched
Hispan
Navarro
bogus
Bond
Po
foul
stiff
##ura
##uros
adam
Charg
McF
continent
underest
harms
sensible
derail
lobbied
emphasize
undermines
switched
submarine
Schneiderman
gaps
polled
incrimin
awesome
clearing
standoff
killers
##iterranean
amounted
salute
Investigative
ghost
Aid
Nar
##Mail
##akis
Chase
defenses
schem
smell
distress
operator
Justices
legendary
incarceration
##urprisingly
Martinez
IX
hast
##aco
##ocus
Char
quoting
overreach
extensively
oppressed
prevail
prediction
separately
Surv
tribes
Playboy
Boris
broker
safeguard
Oakland
Enterprise
Ven
jam
junk
sew
##kind
##immer
##eeks
assign
flowing
specify
bigoted
Arabic
Buy
fascinating
Hend
codes
##mons
##UC
sty
makeup
objected
Missile
micro
##writer
fierc
overlook
Mainstream
Delt
Judg
Letter
rans
sized
weed
traitor
entren
paych
nevertheless
developer
tothe
Bez
Federalist
deportations
Apprentice
overturned
Hefner
Heitkamp
Trying
cure
pigs
##erie
##enting
##fty
indul
redist
preca
##ACK
renewal
garnered
##manship
ceasefire
Dominican
Partnership
Wyoming
Celebr
CNSNews
KC
Ninth
##ighting
plumm
Stay
ignores
vacant
inherently
downplayed
agendas
Winds
##atri
##atable
inaction
##acts
Chapp
Isa
distrust
engines
revoked
exploitation
Buzzfeed
unemployed
Mountain
Mig
Mets
sights
##ture
##aders
##apes
##iege
##issance
Mediterranean
Integ
owed
##iquely
Portug
loophole
infections
Reddit
Likewise
Cinc
Dodd
Jeb
##itures
##estorm
continually
interviewing
residential
##taining
butt
scenarios
Ahmed
Patty
Immigrants
Friedman
clever
Czech
Kris
WS
mansion
pa
##amo
##unny
unin
appet
##avel
##anners
##verse
reduces
DailyMail
analog
timely
accusers
Egg
MPs
dairy
##ali
##ivable
##think
chains
senate
Coff
Guide
populated
perpetrated
##working
disgusted
bargain
recreational
Overnight
gau
ritual
##mouth
##onew
stored
shook
contention
slot
predator
forgot
constructive
convenient
innovative
Factor
vessel
tyranny
cigarettes
Sisi
fide
##isch
disav
forcefully
##afia
collectively
caption
lieutenant
despicable
teaches
acquire
homosexuality
tobacco
trajectory
Yanukovych
Dennis
Kind
##uns
succ
disl
##ancement
##annon
provoke
existential
Turkeys
Spacey
autonomy
vigilant
filmmaker
lavish
remotely
MAR
Toky
wouldve
kills
declares
parole
##siders
knees
Montgom
cracking
constitutes
burgl
boosting
rubber
##loaded
##because
ladies
Hind
Opt
VP
lov
##IO
##aws
impending
corrob
Assault
listing
internationally
##enna
counterprot
Morris
Kenya
unpaid
Travis
Stockley
Norman
consolid
undecided
Judd
airbase
nightclub
Colts
harbor
Incre
disruptive
Especially
colonial
Declaration
Kiss
Latest
fo
##rous
##eton
##emeter
warriors
privat
balls
Highway
Fortunately
raided
Networks
proliferation
Coch
Light
##rained
twisted
amended
Reason
servers
slipped
proposes
vacuum
interfering
definitive
Hoover
Byr
Cops
Napol
PE
##ourage
advant
Foxs
proposition
Anything
Garrett
Word
##uan
##vo
##TER
##ainable
communism
testifying
Teen
reversing
tasks
elementary
minimize
crushing
ostensibly
Clooney
Cre
Ster
Vinson
expans
abide
happiness
Shi
##roid
dispatch
bombed
assertions
Tayy
feminism
intervened
unreal
Buchan
Fail
Niel
Push
between
hood
##iq
##stan
Reagans
neglect
Relief
arbitrary
shrink
Fear
SS
##eyers
##orthy
withheld
processed
seekers
labels
##iology
dumping
Nadal
Stalin
Nus
Rup
cov
nail
##elve
##onged
##ealous
trillions
##eese
entirety
honesty
technique
Austria
Victor
Upon
fatally
Racism
Tokyo
Dinner
Hans
Living
auction
##inery
##atem
extends
posture
authorize
Weiss
totalitarian
grandmother
##aunting
Concern
BC
Further
Kids
Nine
##zs
##ouds
##acent
##esters
spouses
Probe
specified
slide
olds
marry
Conspir
Walmart
marches
pundit
imprisoned
Holland
Montgomery
Danger
Math
tearing
upt
##osion
Cho
remembers
defiant
trap
obesity
demise
glory
Pharma
embedded
acknowledges
Groups
Abdullah
##ocolate
Wrong
Appropri
Brief
Dig
Esc
tore
##iability
##they
Clause
correl
policymakers
finalized
slew
Brookings
Elections
Subs
Diane
tossed
Sentin
Lockh
Master
Name
Zak
##alar
##icular
##answ
pepper
##umers
outp
newsletter
Monica
barring
belonging
federally
Antonin
renegotiate
Considering
Bott
Cuts
##TC
evolved
seniors
Flood
performances
Protests
conceal
feminists
bullsh
poisoning
unfolding
Occup
lin
##aniel
firestorm
backdrop
suppose
Minne
commenting
Resc
sexuality
##armac
slams
overwhelmed
disturbed
##ozen
Corpus
Haiti
washingt
Shulkin
Ground
Zar
bike
##ocation
##rians
##oker
##ickers
probation
Marino
Banner
Charleston
formation
Foundations
broadcaster
Counter
reminding
Ern
shrinking
TMZ
binding
furn
##ek
##were
lev
everyones
extrad
##ceptions
Tropical
Gorsuchs
structural
appropriation
emotionally
eleph
endangered
Sacram
Kay
fict
##iently
##onic
##ocons
##onex
disabilities
abusing
Blair
apocal
embod
necessity
Ivana
eligibility
imagery
Salon
Myeshia
Info
Victoria
illnesses
enhanced
Eisenh
Tayyip
##cr
##inning
contend
Instit
donating
patriots
religions
closure
corrected
blasting
Transgender
adequately
Cameron
meltdown
Cur
dual
##erness
Flint
secretive
hallway
##ugged
scrutin
descended
Stephanopoulos
CL
Dent
Diff
Vis
##GH
##leen
##mpt
inhab
Manuel
##ugn
artillery
ambition
lightly
consuming
##yright
##anthrop
Stephanie
Diplom
jew
null
##utch
##ocracy
shred
courtesy
Parents
considerably
condemns
thrive
adopting
poet
Rossello
tribe
Payne
CHIP
unreason
sincere
each
##opia
clue
insect
debacle
barrage
Agent
Moran
falsehood
unsub
Glass
snap
innocence
certification
exemptions
dumped
Daesh
Hughes
Fitzg
Delta
Dist
Diet
rh
railed
##iott
##uzz
##ischer
chef
coerc
anarch
immoral
misled
Palmer
##aneous
catching
distracted
collapsing
gratitude
Schmid
Thrones
Aside
Mens
Separ
##Pol
Truman
allege
##ainted
finishing
Wednesdays
courtroom
influx
exchanged
jails
Evidence
Malays
contradicted
profoundly
untrue
grandparents
Hem
Nye
wives
##ortions
##umbers
##itton
prescriptions
Johns
breitbart
competence
ProPublic
utilities
manufacturer
Guns
ruined
WaPo
Dozens
Ezz
##itary
plague
##veys
partisanship
relates
persecut
Brent
Opin
Sharpton
BA
Cab
Games
Self
akin
##core
##wa
##alg
##agos
Alph
Phys
fearful
documentation
Corkers
departed
monitored
cyberatt
appreciated
dishon
outcry
outfit
Minneapolis
Kurt
SHA
glyphosate
##andered
##aga
##berman
alliances
patron
vigorously
decreased
fragile
Bapt
IB
Rud
Sater
dread
##oos
##gical
##DR
##seud
leagues
forensic
arise
deck
##achers
Martha
Parks
generating
rockets
translate
Activist
maternity
disagreements
Budd
cup
eve
tire
##NE
Trumpism
##erting
trains
realizing
connecting
bosses
satisfy
Doctors
prioritize
Mull
cleans
rug
##ener
##arty
Shut
hacks
routes
Welcome
Otherwise
Kabul
##MB
desired
publics
Sport
Schwar
operators
Orwell
shareholders
synt
lowered
bankers
penned
Ident
Helmets
Import
touting
Writing
obstacle
Sentinel
Citing
lining
mol
cher
comic
commod
##hammer
understandable
sufficiently
starring
restriction
dismissing
##rehensible
planted
accordance
occasional
Rhode
Summer
rehabilit
Arabs
sketch
ominous
Hispanics
##iri
disorders
tresp
indisp
signatures
genital
antid
skinny
Pes
aka
tables
##adan
##imag
##ieg
regain
factual
glimp
Guatem
assisting
resisting
remarkably
cartels
feds
rubble
outdoor
##uminum
Bezos
washingtonex
washingtonexaminer
Fellow
Of
stew
##opped
##occ
invoke
dispatched
Agalar
memorials
##otype
Taiwan
Sel
vic
clips
remedy
distribute
liberalism
fronts
cheers
Launch
courageous
adjusted
Cyber
indefinitely
##keeper
Ecu
UAE
Greek
Luck
sob
##last
##iberal
ensh
output
airing
banker
assessments
logo
Frazier
##enz
##ige
##intend
knocking
substances
proponents
Break
counseling
Scottish
encounters
Lucas
Pas
gam
##eart
Prayer
##intelligence
deterrence
concentrated
tunnels
Miram
microph
sincerely
slogans
Ts
our
rapper
##hink
##uto
sums
knelt
relate
Regional
vulgar
gambling
mitigate
Luke
Nag
POL
ruth
##eering
##pit
##eny
##estone
als
exon
chanted
##unc
whod
##icker
hardline
experiments
conflicting
customs
Kennedys
Regist
Evan
Pipeline
tirade
iter
##number
##ewitness
leakers
nef
whopping
##ervation
Browder
Shakes
their
delus
denuclear
Christi
downs
Orthodox
err
##rolled
Comment
certificate
lesbian
Immediately
Dmit
Ey
OS
##orld
inthe
shops
##emocracies
Whole
electron
Marie
Polish
purge
sanctioned
pretext
dressing
Question
Fraud
Sacramento
Linton
PH
gust
wings
##pear
##ongering
apps
appalled
concede
##atories
##ompan
##EACH
Journalists
pipelines
Hunter
shadows
overlooked
Questions
tumult
Hodgkinson
Jail
Kor
Mack
bird
drift
inbox
cooking
Carr
globalists
nukes
Crimea
Problem
descend
Honor
Gabriel
analyses
masters
##oqu
##don
##urally
decried
scathing
autism
infighting
extortion
Commons
encomp
##etti
circulating
appointee
##USA
Values
despair
Pete
brush
RAISE
Candidate
affirmative
Bishop
Popular
Vance
jacket
pets
##ease
##osystem
towers
solved
coupled
embattled
Wilbur
Recep
precip
regrets
wiretapping
climbed
Gibson
Kessler
Number
Qual
bots
cement
stagn
##aky
##illo
Thing
regrett
courthouse
speculate
Syd
wildlife
Kaspers
alerted
cruelty
Surveillance
loot
toy
tennis
##olo
needing
Alleg
continuous
Shaw
capit
legality
staffing
resistant
dreamers
mentality
juven
pesticides
airplane
expenditures
portfolio
Nusra
Schwarz
Fasc
Mend
rushing
##tor
##long
defines
annih
Johnny
##cribing
##INS
consume
Frankly
Julie
breathe
Faith
hill
pseud
##gencies
##anz
##ocratic
##unning
##oused
##ealthy
Init
comeback
Richards
prosecutions
Governors
##ASS
fastest
Nigeria
grievances
accompanying
exclude
airstrike
McDaniel
humiliating
Bin
Poor
Sars
judged
annex
billed
meters
Administrations
designs
verb
evacuations
wreck
advantages
Fix
Heb
Meyers
##inho
##riad
plight
uniquely
Chen
intensive
provoked
startling
Answ
Heidi
observe
Rosenberg
crafting
appropriately
recruitment
premiere
manipulator
Gra
spouse
spurred
##arded
contended
##quir
##itty
commissions
obey
obsess
glasses
NEWS
rebellion
Doub
Fish
Niet
Tar
lat
##cont
institute
##operly
reperc
manages
##version
solving
##ediat
Everton
survivor
Bombs
nefarious
CFP
Final
Kra
cats
raging
##pen
##itrust
##omon
coherent
##apego
##outing
deflect
endanger
childs
Leh
Louisville
reflecting
##ventions
inherited
Current
Burns
Legislature
Hopkins
##rac
##aki
whip
Branch
positively
Telegraph
steer
Talking
Bedard
dismantling
diminish
Savage
hypothetical
##qualified
##rans
##FA
##chat
##sof
playbook
arrives
evaluation
Rhodes
Mobile
Bahrain
CFPB
Bak
##On
##ecks
sticks
Prim
Join
Taxpay
miracle
qualifying
detectives
transcripts
navigate
submarines
Eisenhower
Jav
shaping
orthodox
##ernal
soccer
McCl
afflu
faithful
Polls
traumatic
gravity
painkillers
Applause
Guccifer
Fifty
Member
ft
lod
##viol
##aphor
begged
recused
behead
Block
homeowners
##role
origins
##official
improperly
negotiators
Farage
echoes
manipulated
punched
Analyst
Judy
Correspondents
Target
hamp
pistol
voc
waged
##ili
##ecd
stip
unaff
##into
trending
addicted
indiff
substitute
Harvest
Youll
cycles
Macrons
compromising
TW
mens
nost
waging
##ndon
##artisanship
monitors
##ilemm
Maril
standpoint
delivers
Forest
##eva
forceful
availability
revisit
indications
unfounded
tragedies
Estes
barrels
diesel
hugely
foresee
Rupert
Nas
Ranger
Via
##ding
##itano
##ente
governed
seeming
Individual
thereafter
##ennial
truths
murdering
rumored
fortunes
http
Baby
volatile
Credit
Inauguration
tongue
Miramax
Shakespear
MIT
Sick
nic
tying
tooth
invaded
intimate
confl
Reach
harassing
recognizes
characteristics
havoc
Capito
Hannitys
Anna
Grande
Single
satellites
masks
Nashville
deplorable
Shinzo
Curt
prince
informing
depicted
Schl
MSM
blasts
prospective
Return
blanket
Form
bellig
siege
##IH
##leck
##ensual
perf
##encement
debating
Ivankas
correction
comparisons
bailout
Alec
Growth
botched
dilig
AU
Cities
IMP
dancing
oft
##allah
##neath
manual
transaction
metro
pleading
rapists
cracked
reinst
spectacle
oriented
academics
Gor
RIN
lyr
##mal
##cience
##icher
##otics
thumb
seed
Thirty
flies
memes
##ielder
##bye
crumb
unsafe
Record
matched
Barbuda
Aviv
Akh
inadvert
reminis
Fitzgerald
Schmidt
census
dru
lazy
##report
##ete
##igator
##imon
##imat
shoe
##ensed
##itional
upward
Assistance
filming
Guant
triple
originated
consultation
Economy
disrespects
Activists
syndrome
Tun
umb
##rists
spar
stroke
dragging
selfish
Memo
recruited
adversary
ecosystem
inexp
exempl
Dispatch
Dylan
Por
Pick
Task
Stu
reliance
legalized
Guy
pageant
UNES
radioactive
prominence
corners
Indonesia
Dade
cope
mole
##SON
##erra
##omey
flesh
demol
excitement
suffers
Select
dedication
fueling
##ITY
rejects
inconsistent
horses
Honest
NJ
Nathan
bats
ninth
##iterate
thes
##ewing
shattered
administered
gray
Anim
Flight
basement
Heights
snip
IRGC
accidents
explanations
coordinating
myriad
Greece
outdated
Buckley
cousin
Elementary
HU
Rapp
bem
dawn
tally
##EI
##ja
dislike
compel
scan
medal
owning
oversaw
Adding
Economist
bidding
ri
##orum
##oko
##iker
Shep
swall
eyed
generic
combating
communicating
Maxwell
pivot
Satan
Employees
Argentina
##iphate
forefront
ADF
frat
##cient
##Un
##ND
##agen
Synd
Ank
owes
Ort
deterrent
battered
GAO
scrambling
inconven
Buchanan
Batt
mice
pbed
##oj
shady
scapego
upside
playground
legalize
leveled
journalistic
Trad
Crown
bombings
disclosing
Andrews
Damore
unfolded
indirectly
Appropriations
pbedard
Bour
dug
##rational
##vantage
##Ob
##ilst
##urable
chants
chocolate
servic
smashed
heed
plead
sanction
contributors
licensed
Switzer
supplied
Traff
anticipate
blatantly
Culture
unintended
Ezzor
Opinion
Doll
Witt
##oa
priest
conform
compounds
pertaining
confessed
McL
exploration
trio
persona
profitable
proclamation
metaphor
downward
athlete
mortality
compassionate
accelerated
Treaty
Sheikhoun
advertisements
texts
Bet
Farm
Fathers
Takes
Trip
baff
inmate
stabbing
Alz
Spangled
clearer
Defend
behaviors
competent
subsidize
arresting
torch
rigorous
romantic
repercussions
Cause
ML
Was
bounds
dining
ware
##ategy
Stelter
guise
slain
Blitzer
Swamp
burns
qualifications
Kurz
enlisted
Steelers
##answered
Sydney
Si
##edes
##stage
stems
seal
##rypt
##brid
loath
fraught
weaponry
golfing
trailer
punching
Singh
souls
accelerate
noble
False
Gas
Mog
##Ds
##rush
shipped
##quite
##ossip
Schwe
sword
parked
##ISS
therap
homicides
atomic
Canadians
anticipation
elder
steadfast
subscribe
Napolitano
Sarsour
Meth
##bour
##elong
prud
thrust
aluminum
traction
insanity
##otherapy
mayoral
overr
profiling
Harrison
racing
accounted
engulf
##EAN
seriousness
motivations
Merck
exhausted
Lahren
Chronicle
cater
hating
##giving
##aba
insin
Ala
probing
##cedes
predatory
supermark
persuaded
stemming
weakening
acquisition
ProPublica
##roleum
Cait
GO
fitting
ling
##icidal
##itate
staging
Chan
backward
USDA
directions
servants
Scream
uncomm
packages
rhetorical
proceeding
recruits
Emma
Princeton
Nature
Rangers
mim
wolf
wrath
##RO
##NG
backup
scold
Rele
Constit
posters
arrange
liberation
uncle
sunset
Rossell
Bradley
wrestling
ardent
forcibly
Caught
DU
##uz
##irical
##lude
famed
swir
##enny
Enough
striker
rumor
notoriously
Crowd
crusade
astronaut
mishand
Nielsen
Fisher
Song
drum
spat
flurry
Northeast
##amese
Acts
Sanderss
strengthened
assessed
pulls
Forty
Lieberman
Advisory
SAA
cowardly
Strike
ransom
Bret
Lobby
Mission
Raid
##hist
reins
##iani
impress
taxation
runner
militarys
someones
Robin
Universitys
remainder
generators
disposal
Myers
geo
Photos
mathem
Shelby
McDonalds
appetite
Kaspersky
Brat
boots
counsels
mold
##note
##cade
blond
idiots
##iscrimin
shorter
internally
Libyan
##burst
prohibiting
Progressive
feeds
Sixth
convenience
triggering
pivotal
Caes
vegetables
Masters
Vogue
braz
##arten
continuously
gunshot
exclusion
radically
dictate
Firearms
surgeon
exploiting
boycot
Coleman
instincts
Buffalo
betrayal
Are
Ahead
CC
CU
Camb
Fargo
##gents
##atz
pricing
##ceans
saga
impair
blessed
demograph
Orig
uncont
##ospel
##icultural
characterization
Opio
environmentalists
intercepted
Temple
bay
sung
anecd
Louise
forgiveness
imagination
complications
Delhi
qualities
fluid
Tyler
eyebrows
Marilou
gag
jack
upro
##eon
##fold
##wait
staring
Pract
evolving
##ussy
##announced
underneath
predators
Elias
hacker
butter
Lauren
betrayed
bypass
Diaz
transfers
Baptist
Gir
Hew
Zone
looting
##Wh
rear
##ector
composed
backwards
descent
successes
communicated
##weigh
broadcasting
entertaining
Thankfully
Marcus
Terrorist
Derrick
throat
proxim
entrenched
unreasonable
reminiscent
Alzheim
brazen
Dale
Lin
Nord
Raf
san
##kh
##eters
##imed
receip
harvest
##borne
restrictive
screamed
clerk
mosqu
Extrem
compliment
Manufacturing
Cochran
PC
lumber
##namese
##WA
##isations
innings
##eys
##ushed
frozen
flagged
unsure
disciplinary
Supremac
Danny
Giff
dens
lament
##Tw
##elo
stern
##chen
##riages
plots
##again
expelled
balloon
Strategy
Ossoffs
brutally
Vietnamese
plotting
empowering
sinister
disadvantage
##emetery
baker
dilemm
ty
##fields
##TO
##orus
decree
Trev
Radical
tuned
exceeded
mechanisms
tablo
Turks
carnage
Kiev
Pun
Wire
##ypt
##maid
##bucks
##roup
implying
terribly
##azar
Images
restoration
marine
reforming
lauded
misuse
witnessing
heroic
laughs
smartphone
complicity
villain
delegates
suspicions
rewarded
##Democratic
tangible
Mumb
MGM
Tri
Wag
chlor
adhere
arose
visibly
Captain
raping
streak
Katie
Details
garner
Springs
Analysis
Nicholson
whistleblower
lip
##bn
##atitis
##amination
plac
##iki
Steyer
whe
##roe
regulating
Corrupt
##uddled
graduation
Lindsay
##eldon
assassinated
##rospect
dividing
frenzy
mascul
##etics
##opian
##endering
##arez
commencement
imply
acute
legislator
Assass
moder
Communism
backlog
Gregory
deceased
duo
vandalism
forfeiture
Daca
Kne
Lighth
##marks
##idav
repatri
reset
Alf
McI
theaters
##rowing
wrongly
prepares
meaningless
Disaster
Kuwait
bolst
relentlessly
reaffirmed
swimming
affluent
TN
Wait
nause
##rock
##lins
##pic
##cott
countered
itll
farther
Conaway
Jugg
snapped
layer
accomplishment
Refer
destabilize
wheelchair
deception
Interestingly
Snapchat
BM
Lower
TIM
plug
scour
acre
veiled
honour
keys
punitive
##ARL
illustrates
Ahmad
Baseball
prefers
injection
ambulance
BS
Hyp
Total
##adors
##imental
unanswered
##asso
divides
revived
hotline
murderer
bipartisanship
Ramadan
reassure
exhibit
Archives
instrumental
unsuccessfully
varying
Integrity
Feld
pec
##nick
##rovers
##li
##hu
##eday
##step
##aduate
weaker
announces
redacted
prosecuting
##elessly
Critic
tours
strained
Starbucks
implies
rampage
ethnicity
empowerment
analyze
queen
Lyndon
preemptive
unrealistic
proximity
Try
marsh
vows
##ayor
##igma
stump
inciting
Fres
##aha
pressuring
menu
compliant
Internal
radicals
outlining
blogger
constituency
intensified
##ERSON
dysfunction
SHARE
Naturally
lon
##ida
seism
likewise
##bermann
imperson
slate
Arlington
Period
hospitalized
##CCC
Debt
Panama
Snowden
stereotypes
exaggerated
Analytica
Fan
Mour
cz
ludic
##oin
##waves
##UB
##eno
Unit
colour
restruct
atop
##stantiated
Kaepernicks
loyalists
Nicar
arrogant
Witnesses
Conspiracy
Peskov
EV
Salt
guts
lyn
flowers
Fredd
carc
antitrust
affidav
identifies
##uffs
capitalist
pictured
crossings
##ANN
Mercedes
Winston
Voxs
Violent
imprisonment
Kardashian
unfavorable
Cambod
Gain
Hoff
ba
boring
navy
##hire
##cular
usage
affection
liberated
developers
horr
psychology
Rodgers
inspection
earnest
##rieve
postponed
landslide
Ecuador
POLIT
Fired
KGB
dot
till
##uish
goers
##ibus
brass
dangerously
automation
reinforce
surrendered
rescinding
dynamics
Bryan
Casino
Kirsten
uproar
vag
##yon
##ervative
thatthe
infer
Notice
pollster
ate
##NCE
Hungarian
resilience
Naft
Vincent
deregulation
bullshit
unsubstantiated
Gent
Sudden
bast
##do
##PL
##ivisible
##ewater
chasing
##tering
noon
outweigh
flipped
locate
affirmed
purvey
optics
finals
##enchant
Agenda
irrational
honorable
vulnerability
textbook
Denmark
implication
Alien
fatalities
Clarence
cocktail
uncommon
liver
ts
##inite
notify
slapped
smarter
booed
##brand
Germanys
considerations
Castile
Metro
polarization
vitamin
curtail
Mesquite
schemes
Faking
Singer
Tory
ratch
rains
##comes
##irms
##ardi
unfor
twin
trace
outburst
Arnold
topped
holdings
revol
Bobby
Smiths
Catalans
asserts
Porter
shipments
belonged
bureaucratic
fiercely
Subscribe
glimpse
lyrics
Fer
HA
##news
##asant
ster
sting
##amount
shaken
acr
Bro
detractors
viewpoints
watches
##umble
overshad
Telev
superf
Cruzs
cheating
surgeries
Philippine
Docu
tended
##EY
##orting
##esting
##acker
suited
offender
impede
Spir
##ommy
mineral
Blake
delicate
Defence
revision
cancellation
reacting
Reconc
matching
consulted
##ordinarily
Falls
excluding
snowfl
Astr
Banks
Cro
Murder
mall
indoct
strangers
##ahawks
passport
explode
morph
delaying
surviving
commissioners
Roe
Petty
gallons
discourage
aerial
erected
wielding
paranoid
contingent
UNESCO
Hoy
Liz
Rakh
tarmac
##iency
##Us
##MM
stairs
##epatitis
prey
Claud
deferred
unden
millionaire
headlined
skip
Insurers
holidays
pardoned
culpr
separatist
INT
MC
glee
uh
##ulpt
##resses
strategists
praises
wonders
comedians
echoing
savvy
unleash
Kirkuk
Dom
Jae
interventions
assignment
undergoing
Flores
extraordinarily
literal
horrified
bucket
Didnt
##franch
Bever
Cit
Maj
Pad
##ulu
##ustainable
defying
Alcohol
languages
slowing
Merrick
##weather
thanking
Equal
prosperous
Persian
withholding
##Twitter
Kel
Rising
ok
tub
ward
##aque
##orist
priced
##inted
statutes
surpl
slowed
Lees
Place
Elon
Rosie
rollback
automated
manufacture
Olbermann
vitri
resurrect
sparking
Months
Sterling
##hinkable
Killed
Sid
Sah
YORK
##keeping
##Waking
chast
amateur
continuation
Shan
lefts
systematic
curricul
Forget
equation
Bills
Termin
Statistics
reluctance
divorced
mercy
Switzerland
Band
Costa
Lerner
Ont
athe
drought
##fell
thec
gren
genes
slashing
theD
illegit
devil
analyt
void
sensational
Seriously
Quist
Investment
vulnerabilities
Entertain
siblings
##intendent
Furious
Jill
baked
din
gays
mo
##houses
##Fr
##illes
lever
concession
buys
Theyll
Politicians
principled
##UST
Childrens
engineered
Turns
disproportionate
Dodgers
trademarks
comprised
##ompanied
Kend
Kelli
Pub
booth
rests
##unate
shaming
##ults
consensual
##ondur
abilities
##manc
defy
highs
Harveys
fearing
Stranges
volc
Talks
emphasizing
Funding
##iological
Julia
bluntly
sandwich
Pulitzer
apprehended
##olphins
Windsor
Curb
Had
sang
##mus
##car
##anian
##igel
chunk
##awa
pressures
candy
insurgents
Coop
disple
Library
Affleck
escorted
lifelong
consequential
squarely
complexity
predicts
integrated
perspectives
Impeachment
Sotom
Lockheed
Reconciliation
Bou
Bark
Coc
Cair
Peps
Sain
batch
rod
inland
chorus
uneth
discern
believers
##anking
employs
expressions
counterintelligence
dissatis
purportedly
discharge
constraints
antibiotics
tattoo
FY
Hondur
##eve
##leton
releg
##emer
##embr
singular
##regular
encouragement
marchers
spirits
integration
Pruitts
palace
Owens
scratch
Akhmets
Rakhine
Birth
Horn
grain
hollow
lending
inning
reprehensible
##ipation
##quis
setback
glaring
swast
Defending
accepts
Wilsons
Nixons
translated
masked
blessing
hurdles
##Republic
AF
Away
Eb
##ivist
invade
consists
##ahan
Rebec
farmer
avid
cruc
Moscows
Previously
fortunate
philanthrop
Knight
ample
Olympics
kidnapping
airspace
Dept
sacked
vow
blaz
##overy
lineup
downgr
chaired
boarding
Sara
traffickers
psychologist
speeds
Statue
fantas
Duncan
fetal
Championship
trademark
Nin
Vt
bests
##enuous
##itations
##oust
##ecked
adap
repairs
directs
Polic
Amanda
Virginias
##afi
horizon
erratic
bloodshed
balances
tariff
##IGH
Durham
distinguish
depicting
bribes
supervisor
cleansing
errone
gossip
lays
##reports
##olk
##chool
plowed
crashing
##urrence
brick
ideologically
Called
practiced
Breitbarts
circumstance
methane
overdue
grievance
obstructing
Universe
Correspondent
IMPEACH
Lighthizer
horrendous
WI
lend
##also
##ulse
shark
##itte
proactive
warrior
retro
hardworking
handsh
senseless
##ANG
listeners
frustrations
tackling
constitutionally
madness
unexpectedly
unconscious
Isaac
AUMF
Ja
Lies
Mis
Often
Tensions
fare
kidding
##pot
resid
outsiders
outnumber
Alito
continental
Shot
systematically
Michel
favorably
##ifteen
concluding
Feder
cartel
tricky
instrument
Cincinn
Registration
afor
nov
##vious
##owning
##ulative
unimag
Clin
millionaires
dogged
recipe
organs
charts
theorist
inflict
resilient
pragmatic
prestigious
Viktor
BST
Might
Maur
rabb
##even
##KS
##aly
##abad
##okers
taxi
accordingly
##asha
Convers
insured
Generals
misd
eyewitness
##holder
Canadas
viewership
GMT
functional
Linked
USCIS
Replace
Ears
JA
wanna
##BER
residency
clad
blows
electing
outages
confined
anyones
depressed
insurgency
##REW
microw
Express
isolate
Norway
polarized
contradictory
Admiral
Osama
reservations
travelling
Erik
Fig
Ferr
Pam
Voice
aint
bor
##kan
##ols
##angle
sculpt
bracket
From
##yson
fined
Scout
declines
Grimm
##ART
assessing
consultants
garage
scholarship
Refugees
warheads
Industry
mamm
powder
roster
##told
##lain
##atoes
##anias
contender
##ishops
anth
farming
debts
tempt
alternate
Slate
unthinkable
congratulate
downplay
Slams
Nutrition
Rebecca
Bear
CT
Dud
DMZ
FER
Fitton
bands
rift
##yth
##iva
##ados
##esto
assim
desires
Shk
genetically
toe
ideologies
openness
metals
deadlines
Exchange
Behar
heartbreaking
Decision
crosses
anchors
stretched
Simply
polarizing
ramifications
societal
stimulus
Beltway
Wade
wrap
##die
##dale
##NN
##jury
reauthor
leaf
sprawling
##ementioned
knives
##ARY
derided
boxing
Juda
Opposition
Mumbai
Diana
Eve
Fischer
aunt
mart
##rs
##wick
##PG
##star
costumes
emergencies
Worst
Capt
Rooney
Pyongyangs
acquitted
incomplete
forecasts
pleasant
Corporate
screwed
unmask
Marxist
aggravated
Guantan
Aj
Cec
Kap
OH
curs
oun
render
rocked
zeal
##rower
##mn
##App
##inqu
##itating
withstand
Congresss
serge
mines
slipp
Trinity
Nazism
vacancies
pathway
Depression
enacting
convened
##HAAD
Lieutenant
hammered
CP
Celt
Lane
Source
gases
##Hawkins
##edly
##itives
##ilate
##ookie
commands
abst
induced
outlines
branding
statistic
servant
colored
Blum
Geneva
##shots
multicultural
indicator
ranch
unsett
Relig
Reno
demographics
Bust
Dowd
IG
Wake
bind
biblical
fost
martial
washed
yoga
##norm
##odus
chased
poly
defamation
warmer
Franks
harming
globalization
##ARD
Looks
deploying
fashioned
vetoed
jurors
Derip
Chapman
pervasive
jewel
microphone
DCCC
Tells
Wang
hem
lashing
##NS
##aracter
lease
spont
##avior
subordin
Shannon
combative
females
##roads
Arrested
Burlington
GMO
scrapped
Eminem
KCNA
juvenile
Guantanamo
Aren
Bil
Dob
MD
THAAD
bend
##mir
##pent
##gger
Twitters
profiles
explosions
boosted
streams
detective
Citizenship
AWRHawkins
##rhawkins
Broadcasting
gauge
persecuted
dilemma
Cosby
Ech
Foster
Rum
gre
hence
prank
##ando
cheese
seeds
Pride
Irmas
severity
neglected
NFLs
Kimber
revoke
poorest
academy
Sergeant
batteries
aspirations
enthusiast
Tobacco
Bernardino
fictional
Diversity
democracies
rental
todd
##works
##itous
##usive
##erek
viewpoint
Medal
ensures
caliphate
Ellen
alienating
Bader
mercury
Wildlife
Legislative
Mexicos
Coup
Fab
Ko
Nug
Sr
bore
racket
##sky
inund
adoles
abhor
highways
bigots
minus
elit
oppressive
##ieties
Actor
procure
organisations
##rompt
Islamophobia
completion
encl
influencing
sicker
accidental
Ellis
bullied
##oppy
undertaken
enlist
##nolds
affidavit
Sotomayor
Cincinnati
aforementioned
Fu
Gross
NOA
Qaid
bait
rice
Chile
whisp
invisible
##issible
##otto
soap
LeB
Californians
revival
##regated
propagand
Economics
Jacksonville
pipe
Toomey
Commandments
illustrate
evangelicals
SUV
Parsons
ratt
##hop
##cut
##irable
inco
disob
crony
Newton
scorn
strings
Spokes
Brothers
fracking
ISIL
Kims
respecting
poorer
murderers
cooper
musician
throws
flexible
Advocates
ancestors
Ravens
Method
Fresno
Pepsi
unethical
Giving
Meyer
NS
##kis
##mod
##waters
##atriot
##steen
stap
##eworthy
##agons
clues
incend
whis
quipped
stranded
tramp
propri
sweat
massage
replies
Andre
Guards
blockb
discriminated
Doe
supervision
abusers
pedestrians
Process
ludicrous
Fans
Hous
Path
dorm
rode
##mind
##comp
##eror
thy
##usp
##oshen
##identally
exter
shields
fore
##umbs
##aven
##oyle
discusses
suscept
succession
Awans
Oscars
earthquakes
Commonwealth
manifesto
livest
Eagle
Walters
delusional
Cyp
Dyn
EMP
Sny
aiding
lens
toys
ink
##amil
##osl
abstr
Schiller
popping
##play
Floridas
funnel
judging
outsour
##meade
Statement
inspectors
retaliate
Dubai
merchand
confidant
sidewalk
Institutes
Entertainment
Sound
haters
nuke
wears
##fax
reeling
scattered
surgical
moms
responsive
##uffle
##ecker
couch
DeM
##cker
ambass
##grily
Emails
slept
reciproc
Erdogans
unveil
chartered
Running
Leahy
Shiite
electronics
nostalg
inadvertently
Suddenly
Akhmetshin
Gw
Kr
pope
##moon
##jah
rewards
thirty
Those
Norths
Actress
morale
employing
denomin
Resolution
##ustomed
vacations
silencers
pledging
bravery
Merr
curve
disciplined
Observer
Giffords
Nice
Rise
Rices
Tub
##tw
##OUS
##onso
##ouder
##oli
forged
ank
doom
behold
corrid
caf
redirect
Guine
embro
flagrant
permitting
Lynn
screams
tightly
Regarding
mobilize
underscores
counterprotesters
Agalarov
czar
Kaz
Oz
Powers
Sox
avert
rings
rivers
sins
##iets
##mers
##pre
##idable
##imer
trim
severed
parap
Founding
##heads
groundwork
announcements
insulted
selective
freshman
intimidated
Becerra
Princip
Opponents
Responsibility
masturb
displeasure
Finding
cried
fug
tac
##ais
##auses
##rot
##lance
##during
##itar
contamination
unav
compares
trolling
insights
weekday
buses
teammates
glam
boast
##what
forwarded
industrys
revolt
Lawyer
creatures
Prep
crystal
terminal
FARA
cloture
unsealed
Reynolds
Crystal
tumultuous
Bos
diver
##you
##atical
##essa
chancellor
traced
happily
Islamists
encrypt
lightning
satire
Oprah
Jackie
animated
ESPNs
torches
terrific
contradicts
woods
pedophilia
pesticide
Lankford
Shakespeare
incendiary
Body
Lang
Pax
RO
cattle
angrily
##iola
preserved
lottery
chairwoman
footing
##regate
freel
Swiss
Maggie
##NAP
mockery
vendors
prevalent
Religion
CV
Hens
Killing
Lauer
foes
kicks
pond
ripping
##upp
##bone
##esa
##atible
##ovic
##uds
unofficial
Mayweather
breached
breasts
##beh
##weets
##boards
perpetual
inspections
harshly
Abdel
##ubborn
Mahm
reopened
Firing
dent
penchant
rendered
##gone
##ls
##Med
stealth
##ivities
repugn
##eefe
##ieves
disbel
completing
appease
abet
Shad
Coach
convict
similarities
ordeal
pickup
psychopath
##ugging
disrupted
##icopa
Knox
Torres
wooden
privileges
Femin
eagerly
stockpile
Nicolas
Kraut
Cav
Homan
Ore
Rut
byst
hind
##rics
##Mon
##LY
##oluments
allev
##ailable
Thail
##egal
handles
Coates
treas
irregular
robber
##rehensive
manipulating
tightening
Winter
climbing
distinguished
delighted
Kash
PL
SM
Tale
Words
cough
duration
##stop
##ecure
chick
monkey
goodbye
Coats
Alabamas
Globe
touchdown
sectarian
Handler
lengths
fools
rammed
Kilmeade
##American
metropolitan
Shayrat
surplus
EB
Gabb
Jude
Lester
Vi
bew
cath
pale
yell
chron
coer
cooked
suicidal
impunity
firsthand
outer
asleep
groping
##prints
underwater
starter
insurgent
##engu
Sandoval
closet
salacious
celebrations
precision
inaugur
assumes
Staten
casualty
sprayed
Bryant
ingredient
detonated
Pic
dared
hover
##Gov
##akable
chips
##obi
Step
unear
scoop
Sheldon
Maricopa
slashed
prevailing
hefty
devotion
formidable
dismay
ratio
Massacre
correspondence
Demand
Reality
fatig
evaluating
Mohamed
Basically
hijacked
spearheaded
lovely
expansive
Hence
euros
##wal
inept
exert
##apolog
##ittal
awrhawkins
appointing
fruits
Register
constituent
affiliates
Books
translation
prolonged
Leonard
Opioid
Cairo
Derek
Kell
Nat
Search
SEN
Upton
hid
sinking
dean
##ifully
cliff
##assment
Thune
outgoing
Always
Alask
uphill
themed
benefiting
Resign
##romagn
Swan
##falls
beds
##State
Immigrant
averaged
Giul
Dmitry
Jama
dwind
nat
##asi
thorn
adul
sphere
tricks
feas
militarily
slower
grounded
chemistry
##RET
##REEN
rapist
jointly
derived
Peterson
occupy
concerted
Weekend
memorable
vetted
iceberg
spinning
Freeman
##unctional
protocols
Female
Ankara
Deripaska
jaw
##fired
##MC
##orian
##itative
stubborn
thep
Store
##uees
trophy
Whitehouse
Northwest
hearted
Revenue
admon
budgetary
figuring
horrors
Comprehensive
Greater
Soviets
implicated
venues
Miranda
Munoz
livelihood
Yuln
articulate
surrogate
seizure
umbrell
Wagner
Trou
Wend
cabin
lag
pole
woes
##enfranch
alumn
shining
##iking
contends
##ampton
Sham
Ana
messy
Els
Eli
silenced
paths
kneeled
meddle
clarification
sacrifices
USSR
##ipedia
misunderstanding
repugnant
Beng
Cill
pap
taunt
waved
##made
##EG
##inges
##etitive
##ecraft
shelf
cohes
dising
liking
milestone
transc
libr
##eville
DeS
Abrams
CIAs
Journalism
digits
wounding
Intercept
Katz
##ventional
Wouldnt
retracted
Alternative
Television
capped
dime
##kers
##kowski
##NI
spree
evid
monstr
Alleged
editing
Schwart
humiliation
Trent
Palt
freak
Quite
Farrow
mentor
weighs
skeptics
felon
evidently
##OUGH
installation
transmission
reimbursement
intersection
##Senate
Chappelle
Guatemala
Answer
Trevor
##aqu
##orating
##usions
Stab
recyc
rightfully
Twin
boasting
kindness
miserable
complied
Holmes
##liners
creators
Millenn
preparedness
microb
conceived
ceremonies
subpoenaed
busted
soda
admiration
inhabit
illegitimate
Root
Vel
Visit
WAR
apt
horn
spun
##ardons
##agua
reclaim
flows
publicist
autops
theNew
locally
limbo
download
emergence
Iraqs
Bernstein
Pakistans
thankful
perpetrator
incorrectly
Learn
paycheck
##yptic
Craz
Map
budd
mush
##oors
##esley
stint
##illary
Stories
disenfranch
enables
decon
confess
passw
demag
Harbor
muster
##ividually
Heath
##bek
stormed
emerges
initiate
petitions
Hannah
colorful
overtly
Filip
motorcade
Village
mourning
##build
##productive
Gulen
Failure
Stuart
DS
lump
##zes
##umns
enlight
arc
quitting
Close
guiding
preservation
Anch
Notably
halfway
combine
creature
volumes
Damon
phrases
exhibition
cheerle
WSJ
Loom
Site
fancy
abnorm
assail
dealer
Europes
ofB
decidedly
illusion
McMah
Reds
stupidity
Whenever
uniforms
Cardin
stadiums
psychiatric
Responding
Hutch
IT
Lamb
Rash
Saw
bury
duck
##edience
##icians
##rued
stances
##estically
shelves
coh
##ooks
defied
##prises
Reich
overru
##cribers
risking
injected
misch
misman
loop
separating
displaying
hype
mobility
dresses
Dunham
conveniently
deliberations
borrowed
Zionists
inventory
Universal
kidnapped
gentleman
maximize
##mancipation
Hanks
Mol
bachel
wif
##isively
##uliar
sheep
coin
impulse
remed
##leground
probability
surreal
##onny
denials
herb
boarded
Gloria
sensitivity
contradiction
authoritarianism
advertisement
unaccompanied
uptick
NOAA
Fly
Md
NCA
Rain
Wen
Zimmer
bash
lane
##fied
##MAN
##itime
##econom
##andest
##anski
repud
clouds
##quist
Alban
propelled
mighty
brew
solo
smallest
##shine
Agu
merger
applicable
Ready
solemn
Elliott
FAA
theorists
upholding
utilized
Barrack
honeymoon
hazardous
dementia
Snyder
Duff
Donna
Pierre
bush
nond
inhib
polite
exposes
publicized
authorizing
Amash
Colonel
deepest
circus
centerpiece
logistics
occupying
malign
stakeholders
Observ
barbaric
adamant
Caesar
martyr
Fidel
Sic
lips
##antis
##actly
accustomed
careless
possessed
measuring
Blacks
##iosity
laughable
bodily
biography
astounding
##iggins
hysterical
dodged
Dw
Moul
Rid
Sit
bund
brawl
wrec
##lif
##oto
spared
Stef
unver
upst
onsl
##ega
boil
collude
Resort
observer
##ijah
Ivy
domination
warranted
Boys
calculation
Solar
congratulated
brokered
Honestly
embroiled
Apart
Hur
Mans
Saying
cows
foe
lia
mum
##hma
saves
##rio
##iaut
Them
invoking
##isham
opener
activated
financier
barric
Percent
Suu
sponsoring
dissident
##iologist
plaintiff
restraining
Catherines
safeguards
Portugal
Astros
Thailand
Hein
Mays
MTA
Totten
ol
oceans
##py
##SE
recept
shorts
Pred
contenders
contributes
disarm
crimin
apple
##conn
Joan
Shine
builds
conversion
##ATION
riders
Mills
Boz
anonymously
Sams
analyzing
Scientific
omn
Joyce
intermediate
decertify
bemoan
susceptible
bout
cries
tipping
##schild
##dam
##bul
##abol
spilled
whilst
enraged
overc
filth
Appearing
vacancy
unload
deporting
Erin
someday
Malia
Used
Podestas
Keystone
alterc
hints
perceive
humiliated
surrogates
NHC
peculiar
Beverly
Qaida
CD
Hij
sow
til
vest
##ken
##cha
leap
offend
newcom
##ypse
easing
accessed
unspec
Jerseys
Montes
obscene
Mohammad
indefensible
Variety
creepy
addicts
Fac
Rail
gala
hockey
##table
##erial
##osely
##epress
china
brig
detrim
Consequ
nonviol
divest
poem
Higher
##ITE
acquaint
Churchill
Lutheran
obstructed
sequence
ADL
reinforced
IAEA
SWAT
Analysts
Nafta
Nugent
detrimental
Born
Dillon
HBC
Rivers
bubb
laps
ridd
##nals
##around
impover
undoing
feat
footprint
counterproductive
subsidiary
semiaut
Anyway
bureaus
betting
volunteered
Kathleen
envisioned
Bast
Dame
Jour
Liter
Tan
malf
rented
sane
##FI
##sex
bron
confed
Shame
humble
Southwest
Indivisible
landl
Eddie
Drive
blockade
Wikipedia
predictably
afforded
##ALT
mosques
Shaub
cyberattacks
Luckily
##against
Nicaragua
Ele
Gome
Hat
PD
Unt
tox
upr
##anton
consulate
brows
organised
waver
misery
destroyer
Markets
robbed
##LLY
integral
inappropri
taped
nonprofits
flatly
Murdochs
separatists
IBD
slippery
onslaught
Eug
Gives
Haz
Loss
Laud
lur
lax
tainted
##vable
##TION
comr
twelve
accent
militar
bug
##atured
popped
excor
Bea
Virginians
Arizon
Carolinas
copyright
touches
temperament
Panel
Cantwell
motorcy
Brazilian
instruments
parallels
Falwell
Fleet
Tottenham
Jagu
faux
murk
##mund
##pret
##Busters
##stock
##iless
thesis
##ipiac
individually
distorted
competitor
dismal
discovering
universally
Rodham
Once
Raun
coordinator
Veritas
stretching
Sadiq
theoretically
Priorities
melting
absorb
travelled
prostitution
Rescue
POLITICO
sergeant
merchandise
umbrella
File
fisher
##EM
##atom
stall
##ovan
repay
##avement
theC
misses
Index
draining
##ueless
erosion
mistreat
##burse
Chicagos
observations
folk
Pollak
fooled
Weiners
Citizen
jeopardize
transmitted
paradigm
Reveals
galvan
REPORT
ambiguous
Essentially
Occupy
##romptu
unspecified
EC
Gott
Ic
Rape
##said
##raging
likened
refres
simpler
Guest
negotiator
lifes
uneasy
snake
desperation
Previous
Strategist
Sirius
energized
Posob
##ogenic
peddling
unimaginable
##romagnetic
Pil
euro
hier
vil
wishing
##stood
##ellate
resorts
clauses
unquest
recol
tract
trades
blist
NewsH
Should
Haram
culturally
favoring
totaling
Elijah
Success
##iotakis
overhauling
elses
Somebody
##aconian
halting
atrocity
abolish
Drag
naive
foreseeable
Alzheimers
tabloid
SAND
louder
##pat
inhum
thef
##ovals
shores
ploy
##ikers
unimp
disband
Charter
callous
opting
##nery
Theod
##iasco
##INE
Leading
cycl
recommending
medicines
alienated
clergy
sarcast
awaited
##keepers
ascend
Mossad
mantra
emptive
##ediatric
Jens
Lara
Packers
Pearl
SNAP
Turning
UT
hires
##anza
##amine
##ellar
crashes
commanding
NewsBusters
##ometric
##atty
soaring
hardware
format
pollsters
successive
##ospace
##EAR
Pelosis
##riters
ramped
bathrooms
simplify
Message
distributing
disconnect
Digital
ruthless
Policies
##amiliar
Mahmoud
Vanc
Yellow
lover
##BOR
##elig
cheek
##heres
resemble
##ointed
reliability
proponent
realised
retweets
Expect
civilized
##owship
Neigh
##anche
precinct
musicians
registering
circumvent
instituted
malware
concepts
satisfaction
Solutions
jeans
##TSD
Malliotakis
paranoia
xenophobic
Daw
Mood
Nass
PTSD
heg
##oze
##IRE
##before
##ouver
##eta
Trumpian
explet
impromptu
bro
enters
relev
##landish
##ricks
determines
##rolling
scheduling
summoned
##withstanding
plainly
ironically
museums
SCOTUS
Starting
cigarette
Hour
Jol
binary
jerk
mails
rib
waking
##national
##itus
unreg
##ipher
perceptions
bluff
wrist
showc
harb
Brett
incidentally
Abuse
ultimat
hyperb
incentiv
inherit
Akbar
PREPA
Mobil
Motor
Belgian
discharged
duplic
Craw
Floyd
Gret
Jab
##des
##actively
traits
Spurs
sof
overre
Warning
multip
Cubs
timet
compensate
annoyed
Quinnipiac
oligarchs
TIME
Ontario
Schwartz
Athlet
Mental
Perman
Ug
Yard
fencing
pussy
##ei
##zi
##imburse
##aways
triv
indec
believer
pointless
upwards
##azed
approves
Construction
reasoned
wallet
suspending
Seahawks
packing
settling
birther
apologizing
observing
smartphones
Mao
Protestant
biology
randomly
Exclusive
CSRs
adjacent
hurdle
##hardt
Pictures
Vancouver
Domen
Fonda
Jet
mm
##fielder
##arial
exited
clandest
disin
expulsion
##berger
genre
overhead
##rable
Evening
Contrary
truthful
Leftist
commerc
paired
Bailey
Terrorists
lectures
bonus
Sanctions
authenticity
##Clinton
lambasted
philosophical
Serbia
Schwarzene
Nieto
Feldman
Paltrow
Anchor
Posobiec
Bip
CREW
Focus
dive
ly
nude
siding
sober
tilt
##onial
##orf
stigma
admin
##ineering
securities
assurance
##athom
Spending
goodness
##leted
brewing
behaving
Crist
accompany
Reporting
Pretty
intensely
altering
Mercury
unchecked
favourite
fertil
Soldiers
furniture
Mourinho
inappropriately
Dix
Diamond
EM
Eup
Lloyd
Pep
YPG
Ze
cotton
pork
wan
##IB
##Jo
rejo
reimburse
notification
##arts
recusal
defra
classmates
respectfully
canceling
dismissive
cracks
Investigations
WhatsApp
intellectually
appropriated
Downing
inexper
forbidden
incarcerated
dysfunctional
Jarrett
Log
buddy
tast
whining
blas
politicize
assemble
allerg
insert
needle
McE
Bring
Bristol
retribution
denunc
Antar
honors
Grisham
behaved
salv
participant
Montreal
litmus
Hitlers
archive
stringent
grossly
Needs
patrols
resurf
bellic
NGOs
conjunction
falsehoods
Mensch
##embrance
blockbuster
bang
dots
gates
##essim
##ths
##ulture
outset
outlandish
discord
runway
##being
contracted
dogma
Kyi
translator
brushed
dissenting
Yulin
endeavor
Gazette
Honduras
disingenuous
Boko
Keeping
fifty
##nell
##FT
thumbs
##awned
##avors
##onte
Uncle
remorse
discrep
Manila
hesitation
Floridians
quicker
penis
suitable
Zinkes
mutilation
Quebec
Dao
confidentiality
Rothschild
obliv
Eagles
iteration
seismic
##oshenko
tacit
Cad
Hack
Kane
Recess
Train
pardons
##Fox
##usk
##utable
medically
warpl
hears
Coie
skirt
##umbling
funn
ensuing
remembering
##ungle
pitching
Somehow
Racial
Explos
rabid
rehabilitation
Constitutions
curriculum
Gomez
Cards
Hearing
Samp
borne
vivid
##aq
##PH
Stolt
unapolog
Unions
indign
##atted
columns
infants
slurs
starters
fray
Leaving
viewer
looms
checkpoints
definitively
evacuees
Getty
attracting
Usually
upsetting
battleground
fulfilled
Shelley
LeBron
Kir
MRC
WM
Winner
dash
hars
##oux
##esson
expands
arming
imposes
Schul
libel
boon
patri
Desp
advertised
Rockef
Cornell
Thanksgiving
frightened
clicking
relaxed
Liu
Krauthammer
Gender
Opportun
eup
lion
moot
rats
##sm
##overn
##uru
##igans
incite
##angling
grades
draconian
Arms
ideolog
gloves
declassified
modeling
sourced
armored
concertgoers
Ending
swinging
floors
accelerating
superiority
southeastern
allocated
intrigue
##occup
belligerent
Judaism
Gave
Ice
lure
ros
tighter
##len
##enge
##ician
##thers
##rix
exodus
##uber
Thor
newborn
Whos
passive
gene
Leic
researching
admire
Kimm
influences
charism
revise
renowned
starred
steering
labour
laboratory
animus
vaccination
speeding
Lewinsky
Model
Signs
Personal
condolence
Issues
hesitant
screenshot
feroc
squeeze
Henderson
succumb
Malaysia
temptation
FDR
Gat
Morm
Nomin
POW
RF
TR
pie
wires
##pes
##Wars
##inement
##igators
##ghans
intake
prevailed
arrivals
glac
legalizing
classification
expresses
varied
unfamiliar
##rified
Goldwater
methodology
disrupting
villagers
reassuring
FAKE
Aviation
Camerota
Rahm
intriguing
mistakenly
Picture
Canc
Qur
during
litter
rude
##upport
##hel
##AF
##rique
mankind
##ensable
Amend
specialists
futures
##theid
##castle
superpower
summed
Comedy
unwitting
##ulsive
constitutionality
validity
Facts
liars
accommodation
yielded
endangering
Huntsman
Ernst
apocalyptic
enshr
Era
Jur
Jak
Lex
Mate
Tah
lake
##eers
##erous
##ogues
Chin
confession
filter
risked
patrons
divul
doubles
miscon
conducts
revamp
embass
freaking
##ographical
domestically
willfully
tendencies
Professional
delete
benchmark
Rodrigo
hesitate
hybrid
##onewall
burglary
Briefing
Bottom
Syndrome
Stoltenberg
Leicester
Creek
FGM
MTV
Nest
Nigel
Toy
Worth
bicy
hills
##uh
##urge
alluded
forge
unifying
cricket
guitar
undergr
denig
mattered
urine
lows
victimized
Anglo
treasure
McMasters
mirrors
Signer
intervening
disparaging
abundance
##icularly
extradition
ambassadors
Cillizza
Berman
BRA
Humph
Pink
Ring
VI
herald
laced
rookie
##mont
##oner
decorated
politicizing
retrospect
Theory
downright
Putting
broadband
embry
behavioral
Hollywoods
starving
conditioning
logistical
recalling
##hrates
exhibited
juice
##rahim
algorithms
underwent
Bud
Mann
aug
hail
##late
##Tuesday
##anue
shine
whack
##ideast
##osted
##quet
taxing
finest
Assess
Harassment
menace
disparity
##respected
exercised
thriving
Leftists
##blatt
layers
warships
elevator
Nichols
underscored
exacerbated
Innov
crippling
Rafael
Euphrates
Boom
EVER
Lap
liable
ranged
richer
sizable
rethink
##ewd
exile
Stars
communists
Polanski
##regor
ignited
canv
superb
Brooke
Meghan
Veteran
##wasong
pinned
Dangerous
elephant
supermarket
Kimberly
Mideast
Toxic
hepatitis
sigh
vested
##inged
##ewell
seizing
offending
opium
##urned
childish
cute
marriages
##akening
advises
Youd
##strom
##enchon
##PAC
unsustainable
sickening
Legacy
shielded
Prosecutor
renegotiation
Lebanese
##proof
incriminating
Judges
handshake
Crawford
Guter
Higgins
Youth
daring
fiasco
##icating
##ewer
neat
##acey
Newark
removes
Shield
detection
gunshots
Scav
destiny
Guess
Defamation
willingly
lighting
Butler
prominently
Reading
asthma
subscribers
symptom
##HAM
contraceptive
unwillingness
deceptive
algorithm
NCAA
Schwarzenegger
Hug
Mast
Zh
##House
##orious
##itim
##obile
Chave
relayed
Spect
setbacks
Monroe
modify
artistic
Warns
patent
footsteps
Depp
strategically
recommends
mutually
mislead
Discuss
Admits
Bahamas
Coverage
eleven
disadvant
seizures
##UCK
Crazy
blistering
Ath
Crew
Dad
Koh
dyst
laser
pessim
sel
tier
##otism
inelig
##unami
unify
unqualified
bele
##avier
conspic
terrain
defeats
provinces
Isis
businessmen
afflic
marathon
suppressed
prioritiz
Citys
Lawn
Richs
unsc
celebrates
havens
judgement
roadbl
Sugg
nonex
##reli
Handmaid
Julius
deductible
Demon
##Trumps
calculations
##commun
pedophile
defunding
impulses
Whereas
ordinance
synthetic
Curtis
harsher
ER
Fashion
HAR
Hwasong
Wool
##Cap
##VP
##ecretary
##ivision
leaker
trove
##conf
nationality
##plained
waived
divert
YouGov
bodygu
reactors
purple
unple
pulpit
EST
Simmons
tolerant
breaches
Daniels
relieve
absorbed
InfoWars
Shkreli
Millennials
bronze
Cod
Fillon
KN
Lance
Laugh
Numerous
Numbers
Pav
Tant
Tab
jar
lewd
mul
nit
vein
##ionable
##ussen
bluster
discontin
persisted
##icht
Joh
Admin
parody
##etermin
midfielder
Taxes
Collusion
##ORD
Burke
torped
madman
Safe
Privacy
Pulse
tumor
reopen
McFarland
Taxpayers
abstract
altercation
SANDERS
MR
Moy
##ienced
##icule
##oticed
rect
##imillion
invading
statistical
inserted
surged
studios
Anders
ensured
Governments
departing
digest
##wrote
geography
Lieu
kissing
excerpts
Assassination
inaugurated
autopsy
IV
Lots
##alos
##rul
##illusion
clout
Newcastle
backp
programmes
Theater
marker
kinda
massively
devote
downfall
##ettel
favorability
practition
Region
Carles
Circle
Randy
Qatari
preceded
elevate
presumed
aspiring
disavow
FERC
unverified
Sey
Tyson
slice
uprising
##ershow
##ummy
neocons
reliably
countryside
##ificant
Arp
estr
redef
swipe
towels
damned
magical
Cruise
superher
Venezuelas
rocky
stretches
sacrificed
coffers
##aguered
Darwin
Province
Produc
adaptation
tantrum
semiautomatic
Huge
NV
Ori
PS
aster
doses
pains
tube
unab
Chechn
expir
Newss
##ontent
##efe
theF
particles
primetime
##racted
harmless
timed
dictates
armies
reconcile
Historically
##ILS
weary
pronounc
undertake
Villanue
Freddie
Giuliani
Theodore
Eye
Istan
Nato
Rasm
Turb
bored
hinder
jealous
pier
##lining
##lassified
##uers
##erity
##idious
stym
crooked
attribute
efficiently
genitals
slope
teamed
executing
treasury
darker
Legend
Connor
borrowers
Rahim
stirred
portrayal
Moments
northeastern
Unsurprisingly
##baum
BCRA
indispensable
Initially
lingering
Hewitt
Samsung
Moving
Roch
dip
ramb
wicked
##edral
anom
partnered
beats
scrub
##appers
##ickets
grands
concoct
subd
tales
planets
Requ
histories
TheBl
##shev
Respect
incidental
CBSs
eliminates
apartments
##ESS
unnoticed
rigid
PACs
munitions
Fighting
Systems
Announces
Kissinger
##ershowitz
Tiff
cum
daunting
ov
ovation
rattled
##pable
##usable
##ouring
##ryn
disrespected
scutt
refuted
newsroom
carriage
companion
eloqu
transpl
totals
circulation
##liner
captivity
Communists
compromises
felons
CAIR
evaluated
weaknesses
Bombard
addictive
stumbled
Separately
crumbling
carcin
rattling
Guterres
Cob
Dina
Lot
Roughly
Sons
eternal
lame
nurt
vine
##pire
##cale
##inga
stacked
chuck
suicides
Spot
Bros
behest
Carroll
understandably
imbal
##IAN
worthwhile
contracting
floodwaters
guarded
fundraisers
framing
biases
delegate
Drugs
disparities
outfits
resembles
intersect
Huntsville
Engineers
hawkish
engulfed
dinners
bellicose
Aides
bucks
wit
##hear
##jan
##ruff
noteworthy
coat
Stones
Chev
expel
##enson
##inda
testament
Exactly
experimental
establishments
Neutral
beforehand
cleanup
LaP
Parenthoods
complicate
untouch
reinstate
##marked
tighten
poisoned
spraying
pumping
academia
plunged
Typically
invalid
blasph
Kimmels
unpleasant
Dershowitz
Sut
Watters
YANG
bits
godd
##bach
##stons
##eported
yearly
##integ
stature
condone
schiz
##engineering
booming
shoots
Westminster
homophobic
##levard
chemotherapy
##risome
Pentagons
resolving
adjustments
sampling
Prospect
Surely
civility
upgrade
vendor
impulsive
swirling
masculinity
Arena
evidenced
Jaguars
Kraft
Risk
TSA
Tuls
Vettel
astr
gaming
maj
##An
##atized
reapp
##ovis
##elles
##izard
##uchar
provoking
stricken
advancement
##ulls
##eeds
shotgun
Season
premises
onthe
prosecutorial
obligated
ridiculed
Seeing
sidel
undertaking
relocate
saddened
##atriotic
Cyprus
Paxton
##John
Dre
Fol
Maced
Sue
SCAR
eleg
punt
ub
##page
cheat
disillusion
distanced
interviewer
artif
hostages
##roach
Christine
occurrence
diverted
Sessionss
mindful
erased
purposely
Glen
Finland
meddled
gridlock
Population
Watts
mildly
Clayton
pissed
spoiled
inexplic
relevance
Ib
Wint
Wah
dinos
fences
hipp
neph
##lom
##orable
##oliberal
##endously
repression
worrisome
evade
newfound
##ensical
undes
Mariano
massac
Paula
##ophren
multimillion
accessing
destroyers
populists
endorsements
conception
Merkels
COM
##rung
punches
pharmacy
Marsha
possessing
Barrasso
inconsist
lunatic
confiscated
denuclearization
##BOROUGH
Amendments
embassies
Ced
Kon
Purp
diary
woo
##nest
##could
##icacy
##ppers
plates
commend
monarch
emoj
proportions
hardcore
horribly
Moroc
panicked
Walls
doubtful
snaps
Comcast
venge
forums
Owners
viruses
databases
Industrial
fractured
enslaved
nonviolent
ultimatum
clandestine
Aly
Cape
Elim
Gur
Hast
NHS
bids
nin
##isy
##olent
pri
conquer
contests
appellate
blend
scaled
electromagnetic
Cloud
helpless
Bright
drowned
Manager
slur
explored
Schol
##onnie
kinderg
Virt
sensors
Evil
submission
universitys
ramping
ladder
Cheap
Lenin
vouchers
Charges
borough
Kellogg
Chavez
ineligible
beleaguered
Istanbul
Burk
Went
Weeks
Xavier
Yong
crem
motto
ridden
##atered
##akia
clam
expon
cronies
##oyalties
bracing
grotes
empath
Leo
Collect
Colleges
Robb
Mooch
divine
Tillis
Khal
Mali
attraction
Woodward
transferring
kickbacks
writings
concentrate
censor
shallow
portraying
turf
expedited
Issa
municipalities
Schweizer
prudent
refreshing
seldom
Aer
Bump
EL
NDA
Rove
Send
Vaugh
##hift
##orph
##emate
##arted
cooler
decisively
flipping
oppress
earns
Warrens
specialized
devised
##rington
Agorist
creativity
##holm
##comings
retali
disapproved
unhealthy
unchanged
Effect
commemorate
whistleblowers
Aldean
poetry
Raiders
Dobbs
Guinea
SCARBOROUGH
Kemp
Mist
Pens
Rust
Tuc
furth
##wald
##isiveness
##imeter
deeds
spelled
Prosp
clueless
##inkle
Marvel
heir
receiver
shortcomings
Notre
Libert
cyc
rounded
conspiring
senses
Journalist
bottled
bodied
neighbours
Superfund
lockdown
laden
intolerant
##Thursday
inferior
Dudich
expletive
priests
Fein
Gram
Maz
Sounds
bun
rants
vagu
##fefe
##lass
##hed
##anol
worsen
evolve
Whites
##angar
Marijuana
Marathon
airwaves
specializes
destined
characterize
ridicule
precarious
Valerie
hunters
screenings
nutri
reluctantly
wiretap
Princess
infiltrate
Personally
airplanes
flourish
Saints
##IGHT
ounce
impoverished
Iceland
NewsHour
Losing
Pin
Pau
aven
wired
yall
##aa
##game
##artime
##iang
composition
##arking
uploaded
antith
presided
socio
##atorium
##emphis
Conv
##govern
wording
wildfire
grabs
pregnancies
Polling
ruining
Bolshev
troopers
Arpai
retaliatory
Dolphins
KR
Kum
dwell
maid
mature
mongering
##uant
##orie
##olitical
##etition
stif
exiting
chimed
##ongress
reprim
##vez
##ledon
##ucted
realise
realization
Coons
##placed
skies
waist
ensued
Crimes
worthless
Finn
principals
Rubin
unconventional
paraly
restrained
##cahn
sneak
scrambled
Welch
abolition
prostitutes
burdensome
antidepress
disbelief
feasible
##economic
ubiqu
Alice
Mug
lash
py
piled
##hart
##dr
##Hillary
##inally
##ammar
spac
resides
agit
invites
quad
smash
skipped
launder
##ipper
painfully
Caroline
Regnery
utmost
broadcasts
Authorization
Burg
hinting
ventures
Chambers
##avering
Ruh
handcuffed
correlation
indifference
##Obama
ankle
wifes
nonexistent
Aet
Icahn
Lars
Memphis
Ritch
SCH
Wimb
##may
##wall
##VA
##DD
##enow
##acas
chan
##obil
backtr
wrench
insecurity
signatories
Shell
distaste
glance
Afghans
meter
##vironments
Gran
Controvers
indicative
Canyon
Austrian
Benef
toured
punct
graduating
amidst
wasteful
intellectuals
exceptionally
Knowing
unlawfully
Kristen
vindicated
lungs
Byrd
stewards
cooperative
Recession
BIG
Comes
Gone
Hir
Jorge
aest
gaffe
pac
parl
##dec
##cat
##National
##only
##lems
indiscrimin
grilled
Congrat
theirs
sexting
rulers
##itches
hopeless
Design
Moreno
touring
Franco
tenants
literary
##claim
Santos
Griev
Infrastructure
SpaceX
laundry
Esp
mercen
contradicting
##rasound
scrapping
tailored
Pastor
tampering
intrusion
warehouse
murky
trivial
Wimbledon
Gadd
Krug
Soph
dude
toc
vom
yours
##acements
perjury
gran
obese
runners
retains
caric
parental
stripping
baseline
##yns
documenting
trusts
altitude
Recon
leaned
wireless
dependence
elaborated
Cultural
Tammy
infuriated
precaution
paused
Ez
Emancipation
lapse
##might
##We
##abouts
environments
recurring
Unc
speculating
solitary
Plaint
Iraqis
assistants
cleaner
capturing
strains
McMull
##ilitarized
Watching
Amazons
Surge
alienate
Greene
sponsorship
Efforts
arrogance
fertility
grapple
Chao
eradicate
wheels
indoctr
undeniable
vitriol
Pamela
Scavino
Dover
EDT
Jaz
Pledge
Yug
lighter
mafia
rang
##North
reimp
##asper
##ovo
incess
Whoop
extinction
pollut
admired
##ieces
Apples
voicing
##boro
Atomic
capitalize
Ide
##ARP
Donovan
integrate
litany
geographic
perpetuate
exceeds
unseat
DETA
deprived
McClatch
##bourne
Bipartisan
expiration
ANT
FS
Gren
Nam
Sob
vap
##zman
##ocy
attributes
quasi
lawfully
studys
Reasons
smug
Politi
Amber
gloss
ski
Pharm
embargo
corrections
objectively
conspiracies
Evangelical
casinos
disruptions
concerts
instructor
McGregor
cornerstone
translates
curbing
smugglers
Epstein
possesses
amplified
Lawsuit
latitude
Hoffman
microwave
abnormal
Villanueva
schizophren
Cato
Fant
heter
pensions
##iya
##tle
##di
chill
maniac
##ishment
entail
soared
boos
communitys
Works
##ERE
Arabias
treacher
unpatriotic
brainw
DOW
constituted
luncheon
Axel
Rouge
architecture
Lehtin
Primary
tsunami
procurement
DETAILS
Cool
Fah
Fatt
Sug
cage
pals
tapping
##atre
##iromo
##una
##agne
disqu
preoccup
backyard
condesc
explor
greatness
depressing
declarations
##iums
Brew
Deuts
Contract
Consumers
worded
fixes
housed
Royce
Harrisburg
instruction
blowback
obliged
bandw
intensify
rooting
Panetta
monumental
poisonous
##warf
diminishing
nuanced
miniatur
hastily
Ortiz
overshadowed
Moulton
Rockefeller
estranged
Heck
Hicken
Kin
Loc
Pir
Pier
fom
penny
##frey
stones
##eared
exec
clut
thinkers
Income
transgress
Harper
paras
Attemp
Hero
imaginary
welcomes
consistency
myths
millennial
forbid
Baghdadi
narcotics
cousins
xenophobia
outlawed
astronauts
chickens
BJ
Daughter
Luk
Wins
eB
foil
hatch
##taking
##Bs
##requ
stoked
Stonewall
##annah
endlessly
policeman
slips
emphat
metric
deniers
classical
collateral
##broken
exclaimed
Antig
easiest
multilateral
Engel
Herbert
muscles
Regulatory
Influ
Victim
eaten
teachings
congratulations
Threatens
Beginning
annoying
reconstruction
Suffolk
scrutinized
Kendall
Tiffany
During
Dawn
NK
SE
SO
Tiger
Upper
damp
eman
len
masse
por
pave
rope
##aic
##uance
##MER
##ecoming
##istered
choked
##ervice
meditation
confinement
flavor
strive
famine
Spains
realizes
tops
heights
Warming
fireworks
banana
harrowing
badge
Orrick
makeshift
narrower
overseen
recognise
rollout
settings
pointedly
spreads
Secondly
dictated
pretended
conglom
Panthers
beneficiary
trickle
irrevers
Employment
articulated
swaths
disguised
gusts
outsourcing
Chechnya
Arpaios
Hickenlo
emphatically
AB
Fame
LB
Preet
TPP
bashed
pel
pad
tenth
##lon
##bin
cherry
##elyn
traces
Clovis
respir
Argu
modification
denier
##ricia
harness
Plaza
positioning
Founders
Associate
snub
machinery
sadness
sunk
distracting
Klob
Sixty
stabilization
intermediary
hormone
plummeted
anthrop
Rasmussen
Brain
DJ
Gos
Raul
Rabb
Told
Tark
wartime
##eur
##hall
##onium
##gey
##endo
##aines
spied
evasion
blaze
backbone
discomfort
discontent
traitors
swear
swung
thereof
Enrique
projection
Berry
Wald
darkest
acquiring
Imperial
Fairfax
unreliable
utilize
resonate
Revealed
astronom
##iegel
PHOT
Cooperation
abhorrent
comrades
Bid
Bold
Cosm
Ones
WILL
Wicker
Zach
railing
ske
sizes
##epped
##gi
##bles
##Fund
prow
##ffiti
repr
clo
implant
nearest
Barz
Breyer
Android
##white
favorites
Arabian
Keny
physics
judgments
balancing
##etrate
faulty
NASCAR
infectious
treasonous
liquor
Orders
Increasing
reciprocity
alleviate
criminally
Seg
Tak
Tens
tod
##bus
##verb
##ocrats
exor
##herd
seam
forests
##avia
showcase
##isexual
gunned
delicious
collisions
develops
nominating
Sanford
##asket
Blackwater
sellers
buyer
caliber
sniff
Silence
ACT
##breaks
unpopularity
atmospheric
brunt
categorically
publishers
sheets
Romania
Needless
fetus
gallery
Prager
Felix
Astana
OBrien
cinem
elitist
Sicily
Cars
Eld
Feel
IISS
cess
dwarf
rash
##law
##orative
thunder
##anter
Chip
brace
reliant
freezing
equiv
Alexis
Danish
gradual
Circa
unwel
guessing
curf
Helen
Burton
switching
GMOs
prolific
wherein
hypocrite
Bartiromo
Doctor
breadth
worsening
proclaiming
overlooking
Identity
fraternity
Celtic
Quran
Bombardier
Donnell
Hust
Waking
ranges
##robe
##Me
##estation
neoliberal
relinqu
reflex
Brend
directives
specter
educators
##ERICA
epit
brag
##eddy
Sloven
pardoning
battled
baggage
Debate
Gillespies
sympathies
nonsensical
fingerprints
beaches
Naples
dodge
vibrant
professionally
theatre
breeding
precautions
Hollande
gamble
Cheney
blonde
Cambodia
##Friday
extermin
##Monday
PolitiF
AFL
Dul
Hanson
bells
gown
##hyd
##SS
##bound
##epid
leather
##abs
shoved
couldve
scoff
federalism
underage
exploding
Armen
swe
Exper
ofH
wingers
##perform
Goodman
Evac
Dreamer
Ukraines
OKeefe
Only
enormously
exceedingly
chapters
stimulate
promotional
reshape
receipt
Documents
liaison
grandson
Fun
Fernand
dipped
sank
wip
##low
##arus
##aman
spate
decap
decrees
insign
flock
goodwill
##affer
captive
radicalized
apologies
dreamed
Blasios
coincided
tarn
AMERICA
laptops
discouraged
reopening
Whoever
gruesome
clowns
ONe
grappling
glorious
##quirer
reinstated
lonely
baiting
culprit
Vienna
Aetna
Hickenlooper
Facing
Kagan
Papers
Rus
Tol
Tommy
huddled
satur
##sa
##GEL
##PV
##eneg
##ilf
##owment
thieves
##oser
##nton
##season
coined
plur
mayhem
awe
awake
Blame
Level
maritime
auditor
existent
heartless
Atmosp
Reportedly
confrontational
petroleum
accuser
armor
delegitim
inflated
liabilities
Bryce
underscore
scarce
drunken
WWII
##avelad
Zarif
Reconstruction
Antigua
Klobuchar
Dust
Lena
Malt
Nun
avenue
purity
slic
ticking
##XM
##uled
shru
##acht
##atte
headaches
Weaver
swayed
convoy
accessories
keynote
salmon
Massie
containers
Milan
Oliv
Baltic
cooling
coffin
##rieved
queer
DiCap
plagiar
depicts
stalemate
upgraded
rabbit
negligence
Concerned
spontaneous
fatigue
TheBlaze
Whoopi
Fattah
Vig
dizz
gospel
lovers
nest
pand
##iov
##hairs
##elia
aloud
##awning
recapt
remn
refr
Russiagate
surges
powerhouse
hostilities
skewed
ceased
##ettys
commonplace
bombastic
Morell
##hibition
Willie
discriminating
RedState
spirited
Monteneg
derog
structured
Funds
accords
NRAs
##written
magnific
Subcommittee
stabilizing
##unctions
thwarted
Creative
inconvenient
Wittes
##bnb
Hensarling
Eugene
inhumane
Dj
Fas
Fiscal
ROS
tread
##hunt
##Paul
##ulin
##andro
remake
theWashington
raft
Sandberg
treaties
closures
coalitions
punk
DNCs
Advanced
casually
mixture
curiosity
##eera
tremendously
infamously
##interview
stirring
nicknamed
Albany
paramilitary
Marlow
exacerbate
Billionaire
whitew
Fell
Hos
Hersh
Lif
mired
rails
##eaching
##AP
##Gu
##icc
spiked
droves
retake
lefty
firebrand
supplying
Antiqu
closes
collections
schedules
##array
enterprises
retirees
segregated
libertarians
Toback
deteriorating
enthusiastically
Lehtinen
Ave
Done
Duck
Eat
Possible
Wi
Your
dads
pediatric
zomb
##iased
##gio
##haj
pean
countering
scarc
proverb
##ixed
esteem
holder
replaces
Countries
Tomorrow
seasoned
captures
##iscalc
Boycott
gifted
##Politics
rioting
mishandling
unearth
Prosperity
McClatchy
Courage
Ein
Fuk
Hits
LO
Nance
Pengu
bets
fing
rife
##face
conqu
##opic
##charge
##neum
Newman
hardship
Accused
ruler
Florence
##ONG
starvation
Teachers
unwavering
##CHA
Megan
Everg
improvised
categor
resurgence
Springfield
Announcement
dishonesty
Animal
Curbelo
fantasies
mismanagement
mistreatment
Axelrod
Civ
Fo
MAN
RU
SPA
kin
touts
##Bre
plast
newer
evenly
Marks
socks
Harold
edges
marvel
Collection
Indias
impacting
performers
Drop
##ANT
verification
dominating
##REAT
Levy
transforming
Signal
Underground
Pershing
Movie
slaughtered
paradox
fervent
Buddhist
orthodoxy
dissatisfaction
Zimmerman
timetable
Innovation
Hugo
Bolshevik
Fine
Ker
Lar
Mut
Pizz
Sig
ber
fiance
tut
##watch
##MENT
##zone
##urg
chatter
Stokes
Shock
smiled
toThe
Mayo
Leaked
swearing
Abadi
faiths
Australias
Surprise
pitches
corresponding
Merkley
loudest
sympathizer
UCLA
facilitated
gigantic
dividends
##Democrats
Baton
##ovsky
##Russian
Hindu
Hebrew
Poroshenko
erroneous
confederate
Rauner
Ritchie
Cou
Kerr
Kavelad
Sou
Taken
Vent
Wax
Yon
bishops
ration
raz
##kys
##uer
##Wed
##rums
##verted
##awi
twent
arson
onset
differing
antis
theM
Monitor
replacements
Councilman
Airbnb
rebuffed
##akedown
virtues
Businesses
slightest
##writing
mortg
aborted
scripted
Strategies
Condem
dearly
defections
##IFA
deprive
abundantly
enrichment
surpassed
Cardinals
##White
snowflakes
hierarchy
irreversible
PolitiFact
Hilar
Jeh
SALT
Zap
fal
mac
von
##gue
##wins
##enable
##alach
Thread
insecure
sexy
Barnes
embarked
emblem
generator
Tomlin
##grown
Roof
Khaz
Hammond
Legion
curse
suppliers
distractions
selecting
Player
sideline
coincide
ousting
fabrication
recounts
Cutting
supplemental
catalyst
coveted
mosquit
Juggalos
Domestic
Shangh
nostalgia
Dwight
recollection
warplanes
Congratulations
BO
Files
Hilton
Saul
Wyn
Yo
paved
##riminal
##sth
##reter
deems
backfire
outing
administer
flop
Britt
Marriage
colony
Irving
Flash
affront
raced
urg
selfies
##ascular
Missing
hyped
eyeing
heroism
USAID
democrats
athletic
felonies
girlfriends
Retire
cleric
feuding
hangs
handguns
smoothly
shameless
accumulated
reinsurance
scourge
INTELL
swastika
paraphr
Antiquities
##Wednesday
Before
Diss
Kol
Kass
Kham
Lion
Pack
jok
lest
miscalc
sore
##weg
##epotism
##ewh
Starr
reside
resumed
whom
##unders
ashes
powerless
criticizes
Blow
##iscally
Moral
steak
Compl
Greenblatt
submissions
reactionary
DOD
bedrock
acquies
container
interpreter
Fortune
diversion
detainer
intercepts
Threats
Effective
##OCK
Miguel
analogy
Zakaria
Ebola
adapted
Elsewhere
DeSantis
Jolie
Grieving
Drew
Earl
Hogan
fi
pup
rust
##holes
##wear
##icos
##sson
unres
incurred
attribut
pertin
##isha
outward
defunct
efficacy
edged
##engers
blackl
Indigenous
nonc
apost
generates
pulse
yesterdays
Belarus
semin
layoffs
archives
photographers
Status
dishes
sidest
ruins
uttered
merciless
Landrie
gestures
gallon
Warsaw
Newtown
unequivocal
romance
replicate
Painter
worsened
narcissistic
##Russia
insects
Dietl
boycotting
staple
cafeter
##communications
Tucson
Nast
pumm
##losure
##him
##draw
inception
exits
whisk
beacon
confuse
fluct
uphe
Brid
happier
Sylv
theS
heel
currencies
##overed
candidly
collided
##their
derailed
curtain
Baum
tyrann
stalwart
neighbourhood
erode
rhyth
annihilation
unsettling
Gru
Lov
Toward
doc
rips
wisely
##kar
##horn
##hots
##Gen
##icus
coaching
Predict
##agate
disarray
lawlessness
monarchy
gras
##ramer
##itsch
undergone
Sykes
transg
Blames
meticul
injust
crun
educating
Appalach
Grahams
crosshairs
casts
Guardiola
Investors
##boat
adjusting
Verizon
whereabouts
Additional
engagements
bowl
sequel
incorporated
toppled
greedy
puzzle
whiteness
Ratings
Consequently
Permanent
Opportunity
BAT
Je
Known
Viv
gearing
wrought
##world
##ME
##ori
sperm
billboard
refiner
McS
Spons
Harlem
benign
totaled
##afa
Rosatom
recognised
##ASAN
Goldstein
mandating
designations
Australians
summar
advertise
forthe
Nigerien
##eshmer
Snopes
psychiatrist
handcuffs
disperse
Eyes
acronym
downgraded
racketeering
incoherent
ofBul
unwelcome
derogatory
Aub
Cort
Meas
Ober
Riv
SREEN
Sonny
VII
Witch
tepid
##bishop
##ighted
cob
cozy
invasive
blo
immun
##ools
startup
depleted
accountant
basics
##ippers
downside
Results
sonic
finale
renamed
widening
pursuant
cleaned
consisted
Sales
Incred
Winning
omitted
Normally
Progressives
Product
critiques
portraits
voucher
adventure
prestige
Haberman
coercion
regretted
Referring
bestselling
alumni
Gottlie
ofBullets
SREENIV
Burning
Binder
Milit
Poc
Rena
##nic
##tic
##haus
##cor
##MI
##PC
##once
##stru
##antically
##rages
coma
spurious
##introd
envelop
##promp
talents
audacity
##ipple
##strong
Peru
Conflic
##irteen
Angry
Atlas
strapped
tablets
animosity
guessed
blogs
Points
supervised
habitat
Patterson
quantity
bonuses
Responsible
Analytics
implicitly
Alfred
analytics
monstrous
Neutrality
Tarkanian
SREENIVASAN
Cul
Hire
Lic
Norton
Raw
fiscally
ox
pir
sanity
##did
##invest
##onian
stifle
alph
chess
spit
##angement
Anonymous
posturing
misbeh
winding
indicators
shuttered
Japans
coasts
graffiti
DOE
succeeds
Santorum
reckoning
bleak
Holdings
Lucy
irrepar
illustrated
thinly
stripes
installment
brokers
aggregate
reaffirm
vandalized
proxies
Omaha
levied
commodity
verbally
MLB
Shadow
Ezra
BDS
Caval
CMS
Dim
Fi
Neal
Naj
SL
bart
cub
fib
jungle
rendering
tos
watered
##lier
##ativity
shaky
whist
partisans
Spiel
daytime
##omething
centrists
glowing
staffed
uncomp
groundbreaking
Pressed
unsurprisingly
forgiven
attendant
resignations
copied
Chairwoman
purposefully
willful
magnate
##rosc
reassured
decreasing
##OUL
omission
pumped
Potter
Restaur
infiltrated
paramount
misunderstood
stumbling
unaccount
nullify
cherished
looters
Corruption
Spirit
Bozell
SiriusXM
##eshmerga
Dump
Et
Lak
Zika
locking
##eason
##gment
##door
##elos
##runt
thed
##ewas
leeway
incitement
Chand
##ratory
deserving
flower
womb
onstage
autumn
carved
slander
##ieth
morons
restrain
Beautiful
flagship
diplomatically
paints
ambival
silently
Allahu
escort
designate
departures
balked
protectionist
Kremlins
##onnaissance
vaccinated
sustaining
correspondents
rebuked
Equality
mouths
vigorous
philosopher
retailer
Frederick
consolidate
filmmakers
deplorables
redistribution
Celebrity
Jazeera
Brendan
Bird
Hood
Lanc
fists
pneum
##liest
##EZ
unman
preach
outbreaks
billing
Fresh
wells
Marin
smashing
affirming
##incial
Gupt
unclassified
generosity
Perfect
bitcoin
wealthier
##oomed
harmony
Addressing
burge
pretense
overheard
Anybody
exploits
Entire
amplify
topple
Stabenow
toxins
Shanghai
pertinent
injustices
Gav
Logan
SPD
bisexual
vert
##liness
##laughter
##ulously
backer
##velope
desirable
Alger
Rebel
nearing
Theatre
Particip
Holistic
begs
normalize
professionalism
thriller
sickness
Erd
Deport
mixing
Toensing
persuasive
Knicks
accommodations
wedge
mobilized
parameters
strongholds
styled
Coffman
pseudo
Clinic
Gy
Lip
Lowell
Ree
XL
##fighter
##emia
##herty
orb
preaching
prototype
Sheep
heating
visibility
giveaway
purse
Carp
equals
escaping
Idea
modernize
mobs
holistic
solidly
disheart
congregation
overlap
Runner
unnecessarily
stemmed
espoused
McKin
bitterly
roofs
Ottoman
deposits
loosely
Roundup
Surviv
Double
volcano
toddler
inhabitants
Eleven
sidelined
Cable
CBC
HOUS
Licht
fade
lamp
tin
##uels
choke
plut
plaque
##eyn
flame
subc
Shen
##ahe
condo
Blast
Blunt
Advert
visc
Generally
GoFund
staffs
supplements
briefs
##umbled
Liberation
avoids
Smithson
armada
jumps
rainbow
untold
instructing
Woodruff
republican
Motors
adjudic
Protecting
Seventh
WALL
rehears
jewelry
Atmospheric
Daddy
Sony
gin
##fusc
##paper
##jar
##asers
Trum
sauce
##odder
##ourt
Stupid
##ostic
beaut
workings
##urrent
USs
slipping
Nationalist
hardened
humility
strongman
strife
Pea
volley
Conservation
Rodney
biometric
Woody
Menendezs
printing
float
unveiling
intimidating
bailouts
theoretical
##interpret
misogynistic
scramble
bachelors
Brut
Eston
Ties
cans
diamond
##nia
##nox
##mo
##atars
##acky
Charity
beast
decimated
impat
Unity
##ilyn
takeaway
preseason
profanity
parades
Geoff
buildup
Parish
Export
complains
Edition
loosen
preventive
##ictionary
apologizes
protectionism
Baier
##ytes
concentrations
mastermind
disappearance
Chapo
cultivated
Cordray
riddled
ubiquitous
Bh
CIO
EP
FM
Gaga
fodder
jugg
pairs
ripe
seller
##nett
##riment
##vet
##zh
spewing
envelope
acclaimed
scant
flir
Congo
##iche
elusive
incremental
Polit
holdovers
Minn
apar
criminality
missteps
windfall
salad
##rawled
resigns
populous
brav
innocents
LAPD
whereby
Approval
Standards
AMI
eclips
hazards
defects
cultivate
mourn
Shooter
Juncker
inundated
bewild
Arizonas
DiCaprio
Landrieu
FAC
GB
Hobby
Ml
Migration
Wanted
pity
pant
##lies
##Al
##wala
##reve
##igers
##ceanic
##ppy
performer
##ucous
insidious
refined
Spencers
##atta
distancing
capitals
frog
friction
pastors
##eves
##ueling
Troy
hotly
##ographs
disappearing
steered
ethic
Suicide
Houstons
##isphere
dissu
burger
comforting
##uggish
Organizations
punishable
Solomon
oddly
artificially
distinctive
reservo
Kathryn
plunge
disguise
cinema
anarchists
Allegations
servicemen
Hypoc
Sampson
ANC
Fires
Gam
Nets
Sina
eased
##published
##otional
Trumpers
##odies
##rae
##onger
##acting
whipped
Univision
ops
##ludes
drank
await
storyline
totality
apolitical
misplaced
selfie
Trek
Cubans
ratified
Suspect
knowledgeable
motivate
symbolism
perpetuating
stressful
##ariably
Moment
meteorologist
bolstered
purveyors
##Republican
Wenner
enshrined
Assessment
curfew
burgeoning
Ary
Aman
BB
Boo
Firm
Male
Mafia
Negoti
Vick
bum
elic
faded
nfl
vying
##CL
##Br
##released
##uri
alley
impet
##ancements
Fram
Spy
obfusc
daylight
payouts
transpired
frantic
##gery
Carrie
regulator
Troll
revis
Markey
gatherings
tenets
planting
Silent
Organizers
lunches
comprehend
##runner
inflow
stressing
youths
absurdity
wraps
Webb
stereotype
demented
interrogation
nicely
Mormon
Bri
Cert
IRA
Wife
Yane
Zimb
kph
vain
yields
##high
##stad
##irre
interc
trashed
backfired
##many
belated
stroll
Alis
corp
headache
arranging
blackm
shortfall
lowers
Associates
Everytown
silencing
Patricia
superstar
sensation
psychologists
Egypts
Rosensteins
forty
transporting
Jennings
pinpoint
tossing
Springsteen
Kristol
postpone
caveat
Parscale
skyrocketing
unaffordable
Girardi
Federer
Tubbs
bystanders
salvage
Handmaids
ONeill
urgently
Khamene
Gottlieb
Cay
Hands
MON
Nurs
Teddy
cer
##coph
##Pal
inclin
Chal
##ampaign
retaining
detriment
futile
deepening
professed
Appeal
Perri
subsidizing
fixture
designers
Nigerian
kidney
satisfying
notoriety
railroad
McDonnell
quantities
festivities
Bundy
unraveling
Alvi
Alphabet
tirelessly
Release
Claude
Boulevard
Kazakh
Gabbard
##runtled
Dism
GCH
Killer
Loes
Ranch
##met
##zan
##enstein
##emade
shun
Stam
Chance
twists
invention
commuters
##oodoo
intra
Alert
proph
smiles
Schumers
swore
Forward
##bright
simmer
divisiveness
##etto
tempted
unlock
Melbourne
illum
trustworthy
births
Walk
impeachable
surveilled
cellphones
psychologically
Comments
shoppers
microc
calculus
Hodges
architects
ICBMs
Growing
cowardice
Challenge
Leslie
capitol
override
moderator
repatriation
restructuring
LinkedIn
remedies
LaPierre
respiratory
GE
Kan
Lith
Likely
Sisters
Sleep
Tu
Zor
lions
##YS
##oliferation
##ortional
##esthat
##essional
notwithstanding
coins
interstate
caller
sciences
statehood
carve
soci
Adrian
skew
Guilf
penet
tenuous
despise
guardian
amazed
forgetting
collapses
palm
pillars
Raymond
Hassett
staunchly
Gayle
discounts
incorporate
infuriating
underestimate
trespass
steril
Loomer
mosquitoes
INTELLIH
upheaval
refineries
apartheid
Ely
Gaff
Narc
PO
Uh
Zel
caves
panned
soup
##Ex
##witz
##CNN
##especially
reorgan
##verts
Pry
##ogby
##ibal
impeaching
creed
distressed
airtime
##elsius
launchers
Edgar
tripled
TVs
Allowing
##anguard
Treas
throne
Studios
grips
assassinate
DOJs
loads
innovations
##OMO
##interested
##iggle
indefinite
pedophiles
soliciting
syndicated
pedestrian
antibiotic
Vaccines
Different
Gwyn
buddies
Observatory
oblivious
INTELLIHUB
Bard
biting
cache
fec
pamp
##HER
##ji
thug
##ocrat
shep
Stru
apples
appeas
Sense
opined
Fromp
upload
onerous
driv
Isn
Mario
##insons
prescribe
theDemocratic
##versive
handy
debilit
Blues
Forg
humane
periodically
Allies
calories
scandalous
summarized
registrations
Socialists
partnering
Slav
supplier
##ICER
Norquist
epidem
Nightly
persuasion
unhelp
Phillip
mobilizing
inexc
exempted
bribe
prevalence
Streep
Kindle
RINO
Stefan
WILLIA
mortgages
Frompovich
Failed
Lack
Lose
NL
Tories
dues
paving
sorrow
##hap
##DI
stoking
##amy
##ocon
Which
decrying
induce
idol
##IAL
Desert
offerings
quarterly
rankings
malaria
bumper
mortar
Sharon
##indsight
greeting
Darren
discretionary
disseminated
##WakingTimes
inexperienced
spacecraft
IL
Midd
Rw
Rot
dental
raged
wither
woe
##nut
##TY
##For
##atra
##orah
##ilated
##etric
alarms
poles
bride
##owner
surging
obnox
Shields
deposition
restart
Sandra
booking
localities
devout
devoid
engages
Guilty
justifying
dismisses
customary
advertiser
Teresa
Spani
clarifying
terminating
screened
finishes
##IPP
Approximately
unproven
Understand
manslaughter
depths
exhausting
Candid
detonation
paragraphs
contemplating
Troops
viciously
Hoyer
Explosives
blasphemy
disqualif
Kaveladze
Celsius
Mak
Miles
Prec
Such
Teb
Vander
WF
grey
mused
nas
##rera
##lasses
##called
##And
##eria
##idity
##owne
##emont
##aku
##ovakia
helmets
deference
orderly
Amen
swap
involunt
repeals
destinations
patently
watchers
preposter
##RAL
ethanol
having
fruition
degen
labs
extrav
weaponized
evacuating
perplex
conceivable
Superintendent
contestants
imperfect
equivalency
viability
Stockholm
hijab
gods
Hyde
eruption
seasonal
morphed
Kashmir
superhero
vengeance
Renaissance
Bir
Carters
GU
Porn
Rating
cuff
fifteen
tires
##neck
##ivol
chopping
unatt
pern
arra
invariably
termed
investigates
##oxone
phased
rooft
clearances
slump
demoral
installing
Blade
lessen
paramed
Playing
charm
homework
variation
Recip
Depending
Interstate
renewables
Superior
tackled
Greit
fluor
breathtaking
Yankee
Savannah
cookie
expedite
throats
booted
volatility
relegated
outnumbered
grotesque
Pauley
magnificent
unhelpful
Fewer
Loyal
SF
Xia
mend
##KI
##reens
##ivated
spine
Proud
unamb
medioc
Alonso
trailing
setup
liberate
suppressing
Pauls
Asians
respectable
DeG
##hea
##rizz
populace
BBCNews
balcon
Mnuchins
legitimately
##uggage
triggers
parliamentarian
magnet
Levitt
censored
Sherrod
Cantor
Lois
Dodge
##funding
cocktails
misdeeds
funneled
vaguely
Ruhle
pernicious
Dies
Jung
Junior
Ki
Sett
cemetery
poker
rides
##tm
##felt
##max
##leigh
##iliated
##aci
spelling
##lich
provincial
refute
Ally
drown
Rebek
ilk
hardliners
parish
raucous
Carrier
Heat
dispens
Caputo
##ija
Francois
faithfully
Lefts
constituencies
hurled
shockingly
Castle
mirac
elevation
mechanical
##monuclear
retweeting
contraceptives
conveyed
quotas
corroborated
Merrill
##etermined
plurality
Aval
ED
Haid
Mt
Mort
Vo
bere
nud
##fL
##kirts
##As
##Ass
##bb
##alc
prer
stomp
##adays
examin
##ustered
twins
imped
scales
##isson
##issed
strident
##ribe
antip
##ettered
presiding
transnational
Schatz
opera
purport
barre
Tracy
sycoph
Seuss
attendee
reflective
Biggest
disgruntled
Silk
guardians
Meh
qualification
microsc
Winfrey
interventionist
hamst
collaborated
Leonardo
pumps
hammering
ambushed
expedition
infantry
distributors
sewage
hampered
baffled
tyrant
atheist
adolesc
Schulz
##Breitbart
PKK
SAN
TPM
Wol
WOR
aqu
drip
hindsight
kit
luggage
vets
##cam
##PO
##enne
##orked
##omos
##ulence
##rails
incest
quiz
amassed
trun
failings
Southampton
skimp
canned
Holly
ultrasound
Melanias
satirical
innocu
Comed
frames
Norweg
provocateur
Lynchs
Aliens
fledged
Tribe
vanished
Mirror
clerks
sabotaging
cowork
Colombian
consolidated
Byrne
Alpha
swallow
dwindling
mischaracter
dissidents
Greitens
Both
Took
Wid
Were
##irus
reap
##emony
incarn
disinteg
beans
quint
Spin
militaries
Euro
Euras
afoul
Aspen
multitude
charming
destroys
tempting
Nowhere
##casts
characteristic
Millers
NATOs
Magn
Boyd
outskirts
intensifying
calculate
Alej
Cyrus
deceit
Barton
inflammation
scratching
attachment
perilous
OConn
privatization
lodged
Individuals
Tunis
freelance
Bengal
Redskins
Barzani
unresolved
GoFundMe
Loesch
Rebekah
Bolt
IBM
SICK
Ul
euth
fox
hemp
nails
##iered
##Health
##Out
##XT
##itaries
##emit
##aka
shove
spells
##ifas
##agging
##ussion
everybodys
flatt
immers
handic
Blank
socialists
socialized
classrooms
specialty
veil
Enc
Guys
##othe
##udicial
Tomi
calam
cooperated
wilderness
graves
unprep
Burma
Gregg
Supporting
ringing
sighted
pillar
idiotic
enablers
prostitute
dimension
southwestern
covfefe
geoengineering
Supremacists
Rumors
acquaintance
Literally
##patrick
goddam
artifacts
Dulles
remnants
proverbial
Cin
Lux
Wenger
cue
cav
piles
wolves
##daughter
##bys
##alion
##otas
thirst
notions
##ikas
##anco
groped
entrust
drowning
##loyal
Nationals
singles
PhD
ISPs
misinterpret
dismayed
Jacksons
updating
embraces
evils
succeeding
tribun
Jordanian
fingerprint
##erba
dismantled
rewarding
Beckham
Cannabis
neighbouring
culminated
lamenting
receptive
Guilfoyle
Gwyneth
unambig
Bert
DV
Hello
Nu
Ot
Pages
Sitting
Vince
Zerv
ck
hust
mates
##card
##BT
##oufl
##enthal
##idental
shade
##ensely
pert
accred
##ollak
Marilyn
demonize
organizational
silencer
mistress
honorary
renewing
deployments
comfortably
implored
Footage
##ravity
sustainability
axis
STEM
tattoos
outpouring
stagnant
gleefully
grenade
Trumka
Sinai
CRA
Krik
Lem
Sri
gum
gently
gorge
gushed
sack
tame
##enburg
##anis
##omi
prayed
##mert
dehuman
shrug
shamed
coy
unreported
acoust
Inj
##ggy
##auf
##azis
prescribing
theb
Assanges
frivol
mornings
Carry
joelp
HealthCare
Anglin
rebut
Compared
##roller
##USS
##ucci
calmly
Bennet
Passover
geared
cowboy
Buffett
irritated
disconnected
hormones
omnibus
mulling
nephew
Yugosl
cafeteria
Smithsonian
inexcusable
preposterous
unprepared
joelpollak
Bass
Cain
EO
Flying
Larg
Tot
Yun
crawl
muted
##forth
##aros
##ayers
stair
##opal
##ogy
assuring
asshole
descriptions
flashing
##exp
Manig
overbook
explores
thermonuclear
Davidson
variations
reboot
Sarin
Quick
Salaf
exams
##opolous
##arching
curry
until
Santia
Raising
Assemblyman
Holding
dignitaries
Writer
abolished
##frame
allocate
Azerba
Psychiat
imperialism
misrepresented
Paso
annexation
HUGE
corridor
cohesion
Hutchinson
Bastille
Feinberg
unearthed
Sheeple
Azerbaij
Bates
Kub
OMB
Tyr
nodd
paw
pits
ul
##ongers
orph
defens
gro
missp
debuted
LeP
researched
fearless
performs
roundtable
Recogn
radicalization
observes
trainer
savage
narrowed
streamed
Sheila
forecasters
renegotiating
Rapone
ONE
Fatah
Machine
intrusive
complimentary
hegemony
Fernando
refriger
SPAN
Yanez
Zimbab
Failing
Jerem
Mothers
NW
Pear
Pardon
Ridge
Yu
nepotism
racked
##some
##oops
##uspect
##there
shrou
reprieve
##ieged
compounded
agitated
conspired
blunder
scans
outed
monsters
##ieri
##pring
guru
overweight
empirical
esque
singers
Islamophobic
globalism
shareholder
revolving
generational
Elena
preventable
frett
roundly
Recovery
robotic
confrontations
Maloni
punishments
Sixteen
precedents
telecommunications
censoring
Retired
installations
hashtags
Volunt
cabal
Combat
skyrocketed
mimic
CCTV
livestock
motorcycle
euphem
McSally
debilitating
Krikorian
Bach
Cemetery
JPM
Lying
Mello
Pensions
Tort
##fly
##holic
##metz
##paid
##RY
##Works
##enh
##atist
##ilis
stack
saber
##then
##allen
##ousse
clamp
arsen
reconnaissance
##axy
brow
grin
Securities
buoy
overarching
informants
##entionally
importing
Ads
Maya
numbered
Column
freeing
potato
videot
Execut
audition
Steemit
doubted
Madonna
admittedly
bye
Susp
Addiction
bodys
sunlight
interpretations
Scaramuccis
Elliot
Gorkas
Ramire
persuading
LAU
unheard
SPICER
Boliv
exporting
Marxism
NHL
brigade
heralded
avenues
Plaintiffs
razor
appeasement
Manigault
Fur
Match
Poss
Paid
RES
Tried
TRA
voy
##pan
##olin
##eca
##ateurs
##rium
spikes
Stream
attends
inducing
billboards
immensely
##ajo
coloss
visions
redraw
##ype
boiling
esch
antiqu
Postal
devolved
##hemical
surprises
Allison
Teacher
Londoners
rider
angst
portal
Sergio
hello
texted
Economists
hunter
perpetuated
Griffith
alerts
reelected
bullies
conventions
detainers
illustration
Technologies
sprint
downplaying
smeared
hypocrites
Hansen
coercive
Jamaica
Wendy
unquestion
kindergarten
BJP
jokingly
Khamenei
Perriello
Bam
FIRE
Moms
Vic
Wemb
bung
fend
tomb
##lace
##Sy
##Ms
##ewith
seaf
republished
worsh
##ogging
offline
preacher
imposition
flanked
##conc
##atcher
smack
Blaze
hourly
Particularly
Ens
patents
contacting
cannon
Defends
##OND
##ullying
commonwealth
Drops
Allied
coastline
stuffed
Venezuelans
fromthe
##arrell
splitting
Earths
Sharif
pilgr
##olte
Discrimin
Dominica
unseen
rewriting
gentlemen
demeanor
helmet
camoufl
vicinity
sniper
beholden
Purple
Krugman
prowess
Montenegro
Eid
Fen
Ni
Pur
banners
caved
fills
##uly
##GO
##enan
##enko
##igger
##ieval
attain
commits
impasse
##ftime
Clown
persists
substit
propel
detaining
modifications
wrongful
Guardians
speedy
democratically
commanded
Ruby
scientifically
ACAs
##aunted
Titans
Steinmetz
discouraging
Webster
Industries
Gilbert
Negro
Letterman
elephants
Quality
Moody
PHOTOS
Wembley
HEL
Ike
Nolte
RBI
WB
bounce
hooked
nerves
rs
##mor
##bank
##ref
##ivation
##eport
choking
deer
##umably
evap
Chick
compuls
lawless
statistically
entries
guerr
proportional
awakening
Mara
##atsy
situated
responsibly
expressly
projecting
combust
heartland
##coholic
##anguage
acknowledgment
apologised
Petrae
broadcasters
citizenry
Klans
stickers
##Star
virul
batting
apprehensions
undercutting
sodium
underestimated
therapist
Practice
Situation
waning
undergraduate
exponentially
tyrannical
Norwegian
Aus
Cald
Dy
JE
JON
Rita
Sonia
WR
limp
##gary
##bil
chore
spawned
##ifact
##ssa
##actic
wheat
PresidentDonald
striving
emoluments
playoff
Shir
passages
turnover
Assuming
herd
uncond
religiously
Founder
expectancy
verse
unfl
innu
Withdraw
medicinal
##avesdrop
overturning
parenting
fateful
phenomenal
wrapping
Various
Munich
unpredictability
Updated
Promise
Reiner
Brigitte
embodied
subordinates
Crews
Folks
Fuck
GQ
Grab
Ine
Lit
OGE
TPS
clem
fiber
kits
linger
puff
##rador
##ORE
##jas
##isse
##rike
cheated
shouts
##iav
##oured
perch
counters
workout
##issy
Sharp
soaked
farce
McCoy
depiction
morals
Parade
Superv
DAV
equated
Phone
reviving
##rection
unfettered
Berets
packaging
portable
Suz
Prevent
Insane
Cuomos
sunny
##scale
Reviews
hurry
resorted
unbiased
Ethi
exceeding
##iggs
shadowy
Pais
mobilization
kissed
Patriotic
ExxonM
abundant
Correction
strangely
ambiguity
ushered
Option
unabashed
disillusioned
Fukush
prerog
innocuous
IMF
Lans
Pasht
biot
##firmed
##CW
##enza
##entions
##isure
##oland
stigm
##ulator
##nth
##ocial
##chi
##raved
forgo
quell
##itionally
##outi
withthe
emission
onlook
entourage
submer
Shak
presumption
Indies
skirm
excused
Directors
lackl
conflicted
permissible
##factory
##IDE
disservice
connects
##olera
leanings
Powerful
Historical
contestant
##RIX
facilitating
revered
Odinga
retraction
synag
synonymous
Mostly
MATRIX
novels
irregularities
newcomers
asteroid
Pizzagate
Santiago
Jeremiah
Aung
Borders
Dolan
Iger
Jar
Muss
Nolan
OIG
etern
ferry
gad
hailing
jockey
pandering
##gap
##istrate
goof
##abi
Proph
plural
anew
##apal
expos
quid
##ishly
intric
##ounces
soften
underpin
affinity
Amster
openings
parr
Christina
singling
Breaks
Plant
##apeut
##AST
Londons
##ARC
centralized
Goodl
acquittal
MeT
Banking
jihadi
Hamptons
Hospitals
tragically
outdoors
Coptic
unmist
Claremont
##NYT
reinforces
##idelity
supervisors
Streets
pioneer
descendants
Betty
Caitlyn
unavailable
Dolly
Fuel
Jal
Mine
NOW
Peshmerga
Zogby
darling
fathom
##iP
##gens
##hh
##hof
##Daily
##itled
##entices
##igo
##raught
deleting
polio
##arding
arising
knuck
decriminal
##ervatives
##ickering
amusing
McH
upend
Browne
##ottest
farewell
presid
sloppy
Script
Amtr
FoxNews
Goh
Courtney
thermal
Moines
Resorts
Politicos
licence
Councils
justifies
Rece
Homs
UKIP
environmentalist
Autom
Electronic
congreg
##rudging
Chapel
smuggled
forbids
discounted
overstated
Rudy
moist
disobedience
disadvantaged
dystopian
Ramirez
clemency
Cind
Faced
Gol
KA
Lone
Nope
Rever
Sax
Tusk
gou
ya
##fam
##killed
##entric
##story
##adas
neut
recert
flowed
##otte
emperor
smears
heap
Forced
Parad
Enquirer
progressed
##gestion
Glad
modernization
precurs
deliveries
Quarter
Disgr
outlier
##cheduled
skinned
##OWN
preceding
pharmac
Beyonc
adoptions
Potential
Responds
Schneider
prematurely
Learning
MoveOn
Sioux
Ajit
multiculturalism
password
Producer
Ibrahim
Rabbi
##iovascular
Rab
Sung
Vers
VIP
eavesdrop
ha
hash
lenders
pes
##Es
##VI
stero
spills
Stamp
offence
blur
bricks
teased
flav
retic
promul
swings
equating
downed
deepen
Asks
revisions
Politically
winger
##uddle
Ivan
Sweet
somber
hallmark
reinv
Onward
constructing
IDF
inspires
Jenny
taboo
manifestation
neuros
reverber
Begin
resembling
Mandel
certificates
theatrical
SECRET
fervor
Orwellian
Shepard
McInt
disbanded
charismatic
unwittingly
pollutants
obnoxious
Ack
Bog
Duce
GEO
HPV
KT
Motion
Trial
TASS
Zack
fading
hass
##lr
##Har
##atollah
##aloxone
##oton
Charge
Thiel
##kson
Unmas
scumb
flim
##prom
Branson
subvert
##ahs
Marist
Mayer
victorious
delusion
DAPA
##whether
dolls
Pressure
essays
Berk
##veston
##burger
unelected
imaginable
babys
Removal
Demands
Independents
taping
Verma
reassurance
Mercers
Schultzs
unleashing
Crowley
brightest
Towns
merchant
Brigade
commodities
Fascism
dotard
CDU
commercials
Toyota
rhythm
Alejandro
Fukushima
MeToo
AA
Bend
NIH
Wanna
zip
##gust
##wo
##nts
notifying
##thora
##endra
placement
pepp
peaked
##agher
cling
cluster
##ordid
Chech
arises
trashing
outpost
Newsmax
frantically
Leaks
Introd
##books
skull
Carne
credence
motions
peacekeeping
temple
disclaim
##ranted
robbing
coping
Prohibition
summons
Salazar
Joni
champagne
smartest
Trail
reputations
Romans
##innon
equivalence
CHR
paintings
dietary
intolerable
interacting
degrading
Supremacy
Returns
Dollar
superficial
minerals
Terminal
residences
Duffy
denunciation
unapologetic
imbalance
unmanned
Zervos
Bened
Bucking
Ces
Easy
Hi
Kyl
Lug
Vern
Visa
cush
soot
##both
##artered
##raf
shiny
compact
blitz
##outed
upscale
onboard
##itson
Joey
##atherine
retreated
##otty
presently
edit
Forec
Geological
growers
devise
##owsky
##etters
Conte
heartfelt
dedicate
Meaning
Walking
hurtful
Hawk
softened
Slater
Slavery
Refuses
sympathizers
Frontier
fetched
scholarships
ranting
rioters
enthusiasts
Universities
Dubke
steeped
stereotyp
demeaning
puzzling
texting
adamantly
anarchist
scolded
transcend
Lauderd
unregistered
Gretchen
ideologues
noncitiz
Cavaliers
Gaffney
Pashtun
AMA
Bi
Dram
KING
LI
Lis
Ranking
Seal
Villa
Wubb
bunk
cables
dried
eminent
hord
lanes
vault
##rocal
##TP
##atts
##emoth
##osc
sailing
##ocino
Thinks
perverse
bees
flare
##retch
Broward
theB
profiting
sitcom
understatement
safest
plethora
##been
Guid
injunctions
Trots
Theyd
Seems
erasing
reneg
penetrate
##backer
labelled
Frankf
Hammer
Advisers
belongings
Murphys
stresses
rupt
Protestants
passionately
Bowe
Understanding
Galveston
misogynist
simplistic
monopolies
Continues
paradise
reconsid
relocated
eroded
interrupting
disliked
scapegoat
Coca
fugitive
jarring
Andersen
OConnor
Fru
FNC
Ny
OM
Tough
Towers
bites
daddy
fizz
nave
padd
##bag
##GR
##aris
##still
notices
disloyal
##uev
mediation
dooms
belly
belitt
##arles
leftwing
tweaks
behemoth
nightly
artwork
Minhaj
marketed
##osphere
broaden
cancers
heartbroken
checkers
##END
sucks
unwar
Doha
Magic
blinds
industrialized
##assioned
besieged
caucuses
NRO
Doctrine
clich
monologues
obliter
abducted
tantamount
deteriorated
Windows
haunted
Engineering
Mendocino
sunglasses
bolstering
coerce
transplant
##mighty
Petraeus
Conduct
Dyer
Hip
Kud
OT
PT
Sale
Tina
Vit
bothers
citation
gull
lous
##yas
##mand
##oro
##stones
##olam
##iga
##opa
##ewood
##anti
##ongs
screed
lasts
factually
minions
centres
Leigh
metres
negativity
##eryl
improb
counterfe
narrator
submitting
Accept
complicating
appreciates
##workers
Woodrow
Verify
##OOK
Basic
masquer
Steeles
Popul
Haslam
Barnett
hyperbole
backpack
paralyzed
antidepressants
heterosexual
Gupta
JPMorgan
Amsterdam
Bure
Bevin
Drey
Gand
Hale
Lay
Lakes
Role
Ramb
Tumb
Von
lent
nailed
soy
##iencies
##nis
##girl
##Congress
##ocurr
##umen
##ensional
interm
scal
Frano
strides
refinery
undue
embody
distances
Blasts
Barlett
Generation
reformers
Beau
misin
homemade
Eliot
Carey
subjective
##rifying
veracity
Valent
hallowed
##opolis
transitioning
softball
Berkeleys
warrantless
Awareness
boundary
qualifies
Programs
recounting
albums
solicit
Navalny
Soldier
Venice
Escal
excoriated
Desperate
agitators
insignificant
##uspecting
Lauderdale
Bauer
Dol
Dort
FU
GREAT
Language
Tester
aids
diam
fitted
##ao
##aels
##kans
##pour
##between
##Gr
##TF
##itiveness
##stick
##asions
##illas
unwise
##omever
consular
discarded
##ommun
propping
Shocking
retrieve
smokers
theology
Aron
filers
blackout
Speak
Allred
survives
definitions
Brownback
Greenberg
consisting
Jonah
deficiencies
##ICS
anticipating
sorely
Colberts
collaborate
##weeted
gutting
publishes
lectured
shielding
forecasting
simultaneous
aerospace
maneuvers
eroding
apocalypse
catering
softer
prioritizing
cumulative
Alyssa
unwarranted
Dot
Flet
HS
Kw
SIG
Temer
Votes
ail
matt
nan
ore
rotten
tones
upped
##elman
##ocide
planners
Thorn
impassioned
intr
flung
issuance
onTwitter
differs
clearest
overfl
Conyers
storyt
Sched
firefighter
waits
Resist
cruiser
impropri
coales
mistrust
superiors
Illust
Marty
Walden
Salomon
reciprocal
thankfully
Including
Helena
ceremonial
tanker
sacrificing
Retail
Deadly
Corporations
throated
##lette
energetic
reimbursements
unbelievably
##America
deposit
paychecks
diligence
Supremacist
elegant
preoccupied
Politifact
lousy
Cell
DES
Heg
LE
Pill
Veh
Waste
auster
pent
##gates
##uished
##Mich
##ju
##stown
##etch
##etold
##chester
##thal
##unks
sharks
##obar
##ieu
politicization
brash
flank
##iffer
##prop
traps
upstate
passports
##attery
toast
firepower
kindly
##bsite
menacing
Islamabad
equate
deterred
voic
##emblance
angel
honorably
abandonment
Silva
cardiovascular
catcher
pipes
validate
boldly
WHITE
Chapter
espouse
Horowitz
##oshima
Ghani
Promises
Argento
offsets
Indonesian
unconscionable
renovation
dispersed
Extremism
blazes
whisper
treasurer
Yellowstone
pronouncements
Wahhab
Scholars
reimpose
ANTIFA
vapor
[...]
