[UNK]
!
"
&
'
(
)
*
,
-
.
/
:
;
?
`
a
b
c
d
e
f
g
h
i
j
k
l
m
n
o
p
q
r
s
t
u
v
w
x
y
z
##r
##a
##n
##d
##u
##e
##c
##l
##i
##m
##b
##o
##s
##h
##p
##t
##g
##k
##v
##f
##y
##w
##j
##x
##z
##q
##er
##in
##on
##es
##en
##ed
##at
##an
##ing
##or
##al
##ar
##ic
##it
##ou
##ion
##ent
##st
##id
re
##le
##re
##ly
##ot
##mp
pr
##is
##il
##ol
##ac
st
in
##ay
##om
##el
##et
##ig
##as
tr
##ec
##ation
##ers
th
##iv
##ow
##ur
con
##ad
##am
##em
##im
tru
##op
##ce
##us
##th
##est
trump
##ess
##ate
##ist
##os
ne
##ver
##ct
##ut
ch
##ir
##ff
sa
##ul
##ort
al
##ld
##nd
##oc
##ak
not
##pp
##ch
##nt
##ill
de
##ment
rep
##and
said
##ge
le
##igh
su
cou
ex
##se
##od
##ity
##art
pres
##ident
com
##ant
##ive
##ies
##ter
go
se
sh
##ial
##ear
sp
ad
co
##mer
president
##ab
##ast
##ne
##ain
##ans
##ight
##ack
##all
un
##ia
wh
##ve
##ie
pro
##ud
##ub
new
cl
##end
##ect
wor
##un
##ell
li
##ke
an
pol
##cc
for
##her
##ould
##lic
pl
##ice
would
ar
##ally
##ions
we
##ag
pe
##ary
res
##ri
##ite
##ap
##ence
##ok
##gh
##ign
##ard
##ous
off
as
us
##ublic
cr
peop
gr
##um
##gr
cont
##if
##ated
people
he
one
br
##ber
##iz
##ong
man
don
ev
is
##ip
tw
##act
##ake
##meric
dis
americ
at
me
##aw
en
##are
inc
##ations
##ord
year
hou
##ust
tim
##ound
##ass
##old
stat
##ey
say
part
exp
##int
act
sen
no
##ide
acc
ob
##ook
##ire
dem
##so
ag
mon
##itic
##ure
##ough
att
report
like
##age
##hing
comp
per
app
##day
##ace
##ost
##uss
##ry
ca
also
comm
##ian
##ine
##ement
sec
##ue
fir
##ble
be
##av
house
##rat
##ail
##ore
inter
##ind
##og
##ep
rec
##our
count
##orm
bl
##uc
republic
##lect
white
or
##ors
dec
##ens
##ov
##qu
inv
##oll
work
##itt
##now
law
fr
##ance
sc
##one
jo
##ink
##able
##reat
im
dr
##ome
qu
##ict
##ult
##pt
pre
call
##vern
democ
news
mar
cons
##erv
russ
##ek
get
govern
time
##ase
##ational
##ish
could
##ration
med
imp
ever
##ade
##ons
know
##oss
##enc
##ory
democrat
ind
str
te
##min
politic
##ame
it
##ft
ass
obam
##ert
##ith
##gress
supp
bill
that
offic
##ious
first
right
even
##eral
fl
am
##ning
##ond
state
##ax
war
ab
lead
elect
back
##ited
vot
day
may
##ose
##ition
##ree
government
camp
##ang
##ings
##ick
##form
##ues
ro
do
##ied
##out
dep
##ents
add
think
op
##iss
want
two
##alth
week
##lud
out
def
sy
told
last
##man
wr
states
ter
##urr
##ern
reg
##oy
rel
admin
##app
resp
many
administ
##ily
rem
##uct
all
tax
int
hel
##iew
cour
po
every
des
##ild
##anc
support
invest
nor
##ald
with
prot
##ock
##ork
##aking
##ach
##lear
conf
##ood
national
##ical
was
##ra
ins
##ann
way
show
##aign
mu
congress
campaign
health
years
trumps
american
##und
includ
##ities
##ative
leg
##erson
##ual
going
##ments
##ere
##hn
accord
official
##ism
##ower
##ful
sch
need
char
spe
north
##oup
##ath
bel
former
mem
you
car
country
##ists
##way
public
##ret
made
fe
imm
make
em
group
administration
according
##ise
##ating
##ug
gen
ac
##ank
donald
##ton
##ib
end
##cent
##other
##ates
well
##ives
col
investig
long
eff
contr
##leg
ear
ph
##iff
##own
##ince
high
mr
##ered
ref
##urn
id
##ater
##air
##ked
world
gu
##irect
care
prov
mill
fed
##ob
min
disc
adv
republican
##ange
iss
direct
wom
##ile
obama
##pr
the
##ting
attack
look
media
##ible
percent
kore
und
mil
united
senate
##ee
par
found
political
##ief
clint
put
##als
republicans
##ased
inst
help
##ich
##ether
##nc
says
much
month
opp
polic
##ah
fam
so
bus
##ove
election
##ently
##bs
take
up
##aim
##ier
see
##ency
##vel
##ying
play
##ets
har
sign
##led
federal
since
##ress
##rem
fin
ma
on
point
still
##alk
court
##gan
serv
press
contin
fact
though
##con
##fe
##ected
democrats
##ution
el
any
ir
vi
##bers
secur
bu
##ys
##hip
russia
##view
post
cor
conc
bec
secret
##ady
washing
claim
plan
##ision
##its
##ount
clinton
##ior
##les
mat
fo
##ility
left
happ
cent
police
good
security
called
ent
##ually
person
washington
##der
prop
##az
spec
stud
statement
milit
depart
##ific
reported
dont
##ands
belie
sur
som
ser
##ene
fund
far
real
meet
quest
det
maj
##ave
##ollow
##xt
committ
big
af
immig
run
##ime
sm
si
ret
deal
##uth
power
major
another
follow
diff
pass
ann
##ather
##rib
office
compan
##ms
pay
viol
under
##ott
russian
bre
##io
party
##gest
lar
##ty
##ins
commun
sl
times
somet
and
including
##ular
officials
##ized
##ts
##get
ant
##res
##urs
did
never
bar
##ants
ed
soc
##ope
cond
##ivers
sup
face
twe
##osed
##ash
they
child
inf
requ
miss
##gram
just
america
air
appr
americans
let
hill
terr
cap
clear
##ool
military
##amp
##iness
##ecut
three
over
program
##nn
ke
york
great
es
without
##ling
il
critic
emp
econ
econom
dist
inform
korea
policy
threat
##ican
##olog
million
sub
##used
department
##ner
##ued
##ever
talk
##ention
start
##use
beh
ext
##aff
aff
prom
mor
leaders
##atur
##imate
trans
##ont
##ason
how
##lish
##ote
use
set
##ened
##ech
##ject
##ines
bo
##red
##ead
them
come
mov
##ks
##ned
##ised
stand
conserv
really
women
expl
##ering
num
##ru
business
old
##imin
##ially
auth
around
##ember
democratic
whether
da
##ared
##outh
jud
##ged
thats
##ained
prev
asked
john
pa
##ces
##ians
kill
ju
##ina
seem
appear
investigation
hist
##ience
##ional
allow
saying
tod
repe
general
protest
la
cre
##ull
city
conv
head
secretary
##ices
##acy
##atch
to
##ending
top
##son
members
##thing
##orn
##itter
hear
effort
something
rele
used
##ense
poss
days
gl
mcc
##uck
##ounc
hum
cover
##ator
##ward
next
mark
terror
const
##let
##loy
however
##gin
author
hand
##stem
oth
ste
ve
arr
vote
##ness
turn
money
order
does
case
school
red
##ize
##med
intern
protect
him
now
fore
##uesday
sex
near
change
incre
system
prof
isl
organ
##cept
ide
curr
##isl
committee
today
cut
things
tuesday
information
keep
fail
some
##akes
sever
##ren
##iving
south
liber
av
life
deb
##ody
legisl
differ
black
##ugh
might
test
there
ra
est
##ute
tweet
##bi
gun
bet
find
twitter
lot
proble
are
foreign
alleg
##ger
##ames
hard
##ided
read
##emp
interview
interest
##ically
sw
je
tell
arg
team
fil
cal
win
pat
##elf
took
fight
import
##ved
story
loc
##ready
pos
already
stop
director
san
##nes
family
##ides
##ics
proc
mean
obamac
##ertain
night
monday
less
##uclear
##gy
vis
got
cost
##ators
rest
least
##ds
justice
meeting
question
email
pop
##ney
later
gop
place
home
prod
came
wed
##for
del
vict
decision
hes
##oot
hillary
announc
open
consid
fbi
her
yet
nuclear
added
##ush
##ified
##ria
##reed
rac
obamacare
suprem
free
##iting
social
chr
##iven
##ellig
four
main
believe
univers
insur
##ns
##iday
priv
months
view
art
mass
##ived
fox
##ined
large
working
##ale
second
comey
speech
mid
##ruct
##riend
cand
den
mus
##ures
##iet
this
number
vide
partic
##less
met
making
wrote
##idence
cnn
mod
##ately
past
sug
bann
##els
##rict
intellig
several
fac
execut
chief
decl
host
##ising
rev
oper
##ream
among
##ably
must
##yp
thing
##ains
##ursday
eng
immigration
recent
candid
presidential
##ought
thursday
didnt
##nesday
##att
anti
likely
step
intelligence
issue
##iously
wall
fire
##ges
ow
##iel
##fort
##ittle
##urrican
desp
##ste
wednesday
##ony
hurrican
rights
groups
human
staff
leader
##pect
record
little
##ient
repres
suggest
better
rece
away
result
##ico
attor
employ
ge
##ries
##over
##ended
hold
special
ce
friday
##ike
concern
legal
##bc
bord
history
##ocu
men
effect
##book
ther
done
trying
thr
actually
tar
reform
##ital
daily
sour
invol
coll
##ats
##be
children
##unch
class
pot
sent
ap
##oad
control
vir
discuss
friend
went
job
rul
organiz
sus
important
account
weap
action
##oke
nation
conservative
simp
speak
based
civ
##br
iran
sand
sit
reports
##lier
hal
sund
event
nothing
watch
best
##earch
##ury
respond
company
death
laws
research
##ivid
activ
others
##erence
list
##aged
kind
video
shoot
give
##oci
level
net
##up
##aken
mess
sunday
book
##ired
##onse
underst
west
##ages
chang
will
##work
associ
##ways
response
illeg
certain
enough
##onn
short
##line
##vey
##ley
strong
earlier
seen
attemp
##atives
cit
pub
doesnt
advis
youn
##ases
desc
hour
grow
dev
##itution
reason
move
civil
##ars
##inc
become
##ential
##allen
china
pu
force
process
hurricane
sol
known
morning
##stein
build
acr
tex
gre
represent
given
##par
university
different
##wh
val
individ
ple
majority
bud
theres
local
can
instead
violence
taking
feel
##ourn
attorney
spok
repl
non
##itch
facebook
border
hom
individual
##ards
er
chair
across
able
repeal
close
presidents
course
sing
##ix
bad
problem
##ted
##uge
##velop
syria
lat
issues
calif
foc
pen
matter
along
executive
##ening
##side
dead
economic
##by
voters
##king
##ims
docu
colle
getting
pros
develop
climate
tow
citiz
billion
always
relations
center
full
##fl
defense
medic
comes
##aster
##ones
texas
evidence
dam
bannon
##ees
five
##ured
##isc
drug
dest
enfor
comment
neg
mo
##ortun
following
##ither
strate
fut
trav
##aining
geor
bas
ur
sure
##ison
anything
kne
provide
equ
##ph
possible
mur
bene
mich
poll
stri
##gn
mom
who
##land
countries
oft
early
christ
name
journ
sim
march
continue
exc
politics
##reement
esp
congressional
six
ris
pur
agency
insurance
##ral
despite
lim
##ves
thought
##ences
immigr
##ium
paul
using
eur
confir
aw
behind
famil
mc
taken
journal
##ille
##ced
stre
describ
##ark
glob
senator
##most
often
cho
sess
ident
community
tot
financ
##imes
future
announced
ago
return
rad
##ners
budget
##ro
##unt
international
##ify
##ogether
##oved
ban
private
companies
sanders
benef
occ
##iver
##lu
young
small
##oint
californ
legislation
##aps
##body
form
##ik
##uel
won
##itions
##erate
respons
weapons
challen
indust
efforts
##icle
weeks
here
##lished
##ccess
aud
line
opportun
service
again
plans
within
district
##rupt
content
##sw
understand
cant
address
hit
coming
agreement
##usion
almost
##ging
##ville
##pl
means
wein
crimin
##dle
dou
water
##ister
orig
##akers
led
##itor
freed
request
sk
##ission
current
##omin
bring
released
push
low
nearly
##edi
spokes
tur
woman
particular
exper
theyre
opt
killed
##ming
islam
side
##ield
refer
musl
market
##ibility
entire
oppos
charl
down
reve
hol
term
corp
travel
target
nations
sal
sanct
##ology
hope
origin
seek
isra
div
wa
role
emer
wants
together
##ias
regul
##ipp
sept
rather
lives
examp
success
comments
lab
someone
idea
profess
##ances
##ively
adm
##aca
recently
alleged
fav
freedom
ep
##onnell
rich
##uation
california
##elly
##amed
europe
late
##ault
illegal
anal
##ots
detail
reporters
flor
enforc
##ilar
##yan
matt
complet
##tern
##ories
##aled
wrong
##ops
review
makes
satur
storm
##rian
##sh
prim
bom
held
personal
##ried
##ecess
race
sum
##anger
wanted
senior
hon
##ored
cann
##go
looking
addition
##erto
deep
citizens
daca
contact
claims
bank
fly
saturday
##istan
##irc
james
treat
##ender
global
##umer
funding
key
middle
began
arrest
israel
##bert
ms
unc
##ven
##the
anth
stay
questions
##iam
##echn
puerto
eas
created
sexual
network
gener
circ
liberal
live
##aid
##here
arm
conn
trade
judge
prob
##atic
reach
east
room
##erman
ru
mcconnell
anyone
##hood
dat
lost
phot
compl
mex
##epend
immedi
tre
env
relig
happened
attacks
mult
broad
lear
##port
share
everyone
till
meas
expected
florid
seems
##ature
cult
son
sessions
but
mind
answ
coverage
init
##ades
candidate
estab
kelly
dav
words
##eter
independ
##ely
position
game
students
outside
##uit
ill
mis
lawy
enforcement
abs
constitution
isnt
techn
##vers
##lex
players
##iter
tweeted
virgin
inj
extrem
similar
##ortion
foot
lawm
##osp
access
nfl
pred
##eller
appro
of
##of
quick
express
spending
launch
product
continued
##asing
##icult
avail
harvey
cred
ener
fall
land
exist
thir
##omp
aug
##itive
doll
fear
##ma
calling
supreme
##oph
##uary
jan
##ows
half
more
prior
educ
everything
needs
then
example
florida
##ric
enc
thous
letter
forces
deter
member
brief
regard
##ensive
hours
##eng
latest
argu
simply
mag
true
##iety
##ability
project
forward
typ
criminal
##oth
##izing
try
##lement
shows
foundation
popul
kim
either
ver
talking
##ites
immigrants
workers
charlott
jobs
##fully
services
progress
youre
influ
star
cris
love
available
specific
message
fired
data
else
ryan
begin
##overs
base
financial
fig
policies
##ecially
single
conduct
hot
barack
related
failed
food
convers
agend
leadership
##ids
##ape
##iron
soon
weinstein
##esville
running
study
##ped
energy
especially
propos
wind
##oming
jeff
sil
brit
##umb
bur
suff
danger
los
##istic
ord
ground
risk
thank
##aced
claimed
manag
gave
##ring
##iding
signific
charge
involved
accept
block
counc
ten
##uce
isis
moment
millions
conference
industry
chairman
oct
shar
##utes
whose
fake
chec
friends
tillerson
ah
##ught
break
council
potential
officers
pret
charlottesville
amend
environ
saw
focus
##irl
area
##ality
june
##uff
mer
self
##aph
received
started
##add
##ghan
vo
ira
##ife
article
cannot
##oti
respect
agenda
trad
leave
actions
shooting
fem
crime
incident
chem
amb
apr
##aper
lawmakers
expert
relationship
##itb
pal
rally
street
families
pract
environment
situation
##iec
iraq
supporters
fel
##ama
missile
rico
korean
tried
fell
##ented
heart
hate
tom
favor
##ron
##rew
##oval
##uty
worked
ball
bush
sold
county
hop
##though
crisis
corpor
##itbart
noted
afghan
front
appar
visit
##ipl
putin
thousands
april
couns
became
impr
##iple
july
although
september
due
consider
##ett
##isan
rules
senators
##uch
minister
pers
calls
var
expect
mana
breitbart
design
##read
##owd
significant
august
manafort
college
spent
fal
##ribut
ben
impact
girl
##ving
##yst
##ball
uk
controvers
##ends
flag
probably
income
toward
passed
ey
lo
commission
adviser
link
brought
drop
serious
vice
ang
medical
virginia
##ises
##ague
##idency
##arch
truth
##den
longer
increase
please
lower
mot
wing
include
george
surpr
syrian
##itting
prosecut
movement
counter
economy
communic
speaking
##ana
organization
emb
coup
##arter
shot
##gas
minor
exact
audience
cust
counsel
assist
published
difficult
rule
susp
coal
paid
cle
##encies
votes
whole
pan
behav
rate
##lev
natur
boy
afford
pence
peace
##uced
turned
batt
##fet
robert
##ival
prem
chemical
sources
lack
cat
presidency
fun
ign
##ization
cuts
##anned
third
##onst
repeated
jew
##ode
resident
##care
##ael
canc
unl
series
sense
currently
david
dream
negoti
##ental
cause
source
##ugg
nar
happen
anthem
leav
##aham
described
##ients
cy
##fore
mueller
comb
hor
assault
##roy
##haps
lou
cases
##ract
board
advoc
##bt
fair
naz
##rect
muslim
instit
debate
accused
god
common
cele
ul
las
##uring
release
amendment
tal
points
perhaps
approach
pick
allowed
port
taxes
##ruction
original
##aging
##yl
needed
##pir
victims
##uses
immediately
heard
demand
final
##olution
ways
vegas
total
necess
##ural
##iplom
knew
attention
decided
officer
sanctions
diplom
##que
destroy
##iles
amount
##undred
wasnt
pain
indic
light
higher
has
page
##self
##andal
false
hundred
##itted
german
temp
compet
hosp
mel
aut
obs
##wood
##he
steve
trip
##isions
reportedly
mike
mos
primary
safe
webs
popular
through
scient
ens
che
strateg
creat
refuge
##entially
documents
price
##oon
##aft
remain
super
conservatives
obv
town
ult
spoke
##row
mccain
photo
ask
require
michael
island
governor
piec
vers
##rod
##lin
##berg
certainly
lic
overs
appe
decades
weekend
connect
planned
##opri
willing
mexico
goes
supremac
##using
opposition
charges
##omm
shut
##au
##know
##sequ
defend
jr
establish
##gency
hearing
debt
opin
tv
##ask
father
norm
avo
individuals
signed
arab
##ength
mayor
nov
subs
##atory
union
dism
rob
problems
previously
building
confirmed
inside
issued
quickly
what
reb
##ania
appoint
flynn
body
ful
bomb
##ane
##arks
conflic
regime
appeared
king
wont
##oul
green
gold
education
##we
demonst
events
##where
##iod
dollars
firm
histor
increasing
walk
##yn
allies
concerns
collect
pressure
terms
vac
prevent
##urch
elections
included
phone
kus
mention
yes
wife
religious
hur
islamic
##rations
medicaid
natural
kushn
maybe
perform
##ona
didn
revealed
reporter
reality
##aud
cam
##ceed
other
january
employees
hack
##fer
period
##ibly
obamas
spic
living
disp
multiple
##lis
voted
##verage
condem
details
moore
##ino
changes
sound
ess
eight
gas
oh
fre
carry
##imately
crowd
abortion
##hen
graham
##ughter
cru
elected
costs
##ester
create
leading
word
attempt
church
harass
##ober
ken
giving
bey
##orts
region
massive
allegations
##eless
##co
areas
##arily
react
resign
ut
##kes
answer
eth
showed
sect
##fety
pet
society
##icted
nbc
science
rock
appears
separ
nav
safety
october
##ada
##ij
command
finally
##ift
roll
loss
behavior
##ler
stock
##ez
terrorism
victory
lob
paris
authorities
dangerous
prison
afghanistan
army
particularly
##amin
exactly
tro
healthcare
criticism
iv
helped
##iation
adding
tweets
##bor
flo
clos
phil
season
saud
sens
##rain
grand
terrorist
heav
mother
seven
online
programs
##dr
##hold
remember
document
custom
##eth
wide
ahead
inde
exch
bal
agencies
bit
sat
died
powerful
gets
##ench
sn
rh
forced
hands
##aces
previous
bir
pretty
capital
too
leak
sell
website
remains
ber
##ilities
particip
##acter
spicer
##ping
vol
protests
doct
prep
ability
encour
suggested
russians
parents
beyond
cross
subject
poor
agree
strike
assad
kushner
opportunity
draw
influence
##graph
##itness
choice
clearly
emergency
worth
veter
contract
spokesman
replace
experience
path
##illy
chance
whats
##iers
age
##ump
neigh
cur
fa
lawyer
explained
numbers
##ept
buy
##ript
##ris
minutes
esc
##ago
##oman
fighting
murder
##oper
stories
##iction
guy
publicly
editor
##ogn
rid
cities
guard
round
racist
huge
hundreds
cast
##ously
worse
ros
contribut
ive
telling
##bo
##ilt
central
strategy
pict
protesters
status
##lywood
tens
residents
##ici
sides
sar
##olute
##asons
##while
##inese
jones
biggest
##uing
uns
doz
princ
hus
caller
johnson
ded
prime
served
responded
supposed
asking
pul
chinese
remarks
##ires
cork
##aries
felt
flood
##rimin
damage
directly
recogn
##come
##ished
check
##racy
aust
wond
ok
continues
##rif
##oted
maint
british
goal
emails
offer
agreed
quite
warning
nomin
unf
associated
hollywood
takes
battle
##utions
discl
trust
tit
warned
##iance
ones
growing
road
##back
growth
capit
should
##mit
alab
pel
pra
considered
opportunities
leaving
apparently
strange
candidates
violent
offered
gone
surr
most
inn
correct
professor
##vert
fill
blood
##erve
commit
provided
absolute
tradition
wealth
##itten
lose
##reg
strugg
conditions
present
arrested
hav
proposal
statements
frank
##rom
##ancy
mac
os
disapp
protection
##ps
threats
elig
mist
oil
purp
labor
clintons
argued
clean
pack
##cast
schools
ties
kn
raised
film
conversation
believes
deport
upon
dom
capt
##down
hall
mal
radio
irma
experts
lang
views
##asc
culture
##pay
propert
americas
bern
sched
join
saudi
legislative
repeatedly
hous
posted
mad
records
alone
scandal
interests
feb
serve
wat
stated
##ki
##ude
sort
piece
cbs
##ination
##enced
unlike
standing
agents
hospital
seat
ach
##arian
search
authority
surv
denied
ran
november
after
european
track
governments
insist
changed
independent
##olf
results
era
##airs
mitch
##ery
coast
completely
ali
tou
park
jim
weve
critical
nom
phys
expand
##ham
corker
alt
benefits
##oring
site
field
raise
resist
voting
##oud
couple
knows
##light
resour
flight
played
tour
outr
defe
troops
speaker
fellow
publis
politicians
alabama
taxpay
##ushing
shock
##off
trou
subst
western
##stream
believed
##ological
proposed
licens
celebr
organizations
disaster
affordable
firing
interf
student
meant
##ador
lond
wal
langu
meanwhile
responsible
reasons
approval
grant
club
throughout
treatment
opinion
doesn
average
rap
relief
jack
introd
mand
league
obt
sometimes
technology
gar
ariz
establishment
hotel
pelos
eligible
kids
##ston
veh
cop
population
telev
##knowled
nomine
scr
concerned
acknowled
largest
crimes
summer
worst
##going
restrict
avoid
filed
minority
beg
internet
##rated
##band
career
ll
french
ready
subsid
##ha
##erc
imag
businesses
ivank
ham
sett
owners
defin
jap
achie
##nbc
london
funds
looks
conspir
corrupt
##enn
environmental
##artisan
seemed
tough
unp
development
character
##atever
parties
alex
##lets
rise
includes
amaz
deputy
witness
written
she
wear
##estic
carol
committed
lawsuit
lee
moving
caused
corporate
additional
christian
aid
whatever
schumer
earth
necessary
##ruary
figure
seeking
estim
##eland
fix
administrations
measure
february
##ground
angel
##fact
ho
harassment
communities
dismiss
appropri
playing
##ores
reporting
blame
accomp
padd
refused
if
impe
challenge
##mine
pelosi
##key
##aching
promised
##bur
cruz
named
version
purs
mainstream
color
brown
##iar
japan
by
operations
charged
confed
aggress
##ll
thinking
fully
space
shared
works
##rative
reached
daughter
rates
##ese
conflict
##emy
critics
joe
courts
##play
##hib
declared
oppon
##ause
pointed
##ych
recover
goog
##iling
faith
object
communications
##af
wil
parent
determin
language
plat
##ips
democracy
##enue
consequ
followed
dog
focused
analys
pun
except
sean
##bed
bab
largely
squ
armed
fraud
floor
discrimin
ine
sher
complain
ended
bul
lie
failure
gov
impeach
before
discover
premium
beginning
paddock
regular
killing
modern
ivanka
facts
conclud
values
##etor
liberals
meaning
regulations
various
note
bure
probe
##zz
eye
payments
aim
##aker
mater
backed
##agon
mart
##jected
door
wouldnt
scott
ultimately
resources
bip
spread
nat
lets
arent
strength
##arm
##prot
accounts
paper
##emb
une
announcement
mosc
##woman
ps
criticized
##ray
rene
wel
monu
matters
gather
franc
none
elimin
expressed
collusion
##ersey
regarding
deg
about
racial
##yle
##ingly
eventually
##essed
##omes
send
indeed
cia
association
drugs
putting
happy
credit
rout
suspect
fur
domin
rhetor
##joy
southern
easy
camer
parts
joint
save
capitol
od
sor
jersey
guns
wild
hyp
##wise
football
bid
der
ensure
ambass
rank
facing
##uters
benefit
joined
hell
##esh
consum
required
blue
dig
birth
abuse
existing
absolutely
highly
century
##fect
##lus
din
increased
hero
##ouse
talks
pod
louis
doubt
##ification
material
stage
allegedly
husband
##ai
bob
georg
##ror
television
cab
prec
##oken
memo
levels
appl
acting
confirm
attend
platform
champ
##per
publisher
partners
##ashed
##hs
ongoing
patri
homeland
reflect
promise
##uction
upd
stephen
voter
infr
brand
showing
##itz
##iana
##anch
award
lady
chic
responsibility
fans
moscow
bills
##agues
devast
via
transg
moved
produc
analysis
##iant
##ructure
standard
caught
##owing
terrorists
rog
ice
happens
shes
##ider
bbc
harm
winning
richard
##ws
##set
cub
racism
afr
exchange
pow
google
william
implement
activists
wake
pled
dan
gay
conspiracy
infrast
evening
##aling
##apped
domestic
cooper
aftern
catal
writing
fuel
fle
practice
##uled
controversial
perm
kept
##ters
ore
##iled
carolina
manu
##room
property
##lant
bipartisan
supported
paying
voice
specifically
mattis
licensing
pac
##han
##has
infrastructure
die
range
african
surve
##ung
compared
##rant
music
##rec
##urb
belief
##ront
afternoon
jer
ambassador
simple
france
clar
sem
commer
##owed
touch
arizona
my
female
##anda
##resp
rat
mcm
cancer
##time
##urred
##ny
considering
##ster
miles
institute
##ction
pushing
perfect
holding
manufact
threatened
adult
refugees
gors
frequ
cass
ruling
magaz
##licit
##rible
highest
featur
opposed
##protected
chuck
scar
purch
radical
helping
opio
deliver
operation
sud
transgender
pray
##iring
ka
##lying
##ounded
breaking
resc
amid
##ordin
declined
argument
ukrain
decade
soldiers
gorsuch
mission
launched
recomm
##lines
kur
pap
##aks
claiming
heres
towards
measures
affect
missiles
born
rhetoric
sad
looked
kick
seeing
hunt
patients
advert
dise
emailprotected
anim
investigators
##ipped
bott
jail
lawyers
limit
positive
receive
sheriff
decisions
log
reduce
psych
negative
beat
kenned
approved
learned
##iest
happening
confederate
meetings
py
supporting
traff
investigations
##kins
ads
complete
admitted
constitutional
##icles
sick
rough
table
##icial
increasingly
regist
honor
pent
chicago
panel
##ulation
roy
germany
bed
austral
obviously
##my
trial
##oving
chris
nine
spir
remind
##ky
autom
altern
actual
##iny
##draw
wood
declar
ceo
aware
treas
muslims
spend
##ford
bernie
bear
smith
##une
doss
dark
obst
##wide
quarter
##mb
guil
limited
mostly
withdraw
lines
moral
sought
potentially
##elves
normal
##otten
wonder
homes
supremacists
dnc
built
rub
haw
##ateg
##raft
msnbc
initi
systems
removed
successful
pushed
survey
qual
##roll
##oo
cas
delay
experi
princip
journalists
mount
##ifying
endors
flake
extra
constit
##onym
prepared
explain
lock
ideas
effective
liter
himself
golf
allowing
designed
learn
##olic
injured
spons
nature
dossier
december
weapon
colleagues
jewish
sarah
condition
management
hurt
affairs
divers
hat
mob
analyst
grad
cauc
coalition
##idy
frust
apart
oreilly
categ
familiar
sle
greater
controll
exerc
##antly
broke
disag
games
enjoy
promot
fast
aides
thinks
cell
match
studies
neighbor
faced
##ique
assert
pak
trib
keeping
abc
nazis
##ram
campus
apolog
targeted
gives
deliv
##ression
gender
consist
couldnt
##imum
##umn
georgia
newsp
##vin
becoming
options
##etic
consult
sports
difference
mig
##vement
scre
victim
briefing
atlant
starting
##alled
serving
identity
guilty
##och
##ledge
losing
bi
names
movie
diss
classified
scene
stra
discussion
##mar
max
##eling
##oses
ina
scientists
purpose
accus
examin
seriously
training
##ession
carried
epa
independence
kennedy
mach
##empt
hann
deaths
##that
##eline
vul
bay
closed
symp
code
cassidy
places
solution
##ota
fine
##more
##uster
shown
insurers
card
premiums
##to
unless
dropped
everybody
separate
conducted
possibility
waters
##ih
opened
wish
##elled
incred
planning
veterans
meth
annual
attacked
progressive
##lad
jos
assess
remove
ordered
rose
thanks
option
va
recip
chann
decide
politically
shortly
basis
type
##itude
station
enter
##ck
manager
##enty
houston
stopped
##riage
picture
promp
##oom
pentagon
drive
adop
activity
fat
pull
neo
scheduled
jong
truly
referring
##oun
bea
assemb
representative
applic
researchers
cath
acad
##ounding
##illion
cha
##lig
observ
had
replac
##ena
knowledge
compar
larger
overall
sun
##atter
##agan
nominee
discussed
canada
engine
##inet
controversy
assum
##ero
slow
embr
which
honest
nazi
fol
rare
tech
write
watching
##iate
##yang
yester
patr
##imony
propag
wait
jared
mont
##cl
thus
investment
caucus
value
otherwise
comprom
##egr
##ishing
##cript
##how
sitting
consequences
##onald
appearance
##emic
crack
display
representatives
rand
gang
eric
smart
evac
stuff
linked
boss
##men
rex
##ifa
founder
brother
drink
##gry
yesterday
revolution
brain
identified
deeply
ny
promises
revers
##nel
draft
arms
girls
surveill
wast
##ongyang
##mas
##aming
tempor
cash
adam
##anced
##alty
interv
##issions
grass
inaug
prepar
##fortun
palest
outlets
pyongyang
slam
##iced
investigating
effects
melania
jon
memor
stone
unfortun
opening
tact
mic
virt
##oral
vlad
##ban
date
rice
neither
spot
pakistan
entirely
dict
##alf
renew
aide
steps
numer
diplomatic
##amb
evil
loy
##ansas
affected
nato
mere
polls
##craft
shel
politico
model
initial
##reh
lay
providing
image
swe
relative
thom
scen
circum
agent
testimony
player
explos
proud
arabia
wik
signs
tells
numerous
##osure
angeles
sudden
talked
prove
weak
dinner
carl
activities
convention
hed
##asion
prosecutors
defeat
creating
##itory
advance
minute
funded
straight
few
##iber
##ulated
partisan
kid
mcmaster
reuters
positions
maria
##dog
span
volunt
##ension
anonym
deploy
have
ton
lobby
##ills
surprise
##idge
minist
reaction
mental
treasury
turkey
navy
##itation
urged
magazine
possibly
##ties
background
intended
extremely
##antage
interference
arch
standards
obvious
below
nobody
blast
sharing
rod
resolution
narrative
opioid
emot
cited
##ander
traditional
prices
hannity
integr
occurred
##imir
orders
sea
laugh
resol
murd
faces
##rate
##val
basic
totally
##aded
threatening
##gets
israeli
marriage
behalf
notes
ont
dram
imagine
cham
perman
outrage
hopes
promin
innoc
surveillance
wer
figures
vulner
sales
mn
##ther
##elling
disease
lies
direction
burn
aircraft
ii
proper
profile
parenthood
prohib
tower
vladimir
intel
##osing
guys
##ula
conversations
##neys
column
writes
antifa
stood
##ading
mary
tool
##ernick
sac
##gment
##ucky
macron
roughly
select
##iment
##enez
concluded
covered
streets
subsidies
allows
users
confront
##ba
predict
fasc
guest
##icide
##aur
airport
attempts
et
##rel
proceed
##arr
argue
degree
immigrant
##ansion
attempted
bor
dreamers
commitment
tor
brut
supremacist
theory
hasnt
##oked
worry
##mented
text
territory
confident
##ager
##epernick
andrew
##others
##izes
vacc
sam
wilson
theyve
##ica
corruption
complex
##ext
retire
vill
susan
generally
products
widely
sav
##illing
active
his
##lusion
ha
networks
##ios
##itarian
personally
##opoul
##soff
lind
markets
partner
judges
jump
customers
##field
suggests
discrimination
worried
books
proced
interested
##po
spl
photos
assistance
protections
stick
introduced
##iger
##iot
unclear
essentially
dut
strategist
electric
##nest
isn
##iciary
nancy
combat
arrived
##oles
##eled
double
##pped
stands
trillion
ital
##me
peoples
choose
powers
kar
owned
##astr
internal
penns
heavy
style
##coming
deadly
teach
eyes
ohio
##ado
ossoff
cabinet
vast
##arant
presence
acts
##enezuel
religion
outs
##gu
waiting
consumers
##ulate
soft
owner
rosen
kaepernick
citing
##ylv
estate
##ograph
venezuel
complic
usually
imposs
##oking
##oler
##acher
dozens
mnuch
##eck
eastern
angry
##igan
production
ratings
initially
##irt
motiv
##dling
driving
finding
##any
condemn
estimated
understanding
accur
##iscal
journalist
nomination
pennsylv
raising
returned
krem
brook
easily
teen
confidence
##ileaks
defic
male
##iated
##aire
##respond
lg
prefer
twice
listen
##azy
activist
resistance
campaigns
guid
parl
bringing
wars
##opoulos
gri
congressman
bloom
thomas
trail
highlight
somebody
taxpayers
turning
broadcast
guarant
occup
wikileaks
van
rein
doctors
du
plant
box
extreme
##bl
gain
comfort
secure
propaganda
##dom
suit
islands
##pet
train
indict
fan
mir
##whel
##astic
transition
##aves
eu
##yr
seats
appropriate
regardless
mentioned
core
##elle
lu
##selves
##ols
##andon
##atically
unlikely
reagan
mistake
method
alternative
placed
folks
escal
##fall
northern
protecting
very
pulled
countrys
boost
revenue
branch
tra
##pa
requires
##isco
correspond
changing
from
bag
dozen
literally
why
substant
impossible
struck
sanctuary
fest
##lements
columb
liberty
wearing
jews
lgbt
treated
cu
suc
russias
intent
ske
##onc
bureau
mail
impeachment
negotiations
determined
failing
##abil
broken
ending
judiciary
professional
nationalist
lobb
reading
intention
medicare
title
newspaper
##usal
cutting
ally
legit
posts
##ocumented
performance
obtained
lit
writer
rising
india
thoughts
mnuchin
deportation
overwhel
##ga
abandon
fundam
ted
opponents
wealthy
controlled
same
tick
##uate
advantage
tests
##house
pennsylvania
undocumented
##ca
marine
assembly
transport
iranian
where
requests
rain
disappoint
circumst
rom
##respect
usa
##ements
institutions
##rees
themselves
##eme
emphas
##uries
instance
proof
sending
immediate
aside
cultural
winds
insisted
weather
strategic
fif
##uration
passing
symb
continuing
struct
interesting
lean
##ox
shift
mock
fiscal
unn
##encing
guess
strongly
palestin
wasn
##icip
harv
teams
##well
challenges
##ining
##just
##stand
connection
physical
francisco
##iful
judicial
##sa
itself
##person
kremlin
##aver
doub
spokeswoman
canad
wisc
notice
##rating
fourth
engaged
trig
england
fort
scale
##ucker
citizen
comed
forg
appointed
spirit
bigger
##ounce
duty
uncon
parliam
##itely
dealing
appeal
ethics
gul
advocates
discovered
deals
lift
ram
##ecution
patriot
warming
##ields
delivered
##ems
ceiling
gut
investigate
size
rebu
attract
when
ath
vehicle
prosecutor
cyber
appeals
goals
reject
ast
fewer
feeling
referred
effectively
statue
committees
attorneys
assistant
martin
onto
quiet
acqu
michigan
magn
promote
basically
tend
employee
determine
scal
wiscons
##phone
epis
sust
returns
illegally
equal
infl
baby
##uana
##icul
trouble
beast
heads
section
cold
margin
##sen
##wr
song
inqu
bottom
kat
assass
rating
sov
restaur
own
parliament
##illed
feed
category
plane
runs
##acity
involving
lying
nice
##sey
turns
concert
commander
disrupt
restrictions
collins
convicted
##ano
disrespect
famous
terrible
generation
regional
closely
tank
lived
blog
##outs
circuit
##hr
revel
tensions
apply
##cho
monuments
##iders
##ara
ballistic
unable
pip
##arrass
##ze
oppose
aimed
prominent
profit
praised
advisers
##ensus
therefore
##ribution
##bon
construction
##ched
##lor
##iliation
provides
mix
troub
que
warren
departments
defended
recovery
districts
embarrass
rush
speed
closer
##ivals
##ijuana
cart
planet
established
pregn
expansion
removal
##uted
protected
moderate
bombs
fash
remained
priority
##een
afric
suggesting
##ding
refugee
sites
summit
zero
houses
termin
contrast
##unk
pard
##aska
##eration
shouldnt
feet
innocent
rape
##greg
becomes
ruled
tenness
produced
vulnerable
dollar
videos
##oves
fundra
feels
attacking
wisconsin
##place
##esp
aggressive
monitor
##eted
ger
wage
improve
plus
##burg
xi
##icious
koreas
targeting
hey
ukraine
##igned
##icated
attended
##endum
##ounds
unfortunately
bod
package
##anging
##apper
##za
missing
fashion
##do
bol
housing
##abor
noting
setting
##ya
##cle
havent
tear
blow
marijuana
##bel
beach
enemy
recommend
messages
easier
plain
hurricanes
punish
further
huck
##inger
expensive
managed
greatest
ped
##gypt
surrounding
spokesperson
referendum
somehow
permanent
quality
offering
farm
banks
##asters
interviews
womens
##uitt
meddling
blamed
hired
nix
##na
prospect
involvement
represents
##de
developed
mexican
suffering
##kel
demands
solid
rum
warrant
harris
surf
miam
##uther
arguing
britain
destruction
##head
##omo
actress
store
context
unt
rif
cohn
amazon
anthony
advice
fought
shop
unw
consc
lands
amnest
surprising
##uter
cow
gill
sleep
ye
fit
catholic
viewers
##onna
ash
constitu
pover
egypt
associates
jackson
defending
berke
suffered
##itors
pruitt
file
##mel
entertain
adults
poverty
ment
targets
bump
kent
##icient
spoken
older
##itutional
##elines
##ube
skin
ship
scientific
tox
destroyed
##apt
nev
personnel
miami
insult
##ucing
niger
pitch
receiving
##athy
acknowledged
huckab
inauguration
vet
division
##wards
minimum
harder
circumstances
stup
tele
originally
sector
worlds
chaos
upset
forget
pacific
channel
##la
oval
##kish
##oma
##da
cars
athlet
tennessee
##enses
centers
luther
##opol
corporations
rejected
images
leaked
strikes
gard
unus
produce
openly
echo
projects
nun
##anged
soviet
electoral
welcome
##aked
huckabee
ta
typically
accusations
civilians
nut
clin
dc
##rier
filled
english
slight
succeed
crazy
neighborhood
beaut
veteran
forth
commerc
amnesty
catch
##ole
spect
kurd
apprec
perpet
explains
##cing
dow
alliance
retired
desire
##thy
interp
directed
emerged
exposed
##ays
heavily
coach
haley
exercise
##isa
enact
length
suicide
##iser
uses
carter
wire
offensive
##lusive
taxpayer
africa
accident
remark
dismissed
stupid
surge
scrut
gotten
finance
maintain
beautiful
overwhelming
pair
spring
requested
anger
examiner
ministry
carrying
##ieb
healthy
sharp
##arters
##tion
connected
neighb
ric
scream
identify
doing
cruc
cert
##inary
selling
##com
informed
celeb
buzz
deny
silence
accepted
merc
spanish
spain
##road
outcome
frame
puts
task
hoping
##eas
##laim
historic
pardon
unique
routine
jury
oblig
##bing
sees
viet
##owski
ak
transpar
lew
explicit
##inct
unpre
##itable
embass
commercial
miller
borders
filib
arguments
essential
dub
##was
##anges
##ipping
comeys
river
##nam
##ocal
jur
overha
gall
##action
penins
berkeley
realize
aliens
chose
replied
youve
extent
supporter
anybody
suppl
apparent
##apse
##ported
deficit
deadline
relatively
manh
disg
driven
deliber
granted
##ogue
inspect
demanding
##eness
billions
espn
jul
conway
invited
fer
subsequ
surprised
rapid
##gers
window
dia
weigh
convinc
roger
manip
##rators
australia
ba
disgust
##acc
distract
aspect
##mans
bash
recru
moves
peninsula
priorities
camera
overhaul
attempting
temper
##anium
manch
##appr
principles
gulf
stun
grab
opposite
lobbying
ren
kevin
##bre
explan
##rants
vision
##emies
longtime
##iable
doctor
cable
##rial
carbon
ends
waste
##rich
outl
plenty
tonight
##ailed
##ounced
indicated
defer
square
contest
addressed
entered
lam
childhood
predecess
sorry
fresh
horrif
##point
concept
stream
hair
dod
reconc
uncertain
diversity
kh
##pread
instruct
##ihad
donors
percentage
favorite
fallen
fifth
traged
indian
cer
hy
##uits
shooter
traffic
questioned
##ucc
##pper
donations
grew
bond
whos
session
williams
asia
shif
temporary
memorial
pm
causing
toxic
##ule
##uous
cooperation
driver
chamber
bow
computer
backl
payer
frequently
reput
learning
confirmation
increases
compreh
engage
governors
neut
huff
isol
skept
stronger
##friend
achieve
deduct
recipients
suddenly
regulation
festival
sant
##ellers
doj
supports
ol
visited
oversight
##abilities
uranium
louisiana
earned
moments
entit
insp
conce
blas
politician
volunte
findings
##west
ross
werent
inquir
blocked
hatred
merely
##rist
supply
ridicul
complaint
##itals
sale
ideology
partys
overt
episode
importance
turkish
married
capable
##idespread
dar
chap
spar
consumer
violation
herit
stance
##icks
alongside
requirements
kimmel
drew
iow
joke
##ros
##cedented
bare
bloomberg
##gen
anch
capacity
kentucky
oce
##mark
enroll
giant
widespread
suspected
champion
unfair
executives
backing
overseas
leaks
##onia
walking
causes
##ex
beliefs
enemies
condemned
perspect
shutdown
unprecedented
di
headed
trem
likes
mandate
##agram
statues
##standing
##avery
##atar
walked
drag
narrow
##ivity
devastating
jihad
##post
hypoc
banned
definitely
rall
##apping
promoting
limits
handle
femin
shr
rosenstein
replacement
##bit
canadian
bost
fein
undermine
##east
anyway
organized
hab
accomplish
atlantic
##iev
heritage
murr
##ware
reveal
peter
fema
##onic
dial
serge
tweeting
equip
kas
reference
cops
ignored
kl
loved
##hol
knee
recognize
actor
handling
##omb
##uk
emissions
operating
iraqi
developing
transfer
##ius
encourage
utah
reforms
##rator
##rump
sentence
sounds
risks
nra
presented
breat
lav
##vant
knowing
instagram
##what
##uated
officially
native
prince
throw
cuomo
##acing
factor
mort
wid
##crib
opponent
##ume
##oes
picked
pictures
gates
explo
yout
offers
criminals
epid
manhatt
eld
footage
lunch
cerem
whe
##raid
lyn
alexander
staffers
##ala
watched
rick
##astroph
disturb
band
fusion
embassy
balance
knock
assessment
##appropri
indictment
christians
web
michelle
alien
interpret
discussions
catastroph
competition
conclusion
juan
bull
monument
experienced
bes
##eda
##anic
manufacturing
##athers
communist
neutral
belong
##oms
sole
devices
resigned
exam
mrs
machine
forms
struggle
filibuster
wave
represented
registered
boston
brian
practices
equipment
sensitive
##erves
citizenship
broader
kansas
prieb
##isive
##etts
##emen
greg
stars
##wart
abd
pock
tay
yell
ingr
smaller
tone
interior
barb
arpa
supremacy
wounded
incumb
depend
##ressed
##ouri
click
shame
compromise
##eph
founded
integrity
iowa
optim
ky
##istics
historical
coordin
regret
automatic
tight
bigot
dhs
collapse
nevada
younger
digital
yeah
gonna
testify
##mon
implic
refusing
legally
fundamental
keeps
cnns
purchase
recall
lif
anymore
incidents
analy
proven
manhattan
weight
pil
apple
##nic
affil
cuba
transform
medicine
##math
contrad
decline
loud
steel
priebus
amazing
qatar
todays
flights
answers
eliminate
sport
because
##arms
remaining
leaves
proposals
fault
erdog
nixon
tied
trend
bought
arpaio
##sea
afraid
screen
interviewed
scrutiny
jord
resort
courage
holds
update
leads
##endous
fears
topic
photograph
unusual
shout
producer
employment
contributed
mut
inappropri
##ighter
fant
##imp
lad
provoc
##ribute
gathered
venezuela
nunes
disgr
regulatory
podest
elsewhere
necessarily
mouth
charles
ridiculous
##rey
detect
flooding
ramp
crucial
dress
significantly
##hips
encount
privacy
jimmy
wouldn
aftermath
ranking
fighters
begins
##inas
palestinian
vietnam
coff
talib
discussing
assange
##ancing
missouri
papad
##ables
liby
peaceful
muellers
schol
describe
wages
swamp
violated
drawn
unit
reaching
polling
detailed
irs
employers
murray
valley
plants
youtube
##part
##xit
encouraged
nearby
massac
shap
tap
hospitals
stocks
phr
deleg
leaning
eat
anticip
unmas
regularly
initiative
chel
declaration
##aine
justices
vehicles
##sons
##win
deserve
refuse
facilities
articles
retirement
household
suspended
severe
contain
differences
##hal
manner
maryland
surger
##ches
connections
reputation
##oca
disagree
lynch
taliban
score
worker
##fire
youth
injuries
corps
intellect
##amucc
anywhere
ignore
ree
davis
firms
##ception
##gl
##ardo
grown
##cel
##uls
virtually
myst
aca
viewed
burea
disclosure
adds
luc
hacking
##with
reasonable
fulf
scenar
eg
handed
##agement
nationwide
pursue
##urning
##ashes
murph
hosts
champions
##abeth
##berts
undermin
provision
passage
covering
offices
pledge
obstruction
legacy
qa
variety
friendly
ble
scaramucc
hearings
pages
epidemic
##ictions
brexit
subpo
advocate
cup
approve
urging
opinions
protesting
joseph
explanation
height
praise
usual
##iffs
complaints
harvard
unconst
commissioner
advertising
backlash
eliz
contacts
exempt
##vere
reconciliation
ri
alert
helps
tragedy
lots
tack
tun
struggling
recorded
dall
comprehensive
##etz
chain
##actions
solar
industrial
divided
populist
patrol
cook
##feed
advisor
complicated
vital
baseball
breach
##iveness
signing
serves
accurate
lindsey
subm
##angers
##mploy
silent
commerce
visa
##prof
corn
gps
rig
billionaire
begun
emotional
truck
balt
##rid
##okes
finds
slavery
grants
abb
newly
bias
jason
complained
preced
estimates
blind
sexually
function
boys
perspective
headlines
##usted
facility
gap
rural
testing
prompted
restaurant
zone
##pping
preparing
imper
entry
ideological
bodies
loyal
naft
spy
abroad
advocacy
##lyn
crew
##endez
kinds
teacher
fires
items
##opher
reck
tactics
alive
investors
##achus
location
##gar
##rates
##atures
beij
assets
device
##osen
innov
agr
stret
craft
anx
infam
guardian
pointing
chelsea
unity
voices
excuse
cheap
reduced
addiction
hitler
rescue
gork
obtain
elizabeth
editorial
expanded
dallas
notion
intervention
feinstein
upcoming
elite
entering
##elfare
associate
grounds
unemploy
reduction
damaging
##kin
impl
approx
witnesses
jordan
##achusetts
hide
zin
##imb
leftist
mun
unknow
challenging
##ilit
deferred
welfare
heat
stress
speaks
ax
responding
were
##ilege
jes
##inois
##uations
combined
##rum
featured
hamp
nd
advanced
adjust
intense
transl
visiting
##eing
privilege
muse
warm
corner
provisions
joining
seemingly
quot
hoped
incredible
massachusetts
rebuild
forec
incredibly
dun
dick
mul
calc
anonymous
lago
##icop
enorm
representing
ark
illinois
alco
sin
resulted
traffick
relevant
##van
grassley
creation
supplies
pund
imposed
buildings
buck
##attle
cbo
##ette
ic
threaten
hardly
located
legitimate
tort
##leges
pressed
formal
types
assassination
neil
alaska
laid
##acle
consensus
admit
spin
letters
bombing
ron
soros
fab
wins
firearms
solutions
extraordin
misc
alter
advers
ga
precise
animals
toler
##ashing
buying
papadopoulos
nafta
glass
qaeda
punch
plot
burden
diplomats
kurdish
quoted
listed
dump
reducing
gi
##gent
##uded
intr
counties
license
cool
##eping
writ
zinke
##otic
griff
hostile
blasio
##lers
anc
crow
consistent
spr
outlet
persons
bell
vowed
shots
hosted
predicted
links
unconstitutional
while
midter
murphy
gathering
humans
reads
minds
readers
cry
followers
understood
abort
headqu
resolve
flow
frankly
inappropriate
bound
sight
somewhat
starts
appointment
colorado
fred
retal
catalan
dyn
nationalists
dispute
ronald
##ev
hire
colin
amounts
captured
existence
nu
hint
communication
##xp
overd
occasion
flying
podesta
massacre
bath
##repr
asks
actors
steven
erdogan
nominees
dish
impose
pool
kil
segment
departure
accountable
na
sovere
matthe
sinc
goods
yates
##under
ballot
eager
customs
dramatic
constituents
arsen
correspondent
philipp
japanese
disturbing
repealing
constant
collection
map
enth
signal
resignation
investigative
bigotry
##odes
##lection
construct
solve
successfully
gary
beijing
##aya
penalty
snow
kingdom
anchor
approximately
##har
dedicated
shape
incomp
dems
inev
analysts
##gate
swing
portray
titled
marc
##manuel
ought
forum
##erved
rival
##steins
desperate
scaramucci
fate
profits
pieces
carlson
hisp
shocking
columnist
row
##rov
persu
entertainment
bridge
proved
arrivals
sacrif
##stone
nas
dean
uss
suffer
aren
##ocaust
incent
finish
ignor
##lo
troll
fields
master
vig
##boy
urban
ethnic
ly
slightly
rallies
doors
ec
checks
##kk
sixth
##sc
missed
files
holocaust
museum
##pe
replaced
satis
questioning
print
pulling
split
convinced
khan
element
##ua
##erald
cycle
contributions
wis
announcing
equality
tremendous
ceremony
reveals
slammed
##ophob
everywhere
##ateral
violations
participate
enforce
cens
nick
brutal
hatch
##roc
eval
stepped
menendez
papers
arrests
custody
brings
##ails
pharm
announce
intim
follows
shad
roberts
##anne
inher
##urd
sab
relationships
jesus
##ifer
institution
factors
holiday
##mates
unif
brothers
boyc
athletes
##ulating
npr
races
stability
profession
breaks
route
elements
patient
motivated
survive
plays
atm
falling
catalonia
addressing
deem
buzzfeed
##ta
occas
forcing
theyll
filing
reass
similarly
fier
##encer
##hel
##ament
todd
soldier
load
improv
extended
moder
sons
samp
drivers
casual
agricult
exit
weekly
harsh
endorsed
underc
indiana
##tin
okay
stake
injury
error
gunman
contacted
hiring
mas
stamp
server
pattern
examples
definition
joy
##tt
##wor
user
tas
funny
swift
stayed
neighbors
##enders
earning
electricity
alcohol
laur
argues
universal
denial
ring
ocean
citys
primarily
demanded
##opular
pipeline
surgery
distance
hits
rubio
inspired
nonprof
competitive
mine
##apol
devos
explaining
jets
tout
winner
agreements
columbia
gillesp
sid
##otted
rolling
pledged
##gs
christopher
##eds
##news
heading
quote
merkel
drinking
##pro
speculation
delet
returning
guarantee
iron
chances
stating
diagn
dak
##ifies
maine
hitting
thed
headquarters
##erning
chosen
illness
jac
##adium
bail
##ributed
petition
currency
misle
unknown
theories
surviv
biz
cohen
promising
enthus
sir
fairly
##oen
generals
escape
fool
rational
describing
yemen
conflicts
inquiry
##athan
divide
hawai
forever
##lessly
baltim
hid
uniform
perce
storms
bat
youll
##ahu
dogs
empower
tested
stol
##arre
recalled
counts
##angel
shocked
pope
ze
embrace
bashar
bureauc
##oz
kneeling
unpopular
your
electron
podcast
sued
lawsuits
pin
unve
##ship
motion
tape
whites
##onduct
boast
headline
##vent
civilian
sympath
humanity
fathers
lord
authorized
schedule
concent
empty
switch
flaw
trick
investigated
asian
jet
shootings
yan
criticizing
handful
actively
typical
prepare
##umption
gained
##char
stadium
utter
seconds
##car
seeks
thor
libya
##asty
purposes
pure
credibility
##rett
updated
permission
removing
finished
declare
murdered
atmosp
##ologist
cuban
juris
poison
dictator
infamous
gains
##ultz
humanitarian
staffer
horrible
bannons
striking
loyalty
fled
fees
choices
##iat
barely
strict
exchanges
elev
rocket
philos
intellectual
contained
excess
haven
christie
odds
guidance
calm
discour
teachers
terrif
journalism
biden
##water
nons
donor
disclose
enormous
arsenal
silver
##iences
pace
moreover
concerning
prescript
gorka
strip
describes
rely
shall
opposing
brag
listening
skills
badly
sponsored
our
moon
once
warner
symbol
perez
compliance
baltimore
##icing
universities
militants
##trump
##acked
clients
##ratic
demonstrate
celebrate
migrants
publication
contrary
fundraising
dad
ox
advertis
shelter
porn
portion
collabor
participants
disappear
josh
letting
##ils
acknowledge
##ae
##ques
dialogue
##mo
assume
framework
##cher
barcel
staying
soul
tob
math
accusing
settlement
##abled
incor
dying
upper
perry
intens
deployed
frustration
substantial
hook
absurd
mech
##lah
properly
colon
deduction
animal
##ef
##stri
##iro
##engers
hasn
disappointed
lev
legislature
jerry
bold
flex
entitled
montana
attach
odd
rifle
scheme
gal
busy
exists
guam
atlanta
intimid
hud
marsh
helicop
client
stations
frustrated
##oster
bald
colbert
##xual
##riers
scenario
challenged
hopefully
stab
acted
retail
lowest
rav
tomor
academy
centre
features
batter
marked
disgusting
desk
elder
coinc
gross
economics
accountability
##alia
schultz
supposedly
##unction
charity
##reported
affir
collaps
consideration
etc
administrator
restore
barcelona
being
schiff
indicate
prosper
phrase
mans
phoen
ell
applied
toll
extensive
dakota
##force
colleges
extremist
films
##igation
##fare
cameras
grid
surely
feature
tools
both
ford
heather
feelings
wheel
kir
##eman
runoff
phoenix
socialist
historically
justify
ships
influential
oreg
transparency
hackers
scenes
stee
##thr
tea
edge
oklah
saving
constantly
exclusive
sister
annivers
disord
lisa
##inform
braz
transcript
throwing
extraordinary
marks
##isted
hung
harry
dramatically
dign
demonstrated
counterpart
##put
##accept
cruel
minnes
testified
sandy
negotiate
##rick
##ares
inspir
operate
##ilateral
italian
bizarre
clip
permit
taylor
conducting
models
latter
comfortable
cul
reserve
##assion
consistently
duke
transportation
##ran
planes
viral
zucker
##ello
finger
endorsement
om
alar
consent
companys
italy
##inson
netany
horror
australian
congr
borrow
misconduct
##itical
raises
valid
answered
vent
saved
materials
expanding
anniversary
equival
tired
##print
colleague
irans
closing
amp
stan
##orate
regions
memory
blacks
thrown
anton
circle
decre
threw
##load
charlie
structure
substance
explicitly
hawaii
jurisd
ward
##amm
chart
patriots
trigger
nationalism
shares
rescind
defined
laund
mccar
##irty
convince
disappr
plaint
##state
##acon
##bery
stuck
blaming
gh
forb
movies
lake
mph
trop
passengers
airlines
unaccept
bon
manage
signature
realized
oregon
bin
expression
focusing
lied
attending
carefully
damaged
comparison
requiring
burning
trips
frequent
##enger
flat
passion
suspects
##war
couldn
aclu
steele
##mont
privately
tenure
encouraging
fish
##gt
tries
tomorrow
declaring
garden
gillespie
adopted
script
sky
awards
drove
guide
prosecution
dynam
eating
unite
pregnant
manchester
extend
apology
##mond
swed
requirement
vacation
hen
speeches
mcd
partnership
guidelines
shed
been
industries
contributor
chant
##otyp
infect
unmasking
ailes
jen
occur
principle
##laimed
nurs
##ington
equally
jun
province
mechan
##away
flu
unacceptable
incumbent
girlfriend
kkk
mog
minorities
carib
nsa
bench
tie
offense
conviction
illust
progressives
only
negotiating
##vaney
nik
losses
##uine
##ologies
apologize
cler
warri
prayer
##ker
uncertainty
promoted
mulvaney
dear
spencer
collective
celebrity
sue
##bean
bunch
##kowski
detention
apartment
rarely
summ
bent
##ested
coul
widow
traveled
griffin
rail
drama
##vernight
founding
additionally
visitors
sets
##reach
chinas
noticed
##achel
myth
tiny
advised
advisory
brad
gate
landfall
traum
caution
vox
procedures
deemed
oklahoma
brady
presum
reverse
lgbtq
revelations
oath
entities
judgment
stunning
unemployment
jam
perfectly
manufactur
arkansas
posed
grave
##ibilities
responses
motor
diplomacy
##cy
golden
ale
heller
wy
##omfort
##rupted
traveling
drawing
##onom
##ird
pleas
philosoph
diet
preserve
careful
latin
superv
cards
witch
trag
unr
killer
academic
reckless
minnesota
payment
brooks
reven
threatens
kicked
these
intercept
##umm
completed
permits
##ym
root
theyd
unions
empire
nonprofit
##dy
##mail
vaccine
teaching
lesson
singer
##mann
recognized
ultimate
implemented
leverage
exception
##areness
providers
retwe
nominated
properties
ukrainian
abortions
fury
##shire
mixed
##urity
employed
anonymity
##isation
##adel
earn
pocket
disasters
crash
recess
semi
caribbean
accompan
polar
authors
reviewed
##ennial
##itan
fails
stopping
sympt
jay
##ugs
lavrov
penal
divisive
misleading
seattle
minim
fu
reilly
comply
ticket
jess
kiss
charter
scope
reluct
somewhere
governing
guests
donated
##rete
##azi
awareness
babies
downt
boycott
##enom
genuine
defence
plea
earthqu
irre
seized
appearing
descript
maximum
rab
flags
satisf
##omet
notor
unpr
sparked
methods
pour
smoke
falls
predecessor
bright
scalise
writers
gab
vocal
##liest
worldwide
maintained
##eded
##icken
settled
mobile
##rence
##born
detained
physic
wonderful
##ede
glad
forecast
##ani
overl
evangel
hay
alarm
exclud
mccarthy
palm
zion
##tons
conscious
royal
comedy
horrific
pleaded
lawmaker
wiret
shirt
engagement
locked
employer
uncover
attitude
scot
##oe
statistics
deported
quarterback
notably
pending
enh
globe
ignoring
##rina
##aze
clot
org
export
huffpost
##asy
whist
congrat
gear
ori
santa
contribute
refusal
enterpr
blasted
passes
netanyahu
syri
disclosed
##bis
rounds
pride
inequ
carrier
divor
##board
application
jacob
subsequent
##jud
avenue
visas
wass
criticize
understands
collected
mandatory
daniel
fuck
ker
experiences
stolen
##ressive
smear
useful
chiefs
replacing
respondents
sustain
rapidly
thorough
yah
shield
sentenced
##anim
##uts
invitation
copy
indication
appreciate
##oots
surface
quit
feud
temporarily
##rens
##opard
outc
trading
##theless
rumors
ire
##gher
depression
speakers
multi
##xpected
paint
trafficking
nonsense
nevertheless
strongest
savings
catastrophic
dian
invasion
expectations
overnight
exceed
chaff
theor
detain
dismant
achievement
mall
secrets
publish
suspic
combination
tony
stores
explosive
stabil
##auth
coop
cos
prol
##andering
##ipe
##ogen
stressed
unders
weinsteins
curt
##icon
leaking
jerusal
denying
stor
registration
fabric
conventional
mississ
francis
slog
obsc
katrina
##aware
exposure
handel
reelection
aspects
hypocris
walls
contracts
novel
hispanic
alb
flew
procedure
##str
romney
occasions
ug
liked
roads
sustained
precisely
mississipp
madd
mothers
##orse
stem
##itsk
suggestion
##andalay
##from
expense
##te
##uctive
##mad
artist
##ola
thousand
commentary
gian
ku
lect
barr
loan
ride
lifet
estimate
credits
warnings
enrollment
foss
jin
##isting
visits
hers
##isons
willingness
troubling
remarkable
stretch
##eding
documentary
unexpected
##eln
mead
string
dirty
vermont
qualified
salv
random
riot
##leans
pomp
formally
trigg
mandalay
##fr
##agg
extremists
software
##eo
formed
##aved
tucker
timing
##author
##ushed
defeated
coulter
hypocrisy
timeline
##comm
##ographic
##ka
##andals
jerusalem
sponsors
gray
spray
premier
destroying
pitt
discred
cot
ves
wash
dominated
philippines
renewed
sgt
compassion
helm
naval
chaffetz
wanting
nich
prize
ry
orleans
economist
duties
##pers
generations
diverse
applications
##nett
thin
unle
##apy
belt
extremism
sufficient
outright
##his
hoax
slowly
bang
concrete
fatal
columbus
kis
##gun
trained
confusion
preventing
disgrace
absence
briefed
deleted
ordinary
contradict
inner
phase
kneel
pursuing
lux
dirt
lt
linc
brave
nic
exhib
gerry
##jo
southeast
homeless
farmers
tropical
ranging
##ika
towns
pig
roles
ais
##inn
heroin
zuckerberg
##elnitsk
##dem
paral
airstri
primaries
kellyanne
unnecess
movements
evacuation
fortun
violate
organizers
weiner
punishment
coffee
felony
jour
##ifax
elites
violating
objective
opens
investments
install
excited
accepting
allen
addresses
steph
midterm
jenn
contemp
edition
foods
aggression
perceived
faster
##ita
satell
participation
gent
mile
launching
condemning
##rors
nowhere
its
flash
lincol
##ifications
##roit
capabilities
##ras
register
explosion
fossil
pose
possession
scholars
##izz
quietly
##ini
##ali
hidden
abandoned
assured
soph
surrounded
ownership
##dp
monitoring
insider
submitted
cloth
bankrupt
celebrities
##ooked
awr
personality
##izer
mississippi
hacked
observed
taught
##rob
compens
blank
jeopard
shake
technical
unnamed
##uable
blunt
anderson
engaging
creates
subpoena
fcc
##inated
bathroom
##iti
accel
seth
documented
bother
##awn
editors
sheriffs
approached
lor
##borough
##itzer
dishon
bio
remote
insight
##enever
scientist
struggled
village
mood
watchdog
outrageous
dimin
labour
deeper
routinely
loves
operatives
denies
label
hash
reiter
implications
rant
reward
##aste
hang
turnout
artific
yorker
resulting
tab
admits
jefferson
oversee
fascist
brok
twenty
waiver
businessman
contempt
urge
expressing
hadnt
sweeping
veselnitsk
hiding
karen
ven
##omed
cease
reince
##uro
bars
territor
mobil
hun
arbit
pollution
meaningful
jumped
lap
phenom
##inge
reviews
dissent
##sters
evident
equifax
delayed
rt
workplace
acceptable
tougher
beating
##iating
banning
fighter
pill
reh
##utical
breast
recording
asserted
refuses
judy
clim
authorization
atmosphere
topics
##but
##oration
##itious
betray
dispatch
suburb
prayers
##zb
##eting
wasserman
##tr
administrative
brutality
normally
bri
kos
cannab
mistakes
apologized
kisly
dumb
importantly
##lands
posting
justin
extension
electronic
snap
eliminating
devastation
detroit
such
whenever
aired
destruct
spectrum
fights
sentiment
lifetime
les
##acies
##osis
excell
revolutionary
handled
cells
migration
jinping
luck
##thur
purchased
lewis
meadows
tip
tamp
##poken
##iments
platforms
besides
##aving
denounced
celebrated
spotlight
precedent
hij
##ollah
adopt
nap
##ecurity
orange
inspector
##abe
##olved
strengthen
##active
phones
slave
uncomfort
creative
dutert
az
deserves
brooklyn
##acks
unanim
congresswoman
dropping
dispar
locations
halt
ging
##ket
soil
revelation
easter
parade
degrees
##acking
##osexual
jane
bears
revealing
performed
evangelical
thomp
goldman
##udes
conven
inflation
wise
clock
expenses
mountain
gerrym
reid
unre
kasich
##far
##qq
##inity
emmanuel
manning
programme
legislators
units
nights
cruise
fet
hind
##hi
ade
websites
unfold
kislyak
##aul
arrang
cooperate
##acters
rogue
vs
involves
hole
furious
kob
tall
##ovich
characters
prevention
forgotten
putins
witnessed
shadow
libr
expose
##ours
responders
##information
##wing
popularity
churches
tragic
icon
blocking
hampshire
prescription
aar
##bal
briefly
connectic
burr
scored
liberties
skeptical
anxiety
##adelph
##illa
stops
applaud
gingrich
aisle
forest
involve
hammer
helpful
reminder
##ierre
crackdown
##iors
scandals
madrid
bullet
survivors
cnbc
versus
withdrawal
patrick
quo
##urring
barg
##elt
##ateful
situations
enacted
##rust
##orted
clause
weird
appearances
destabil
mys
##igue
possess
classic
breath
sink
##roots
contains
scared
genoc
owns
hearts
sic
closest
##lined
warfare
credible
##unity
##rine
##ilton
nationals
applause
mit
pregnancy
incompet
km
awa
cs
##eed
acost
zeal
baker
colluded
marketing
philadelph
##fight
shell
canceled
##achs
controls
##ughters
reneg
##ls
prevented
veselnitskaya
ray
##aped
metr
gest
reliable
windows
mentally
naturally
squad
jonathan
inacc
arts
above
chemicals
recognition
embarrassing
dispr
obstruct
screaming
##ko
##inal
##aceutical
##ylum
tension
##iciency
sweet
cd
covers
koreans
reprod
giants
professionals
##bb
vaccines
partly
flip
educated
walker
##aring
##quate
parks
stable
##istent
asylum
diego
wolf
##tle
chanc
inequality
##amation
prox
defensive
northam
consulting
rent
vit
treating
##opolitan
arrival
spreading
uncomfortable
kle
momentum
myself
lincoln
tehr
leftists
wedding
plaintiffs
bart
##fast
buff
smugg
murkowski
##etheless
gianfort
dur
warns
mainly
banking
expects
veto
sunn
nonetheless
minded
crossed
gig
inflic
nasty
##hand
##sth
species
description
##anny
profound
awful
##ommod
reminded
comedian
##oft
hopeful
directors
theater
recommended
sadly
initiatives
delivering
logic
pharmaceutical
howard
compete
whistle
connecticut
ahca
##ded
##minent
pleased
julian
campaigned
theat
ecl
chip
##ocol
accommod
marco
lengthy
nikki
clapper
cotton
##etta
haz
apos
commented
##hell
legend
theresa
treaty
warn
##contin
waivers
determination
jose
roof
authoritarian
downtown
cher
thirds
loose
boom
deliberately
hhs
##umber
backs
nasa
differently
ranks
isolated
yahoo
pic
releasing
gift
elabor
confidential
bub
gaz
insisting
destructive
##aus
unh
survival
admir
injust
panic
loans
watson
dol
##child
drone
affair
elderly
##rition
inh
abbott
sends
compon
daughters
improper
greatly
pump
victor
holy
devastated
scarborough
cord
favorable
improved
manif
producing
revol
valuable
iphone
##arc
subsequently
cb
raw
millennial
keys
sabot
chancell
##uating
##bod
roose
ensuring
enjoyed
habit
##fires
##oned
##isans
libert
rolled
##inter
racists
dry
##arity
entity
stein
recruit
fulfill
presumably
mining
keith
jokes
scores
dressed
uphold
modest
##bridge
agriculture
tol
##ication
equivalent
charging
honestly
cannabis
condemnation
encounter
aims
fla
wrongdo
graduate
roosevel
bind
grade
depending
lobbyists
redist
illegals
featuring
maxine
philadelphia
signaled
bases
ele
accomplished
cloud
fierce
gif
memos
factory
ideal
##aires
airline
activism
##yster
lone
stark
audio
chambers
bible
conver
youd
preferred
symptoms
silicon
##icate
heels
echoed
sadd
revised
optimistic
##reprene
brill
picking
##burgh
stephens
##rie
##owitz
##ighth
principal
##emon
pressing
debates
renegoti
dictators
##cr
##cs
imports
altogether
entreprene
unrel
doubled
##apolis
laundering
unlaw
prosperity
boat
##ruff
neck
piv
disastr
issuing
emphasized
clinic
inevitable
phenomen
choosing
marginal
blat
journey
##ella
pref
ups
dna
nerv
##asse
pays
unnecessary
##iary
##ses
##orous
##ila
##ghazi
cares
feared
##owars
assumed
bans
grace
abus
anne
conclus
awan
dim
jf
divisions
labeled
leon
enr
tenn
inaccur
captain
highlighted
camps
theft
broadly
demonstrators
proceedings
retaliation
##col
##atism
pron
impression
hills
##ikes
emerging
implementation
earthquake
dies
meat
thompson
##uten
##erving
grassroots
dignity
respected
facilit
celebrating
bitter
##acept
conscience
landsc
roots
smoking
##after
embraced
iii
acosta
fbis
interfere
classes
insane
contracept
experiment
benghazi
heroes
confronted
yanke
customer
##hd
chapter
sacrifice
##rin
##zy
disorder
chancellor
confused
falsely
desert
vague
coastal
outspoken
achieved
birthday
patriotic
##alling
exports
supportive
pilot
innovation
##inth
thes
insists
passenger
assaulted
avoided
moderates
##itism
talent
indicates
##respons
gops
instances
mcg
matthew
##ito
ers
feminist
sergey
ancient
enterprise
##avor
relatives
economists
managing
##tha
##ulations
##abet
orch
synd
underway
corporation
recommendations
looph
demonstrations
clubs
theme
considers
queen
duterte
tent
##fish
projected
prisoners
recount
clearance
awarded
moron
##bie
repair
fleet
manaforts
litigation
##burn
aligned
##oded
woodruff
flexibility
toss
##apers
donate
chronic
rooms
##owdy
cybers
rebel
deductions
torture
##osition
bombshell
wrongdoing
gdp
guards
mainland
lobbyist
helicopter
pompeo
##igate
couples
artificial
##ari
stal
undert
technologies
blocks
nba
drain
rohing
desper
marketplace
clevel
pursuit
mocked
htt
toy
##ignt
countless
burned
disastrous
kate
rou
zones
##anna
torn
##ultane
syn
societ
briefings
overwhelmingly
formerly
tactic
touted
ease
hyster
sorts
collar
salt
laughing
outlined
##lymp
##ucks
researcher
watergate
salary
benj
suspicious
##gus
safer
atroc
failures
christmas
desperately
barrel
impacts
unsu
lifted
laura
tapper
distinct
workforce
highway
simultane
shit
weaken
predecessors
overturn
cock
unins
infowars
visible
##held
olymp
##ioned
clashes
angela
cowboy
defendants
oscar
unveiled
ours
capability
stephan
baldwin
aaron
grateful
repeat
capture
publishing
##comed
ugly
dating
developments
rushed
henry
spotted
whit
campuses
downplay
anticipated
lucky
##amer
dealt
tears
##ihood
hezb
overcome
item
engineering
osw
inmates
resur
delivery
tag
indicted
producers
##baugh
raqq
trusted
harmful
fis
kr
trude
##iece
channels
tehran
##bec
irr
hosting
intentions
##makers
brid
caps
aggressively
solely
epic
superior
compromised
mechanism
hezbollah
aged
decent
commentator
sponsor
##ignty
rachel
stead
basket
##agn
##who
##holders
physically
klan
robust
fueled
rifles
cleveland
bets
##gage
##ords
phill
kurds
sovereignty
benjamin
arrive
obligation
vess
##like
depr
retreat
##ography
census
sne
offset
depth
islamist
welcomed
affiliated
childrens
rebels
adams
##ams
manufacturers
dishonest
##lete
motive
manifest
##mare
raid
winter
maintaining
##can
##grap
furthermore
tackle
##dled
##iac
reviewing
reflects
lomb
tum
brenn
fee
wallace
devoted
gianforte
hass
notable
amy
populations
##mate
##orated
wore
discip
humil
financing
participating
clarke
bn
rage
advances
observers
##cribe
nyt
##ailing
depends
defect
universe
amendments
autonom
legitim
crowds
fence
candidacy
thread
seoul
deciding
designated
##inction
northeast
roman
contamin
urgent
productive
vat
residence
##etically
unse
underground
palace
discovery
ww
exha
##unct
##ouses
nightmare
admission
maduro
endorse
homosexual
mud
pitts
genocide
coc
##isp
plastic
underlying
opioids
volunteers
reiterated
oswald
##kward
hub
##itated
inability
membership
liver
##lock
truc
agencys
aspir
grav
carson
sla
awkward
##ulent
intends
withhold
facult
operative
demonstration
qualify
##attered
saint
##agers
sits
##rell
greenhouse
shouldn
settle
bullets
chase
dealings
hypocr
brazil
roosevelt
lists
graph
ages
trees
trumpcare
orth
abrupt
##ogyn
bless
disagreement
households
rohingya
battles
warriors
jean
enl
##rats
neighborhoods
sequ
selected
lapt
##erated
datab
tyr
maddow
dangers
##think
brow
##which
honored
rodr
solidarity
vin
##va
treason
ineff
attached
jfk
lessons
landed
cancel
attendees
recommendation
sugar
nervous
diplomat
assertion
fergus
conclusions
uber
##ho
signals
banner
tapes
##itudes
##ahl
##ambling
tree
those
improving
herald
##face
wright
studio
priorit
ingraham
##will
partially
crossing
pundit
statute
organizing
searching
cornyn
petty
flooded
tracking
##mun
potus
enthusi
cather
##umes
imminent
relent
latino
##archy
casino
brilliant
stepping
identities
austin
tracks
instru
packed
celebration
volunteer
exped
agrees
firearm
fundament
clark
dreams
casualties
sway
execution
funct
campos
norms
wildfires
mogul
pact
bron
organic
misogyn
negotiated
shrink
racially
palestinians
troubled
gm
sevent
concealed
uncovered
suppress
luxury
orchest
hanging
alike
subjects
clothes
bruce
lifest
excellent
##leys
##irts
offsh
dece
hod
##igar
costly
hateful
touched
##tag
##ibles
freely
disputed
contractors
praising
escalation
aer
berg
divorce
##limin
##oning
invent
curry
mutual
abuses
##ingu
resett
shifted
myster
fda
asset
##onies
stir
grim
thanked
sacred
dubbed
##udge
sham
bro
pretend
penalties
mah
##anes
practical
newspapers
scalia
wine
beacon
prompt
bog
famously
wondering
introduce
gowdy
##fs
perception
justified
distribution
protects
raped
hip
##night
##wa
stunt
##ipse
undo
consultant
stewart
ethical
slaughter
wound
##agger
disabled
interactions
patriotism
advertisers
philosophy
herself
holder
emotion
emphasis
sachs
compare
##uctions
doug
restaurants
brennan
tri
irrespons
militant
##ologists
incorrect
kobach
intoler
dust
survived
tribune
##odox
slaves
affirm
##ales
whip
steady
midst
magazines
waves
##ayed
screw
trudeau
loving
neur
nonp
generated
micros
triggered
myan
glor
moham
rolls
regimes
nutrition
hiv
##antic
##umin
msnbcs
cra
surfaced
uninsured
##step
grie
fright
generous
horse
bot
admitting
beaten
faculty
jake
cleared
memoir
barriers
educational
palin
utility
archit
undermining
yourself
skilled
unfortunate
temperatures
lawrence
believing
strategies
performing
peters
pounds
sail
pew
computers
mayors
proves
committing
neutrality
pundits
##acious
quant
existed
##vi
competing
hamilton
fleeing
woods
biological
##front
suns
bombers
ambitious
mosul
loaded
sed
favour
ambitions
guaranteed
##grapher
stakes
hunting
intentionally
eclipse
pittsburgh
architect
##ums
knife
sharply
nur
ruth
##ads
feds
indef
outraged
hashtag
prelimin
missions
weakness
shopping
bust
##ensions
abused
larry
##regard
accompanied
disprop
sided
alleges
jeffrey
index
##backs
ferguson
wider
rewr
##ensible
##ahaw
limbaugh
dismissal
misd
buried
heyer
collapsed
##life
##fund
cole
decides
exclus
kellys
alarming
worship
campaigning
panels
curb
krist
##agr
##orship
abol
secretly
sworn
bennett
psychiat
sophistic
lin
define
annually
injustice
vatican
aver
fame
yield
crown
outbre
afp
absent
narc
rnc
puig
##placed
imprison
gore
##opping
sake
##week
analyt
##lando
traditionally
confeder
tanks
disproportion
thres
damn
shelters
inches
sexism
southwest
simpl
emerge
mitchell
magnitude
dynamic
outcomes
raqqa
eb
##uting
convictions
merit
rah
clothing
lombardo
##df
##opes
seal
unified
diseases
ignorance
pivot
##nik
##ching
semitic
boll
##oop
everyday
berlin
##ethe
terry
complaining
confrontation
nbcs
##hl
##ordination
abed
relie
castro
attendance
rivals
obamacares
therapy
suspension
tribal
wisdom
##rep
##ussels
acres
unwilling
preliminary
maher
condol
favored
tickets
landscape
##erb
inject
winners
operational
appropriations
spiritual
transparent
municip
proclaimed
cheaper
undersc
cz
##agu
airb
metal
sarin
drafted
ay
tune
modified
firefight
solic
##umph
hug
foundations
centrist
audit
boo
assuming
occupied
thedc
metropolitan
ripped
advancing
jennifer
tale
##era
plag
medias
favors
enforcing
robots
prospects
cybersecurity
len
mi
joel
harassed
leban
orlando
studied
ditch
##onz
##retion
##flix
expecting
prompting
reversed
sally
##bm
submar
psychological
machines
freder
phenomenon
##rent
ministers
overdose
##anor
griev
pupp
threshold
monet
beings
lights
suspicion
##had
##power
##ivan
parking
secured
ot
endless
##prising
allegation
participated
fundraiser
yellow
vigil
accuse
alleging
##ikh
impeached
##ocratic
hamas
renewable
yankees
##gins
##iann
##minster
verd
discipline
reign
##ema
meets
consol
outreach
##iox
painful
hurting
meantime
eag
gott
checking
foster
yard
##maker
##elson
impacted
unsuccess
blu
generate
barrier
commitments
exercises
poland
puigdem
##haw
##yer
##isters
brig
##iped
lethal
burd
casting
fixed
##lee
beauty
##otypes
bacter
##iller
proving
federation
netflix
against
settlements
satellite
blames
sentences
fallout
##lishing
garc
bullying
chicken
clarify
kitch
##aunch
artists
declining
scotland
stim
##lected
biased
##gregation
transm
unequ
antonio
sounded
pedoph
dys
hugh
##olas
contribution
extr
baghd
cambridge
shifting
tu
gras
demon
default
husse
counterparts
##authorized
##isanship
ty
bowl
rot
##igen
justification
wishes
zionist
mol
crying
protester
outf
surprisingly
spite
whoever
##ternal
updates
delegation
tasked
dave
sod
abu
andre
challenger
axios
mexic
fantastic
reproductive
##onto
weren
allied
ricans
temperature
analyz
simultaneously
##pool
##ignment
limiting
hawkins
fing
stern
drones
their
displayed
##ova
killings
doctrine
manchin
intend
violates
##ologically
prohibited
unlawful
holl
##oly
brussels
instinct
poses
simpson
##don
##opp
fundamentally
fried
fiction
recession
radiation
checked
lieuten
gerrymandering
likel
##izza
##right
##embers
unch
phony
##inski
messaging
communicate
nonpartisan
cake
tang
##endered
liqu
mcconnells
contributing
shoulder
distraction
tant
frag
submit
privi
evacuated
coordinated
ireland
##osh
##mental
beck
slip
screens
examine
##tered
authored
radar
##iture
invested
steal
waited
arguably
obligations
##cribed
revenues
##continental
baghdad
liv
pink
attracted
sincere
gaining
##edict
disregard
##ells
bread
audiences
hydr
skeptic
##urance
heated
reactions
myanmar
joked
##inton
assigned
dire
nyp
##arked
##oub
fruit
##appy
denounce
funeral
provocative
ignorant
bribery
ts
##acles
patience
approaches
##che
shoes
library
##alo
##about
kidn
telephone
##enas
discretion
respectively
##atri
hotels
managers
controlling
jab
loot
transactions
restrain
tolerance
##asive
##keep
conservatism
eliminated
queens
examined
eve
incarc
rican
trends
wrest
chairs
excessive
##osures
##anted
flames
somalia
civic
considerable
mystery
notorious
inaccurate
##isen
##assed
confirms
puigdemont
cod
##emble
disney
scary
doubts
##essions
##committ
lifestyle
clown
##elli
lawful
morally
friendship
avoiding
##iciently
kam
drunk
medium
shouted
##oard
senates
beer
coward
reluctant
devin
button
bloody
applies
dragged
egg
ninth
fantasy
dance
reed
rever
invite
authent
auto
util
airstrikes
##rs
offenses
oliver
##no
##ernand
freedoms
troop
sovereign
incentive
rud
coordination
unbel
prejud
teens
debut
contentious
gods
mounting
##bul
counting
pastor
comparing
earnings
##bar
appreh
quotes
intercontinental
bitco
sudan
cigar
mast
mens
peak
param
policing
morgan
dianne
humor
knocked
dates
warhead
monthly
poorly
conclude
jar
##rical
ears
entr
victories
independents
launches
obsessed
shouting
hilar
##icides
##kee
centered
worthy
wick
##ato
##ilation
spaces
worries
israels
sooner
nickn
kerry
koch
##eston
brack
imposing
lasting
professors
hallow
escalating
shapiro
elementary
tail
criticisms
scholar
paralle
distingu
mccabe
reacted
interpretation
consciousness
seb
refers
##ouncing
resent
smile
financially
##box
inflamm
bish
egreg
enable
recre
propon
circles
maintains
##hani
trucks
wow
cowboys
thep
impressive
sexist
ousted
taste
donn
##pton
semitism
rd
reop
##chez
keen
losers
commonly
mandates
vicious
expire
emir
institutional
economically
civilization
symbols
structures
carries
oppression
extract
debbie
portra
slogan
problematic
deadliest
burst
exclusively
northwest
magic
cheer
whatso
ideals
resolved
reductions
affecting
egyptian
vetting
dri
trapped
mons
communism
permitted
academ
weighed
bund
bitch
##inating
discipl
irony
hillarys
influenced
yellen
laden
##have
defendant
separation
reflected
##guard
##terror
operated
gib
arena
idiot
studying
representation
responsibilities
accomplishments
whatsoever
##father
##etical
thec
complicit
##ocks
centuries
applicants
kitchen
dana
##ersons
newt
liar
containing
ammun
regulators
christianity
oak
##uates
staunch
debun
tourists
jc
tes
##eries
offended
offshore
craig
mate
exposing
blown
sabotage
halloween
dup
likewise
deput
regulate
rogers
powell
engineer
stunned
trauma
##sthat
municipal
hussein
unst
decept
sentencing
occasionally
fuels
millennials
orthodox
irresponsible
dw
mick
partial
noise
endang
##itsky
championship
unpredict
unint
unauthorized
plate
defund
##gyn
questionable
##umbling
halls
alexand
burns
huffington
discourse
trash
thugs
placing
whitefish
regards
struggles
consequence
murdoch
sweden
ammunition
kathy
franch
identifying
advocating
volume
withdrawing
engineers
murders
diox
##due
chest
donation
processes
orient
barred
gangs
fascism
klein
##esc
resil
reserv
investor
technically
landmark
##worthy
sull
grat
prosecute
##mz
lik
statewide
crews
covert
dil
naked
##enance
##itively
##acey
halper
jerseys
harvest
vt
sharia
venezuelan
phillips
unbeliev
inclusion
feder
severely
firmly
ft
yiann
staged
milk
hurts
screening
irish
executed
classroom
##existing
mortgage
diagnosed
junior
notified
compelling
flawed
jurisdiction
nursing
mcgow
steep
arriving
ceos
hart
lemon
##armed
careers
inaugural
matthews
aids
##nered
treatments
assads
garb
slams
censorship
libertarian
fold
fond
washingtons
##opez
sophisticated
verdict
##acco
boeing
marched
lowering
misdeme
pension
rip
##uously
unaware
longest
distributed
##atorial
hyper
betsy
##gments
honoring
recovered
bergd
degr
stealing
landing
characterized
affects
undercover
ral
attributed
##ache
sonoma
cosm
aboard
licenses
##cles
##oid
##itis
unm
implementing
whereas
untr
prost
drilling
moores
bushs
flynns
lamar
tons
##hill
##inations
andy
fortune
##not
purported
automatically
sympathy
sticking
##iates
##astian
##itters
damages
voiced
disputes
hedge
nypd
dpr
hike
vary
chat
opposes
##ports
robot
improvement
spends
discount
sympathetic
klu
##piece
ambush
tolerate
ip
mitt
incomes
preexisting
##ancies
medication
masters
relied
payroll
measured
cyn
freeze
airports
##ophobic
##eu
creep
veget
utterly
lun
tam
##lan
adapt
confer
belg
beloved
immunity
infilt
denver
approaching
boyfriend
syrias
yards
##sp
spur
enab
powered
significance
bonds
egregious
##xon
megyn
flee
mour
coh
cobb
hein
loses
maps
cryst
relax
oldest
globalist
wondered
objections
highlights
lieutenant
##gence
exagger
charitable
goodell
thro
##phones
isolation
secular
founders
embold
rebuilding
##anks
##ascus
punished
##progress
gentle
drops
longstanding
postp
##ullah
instructions
subpoenas
##ophobia
tobacco
whistlebl
laptop
wrec
stere
marx
abe
retain
operates
virus
acceptance
remembered
capitalism
succeeded
dependent
territories
nate
asc
demographic
fringe
chron
toronto
compensation
franken
macar
insults
hem
##itably
efficient
historian
paddocks
mocking
##pat
##itate
##assing
legs
##iciaries
deployment
lopez
suing
depict
mccask
dominant
memorand
reinfor
abedin
cad
electorate
difficulty
songs
pestic
##arians
evacuate
catastrophe
ster
rajoy
ballots
imperial
fisa
##lings
spo
##iffe
mirror
riots
divid
guilt
tourn
consumption
indigen
administrators
beneficiaries
successor
portions
defenders
substantially
seventh
monetary
organize
tuesdays
##wed
##uding
mini
insurer
cartoon
gub
tense
##enberg
socialism
sundays
promotion
relating
edwards
nationally
damascus
oxy
satisfied
bee
rosa
embarrassment
elaborate
basketball
gonz
##new
drives
##affir
madison
priest
deton
magnitsky
nose
joins
cdc
erupted
mild
venue
cogn
##uman
attitudes
insiders
marching
absor
advocated
makers
vandal
sixt
mete
than
ing
crude
##onsc
glenn
sanchez
##ati
subcommitt
expertise
franklin
podium
grieving
sie
securing
saudis
indigenous
outstanding
directive
unrest
heck
sisters
provider
infant
correctly
bully
bentley
microsoft
blument
##lington
##beat
jeremy
wherever
sincl
plaus
lawn
subjected
aviation
argent
honey
optimism
##idal
##isible
evolution
matches
selection
ironically
dent
marines
harbor
permanently
enthusias
nash
requesting
ofthe
painted
bubble
memorandum
deaf
factions
virtual
gallup
##inging
##ernity
immune
installed
releases
preparation
barbara
decrease
legitimacy
bitcoin
fec
nad
##sthe
responds
deductibles
##facebook
dioxide
wounds
##entan
##astically
swept
californias
injunction
tradem
curious
heal
indictments
arrangement
##gor
exemp
median
painting
enthusiasm
aggr
hostility
zealand
sebastian
ost
##kov
thinkprogress
info
distinction
restored
mcaul
uc
reasoning
predomin
##weight
nyc
persuade
pants
sque
##ien
dea
##aping
crus
publicity
minors
##attled
subscribe
astron
undercut
brib
##bands
reaffir
##estig
##akh
skill
prohibits
monsant
hob
nod
lasted
likelihood
##hard
##wall
##keys
rightly
insuff
edward
battlefield
clarity
clinics
diabet
mason
dischar
##oga
weekends
retract
listened
detailing
stabilize
database
deputies
##ela
familys
cites
finances
richmond
##repres
sunni
fitness
monster
focuses
indicating
disclosures
narrowly
nerve
roth
groc
brands
copies
experiencing
nsc
reald
margar
efficiency
categories
sample
dismantle
aston
remed
##ooth
##asses
alloc
accusation
deliberate
dprk
##dain
##olly
cous
##rah
wildlife
teenager
filings
##heim
afterward
##points
booker
abcs
##lades
##oney
prisons
corby
jacobs
brink
incon
##iano
frances
addict
kicking
suburban
confederacy
unequiv
cri
kings
##uer
overr
gateway
metro
instructed
##imburs
whis
upgr
shooters
explosives
banglades
erect
crooked
receives
##hrab
unrelated
##die
##ctic
singing
risen
##places
prosecuted
oreillys
deficits
##iques
shipping
ourselves
gor
thwart
quarters
stranger
bolling
halperin
fi
##oct
##walk
##reen
credential
populism
crises
melt
##onaldtrump
outbreak
gins
hr
##iels
foreigners
bearing
##itute
schne
kaiser
##agm
interim
organisation
fucking
garcia
emin
atom
sheikh
examining
incentives
##agraph
decisive
laying
exploit
authentic
mccaskill
meteor
##zo
##erpt
shaking
resemb
scare
kushners
kurdistan
photographs
bankruptcy
shore
spear
russell
defends
##leged
disrespectful
portrayed
jurisdictions
realdonaldtrump
motives
obsession
jcpo
bone
byp
pit
clash
explore
handgun
delight
palestine
skepticism
##uces
anytime
regarded
behavi
##sto
input
ank
noah
cave
separately
accurately
blumenthal
serial
counterterror
walks
dutch
hinted
##entanyl
reimburs
spying
##ensively
penn
uncle
blew
##entions
presents
##aint
liability
medal
emm
repealed
specifics
discriminatory
blatant
hast
olig
##aa
pause
looming
affiliate
dickerson
bacteria
subcommittee
hu
accounting
references
thirty
fare
vind
##zez
inning
contents
geopol
mosque
hypoth
reversal
contempor
alan
monolog
envoy
safely
mcdonald
diabetes
##oping
filling
marshall
mes
obl
paragraph
correctness
bedroom
forthcoming
stages
displaced
excerpt
proposing
walter
mysterious
wield
##mes
##aria
align
reson
healing
##iances
assumption
outdo
barron
patter
errors
adoption
immense
##istically
sleeping
ravaged
jcpoa
fert
fentanyl
crashed
##avel
colomb
hardest
macarthur
reception
cultiv
establishing
surrender
garland
summary
rohrab
readiness
travelers
stanford
hates
interact
teeth
emmy
subsidy
prohibit
catherine
mode
kirk
yiannopoulos
sciences
deplor
##issa
parano
empathy
owe
misunder
maintenance
intervene
##esis
incons
oral
pushes
separat
acknowledging
##oubted
##ople
craw
recons
##luding
into
battery
##bodys
fishing
moss
##bull
##oline
clay
commem
allegiance
confirming
disagreed
unfairly
bureaucracy
sdf
##ean
brzez
evol
inters
memories
advent
womans
retweeted
gesture
ai
##inos
##real
##ereg
##shot
broadcasting
sel
##fir
governmental
undoubted
heaven
defeating
micr
tapped
apprent
##anity
##olds
abiding
slate
counselor
inevitably
ralph
ib
lamb
##rand
consolid
fits
##vy
majorities
acquired
levin
exxon
seasons
meals
sheer
objectives
locker
joshua
##etown
nebr
executions
tariffs
beneath
album
lashed
defender
withd
musk
mck
precious
disruption
bridges
woke
inclusive
conceded
gunfire
posing
premature
commanders
surveyed
insulting
stalled
##hner
##pres
urgency
opted
undoubtedly
pences
thick
directing
arranged
calend
namely
referenced
merch
incumbents
fid
rug
yale
philip
nominations
##yad
##erted
slim
boe
equipped
##qual
fract
airpl
resource
surveys
klux
##wan
##eld
compr
attacker
array
referencing
dictatorship
orientation
supplement
meme
annoy
conservation
vib
##rome
##orth
##olle
programming
enforced
disappointment
transferred
ineffect
sullivan
##rison
pert
foolish
chanting
sustainable
pir
rooted
guided
appealed
exceptions
prohibition
bilateral
wells
viable
hostage
commentators
verify
bolster
offenders
disability
compiled
arrog
appointees
supervis
gag
##rog
antib
midnight
energ
cancelled
husbands
motivation
occupation
hans
laughed
concentration
##through
behaviour
counterterrorism
lions
reloc
dealers
debunked
md
stagg
##quer
##angled
barry
voluntary
fifty
eighth
reun
unsur
tourism
firefighters
tel
investing
salman
##las
relying
idah
smooth
sheet
embarrassed
burdens
sasse
vend
##tv
maneu
appealing
symbolic
thoroughly
adequate
billy
lately
nr
yul
##istical
scrat
photographer
appointments
unleashed
##ione
##ulus
sput
beef
governance
texans
collecting
paperwork
spike
##ernatorial
creator
coincidence
phar
techniques
fairness
overseeing
https
dare
associations
##umpt
hunts
terrifying
breakfast
ultra
encourages
mistaken
##gahn
manipul
abbas
cin
##bury
sha
offs
enrich
singap
cooperating
unhappy
gubernatorial
##ima
concessions
stays
patch
##bow
formula
agreeing
parliamentary
nelson
abund
mcgahn
tothe
councils
lewand
redistrict
bergdahl
mcauliffe
oust
rome
##oven
militia
dougl
melgen
navig
dereg
tub
##erg
alban
delays
fisher
cf
##iah
intermed
physicians
atrocities
uh
##ongh
##herent
expend
eventual
circulated
termination
rampant
##pol
blueprint
incorp
ampl
syndrome
sinclair
##bian
##yers
pressured
ordering
challengers
negotiation
grabbed
intensity
##hor
compound
protested
homicide
tillersons
mentioning
periods
predictable
nebraska
bib
##cer
##ora
##acerb
sek
##izon
twin
decency
warrants
muham
lacks
pedest
ryans
diam
kath
shy
abst
trolls
slic
scouts
slated
economies
toile
danley
branches
undermined
hood
seize
protocol
exemption
dunford
jeopardy
exacerb
blackburn
##breaking
icbm
dysf
withdrew
##otes
suits
mountains
##imental
reps
peers
##ifact
congressmen
schm
subway
versions
pilots
##hawkins
counted
achieving
bedminster
unanimously
incompetent
##erver
##encers
insens
browns
fraudulent
elimination
disappeared
fingers
rohrabacher
ko
##organ
misinformation
bulk
cautioned
triumph
durb
piss
pbs
tips
##anded
##iferation
##usters
picks
bernard
initiated
migrant
emotions
savage
inquiries
bhar
##storm
##quest
confron
subtle
resolutions
disappointing
bast
##gie
##eto
filmed
##iscl
orrin
rulings
splc
teenagers
discredit
hated
##ionage
##isers
forens
impressed
edited
simon
kilomet
component
brzezinski
tiss
shah
incap
turnbull
equity
disgraced
rodrigue
resettlement
tesla
redistricting
emailed
lacking
llc
strengthening
convincing
##children
mohammed
##ocally
overth
steam
injuring
fascists
gam
tends
vic
spots
bry
indirect
courses
branded
literature
inflicted
abruptly
franchise
##bell
deserved
correction
pursued
virtue
loretta
functions
sis
##fol
attackers
revis
troubles
riding
sb
##ni
##gm
outline
fallon
tomahaw
tactical
irrelev
inflammatory
eman
alph
ard
realistic
sometime
israelis
lifting
condolences
sekul
fitz
disad
##azz
boards
bomber
pathetic
venture
contraception
calendar
dated
gym
##idi
##opoly
applying
caut
##owned
afd
yorkers
occurring
battling
wary
##opath
worldview
portland
cleaning
darkness
teenage
accidentally
carn
##ribly
reaches
borrowing
patterns
gil
##lib
wholes
criter
##izations
signaling
sket
##ween
wildly
accuracy
pockets
tournament
singapore
cern
##this
imran
organizer
vanity
exhaust
hydrogen
unbelievable
greed
##anas
##erse
fever
proportion
locals
legalization
greeted
pretending
outlook
naac
broadway
chaotic
brotherhood
pakistani
napa
staggering
##hot
##osa
deir
unborn
suppression
protective
swim
designation
surrog
awrhawkins
gifts
hence
hicks
wray
slash
##washing
agricultural
tide
tatt
drill
mondays
intelligent
suggestions
shortage
demonstrates
floods
logical
hazard
bangladesh
##uda
grapp
evans
proph
##offs
weighing
forbes
crystal
horn
rapp
compelled
advisors
ruin
wasted
sidelines
ghost
passionate
cocaine
lined
claire
meg
handing
thereby
traditions
suspend
##apo
poised
exciting
angle
robbery
essay
concludes
drinks
procedural
ricos
por
pad
excuses
practically
##ettes
shutting
balanced
contractor
voluntarily
monsanto
lane
preempt
assaulting
objects
alternatives
unmasked
indefin
##inational
##identified
shirts
scam
neighboring
tribe
interpreted
riyad
collaboration
mish
spell
##insky
rejecting
heights
stabbed
forbid
sailors
procl
urges
determining
graphic
unpredictable
neoc
twist
attribution
genetic
multinational
implied
plausible
unsurprising
hong
chan
plun
wrapped
stev
identification
holt
respects
assaults
searches
garbage
##would
##ete
unarmed
scor
impart
gasoline
breathing
stom
soci
universitys
lacked
##heart
adversaries
ancest
improvements
##ierrez
vou
xen
##istol
clashed
reconst
##ributes
##letter
certainty
fixing
hysteria
ginsburg
atomic
##itement
preserving
##hinged
advise
slap
linking
odonnell
micro
worrying
grasp
##rained
marry
idi
johnsons
announces
nurses
hodg
##ernandez
idaho
mant
wals
##assified
##atively
loser
haunt
disapprove
helmets
misdemeanor
dawn
stole
##ader
doomed
redd
expectation
volat
presentation
certific
jihadists
boasted
spark
han
##icable
unhinged
reserves
enabled
nobel
##getown
distribut
admissions
##lining
brandon
tribute
lebanon
margaret
convey
bloc
warmb
emily
topp
visitor
budgets
proudly
manipulation
horrifying
iconic
warmbier
ov
reply
carr
advising
merits
ambul
assembled
neighbour
intimidation
entrepreneurs
credentials
maker
rated
cox
investigator
hometown
silly
grandfather
defining
rebuke
corbyn
muhammad
##mother
##oan
effectiveness
figured
observer
maxim
rejection
habits
bragged
lewandowski
ego
##low
robinson
stockp
prone
inade
##ationally
##ateur
##asted
carriers
informant
entitlement
sergeant
flaws
##nf
##dles
##elter
##ublished
laughter
mccains
shaped
midterms
emanuel
ml
tok
blowing
narrat
cheered
correspondents
gotta
##upp
spies
incoming
parad
##rup
swath
rocks
unfit
substantive
rouhani
wet
brains
interrupted
georgetown
espionage
deterior
scrap
ranked
gutierrez
cripp
eisen
hailed
mend
rivers
##inv
##owers
plac
##ecutive
peacefully
recalls
erupt
lag
resume
assisted
essence
physician
##case
interaction
exploded
artic
carlos
coaches
rodriguez
##inate
thet
##oding
credited
risky
escaped
tunnel
mp
ironic
occurs
salaries
##uffed
obtaining
hunter
bossert
terminate
boundaries
terrified
alarmed
##thouse
arctic
newsweek
crowded
introduction
televised
hunger
cockt
gur
kab
crush
carmen
benefited
episodes
eggs
kong
straw
poster
grows
regulated
floated
bags
dubious
evaluate
contempl
sekulow
pes
##iph
transit
##ups
technological
ports
vehement
partnerships
mercury
nurse
tourist
mandated
functioning
mcgowan
tir
reserved
scoring
##ishes
distress
historians
enjoying
preparations
certify
rationale
storage
naacp
##nis
shep
forfe
monopoly
budd
##edients
shameful
tampa
frederica
##anders
idlib
reflection
hbo
tan
##atus
##rik
disdain
illicit
boats
turmo
buyers
restricted
consumed
touching
purchases
forgive
ingredients
applauded
pizza
caring
wealthiest
repeating
turner
puzz
domain
escalate
rainfall
loopholes
turmoil
perdue
##owners
secretaries
revenge
geopolitical
cite
##imited
suite
genius
facto
propose
runner
##lessness
stamps
unstable
##acular
##imm
accuses
quake
impuls
fridays
sentiments
disrespecting
predominantly
youngest
mentions
portrait
durbin
cernovich
dot
##mart
##found
##leas
##ears
newest
corey
denouncing
butt
trials
highlighting
occupy
crypt
overthrow
riyadh
iq
um
##hem
##lical
hef
competitors
genuinely
bah
gord
defamation
boot
##othy
inex
praying
gradually
promotes
karl
jihadist
narratives
##eous
##inder
electrical
bashing
pledges
clinical
hilarious
yelling
##urbs
peril
obstacles
sergei
criteria
stomach
gaff
unilateral
barrett
debris
musical
billionaires
parker
introducing
mercer
indianapolis
shifts
ladies
buch
farms
kills
cbp
##making
pools
refin
rebell
bird
facilitate
emmys
decert
prote
confisc
instantly
liberation
wales
ashamed
wheeler
##igm
meal
protestors
##beit
damning
persecution
embracing
attractive
abusive
walsh
##ilater
fines
breakdown
oversees
jumping
##atis
seiz
resh
gren
##recy
tolerated
intersect
pragm
secession
indones
##iley
towers
dominance
graduates
sporting
##ilaterally
pas
##eem
##ilia
replic
affiliation
handc
specialist
afterwards
infection
steadily
oligarch
masc
##asm
shields
unacc
usc
recuse
mars
flour
purely
arbitr
##ulous
premi
blasts
pleasure
liverpool
pharma
mansion
##esome
conting
isa
intact
stripped
granting
dominate
cardin
forty
wiretapped
syrians
pigs
duck
pills
tong
##athon
medications
probes
discriminate
hawks
archives
pouring
##say
chilling
mega
ricardo
rio
wol
##oni
##omy
##amas
inherent
contemporary
cory
##uity
fores
scout
factories
##when
hi
secrecy
criticised
lesser
apocal
verge
rallying
unlimited
cheering
welcoming
alexandria
irrelevant
ouster
pile
##iably
##ulates
external
costing
feeding
nest
segregation
assure
depos
resigning
jessica
convert
shin
confusing
overtime
##people
obscure
discredited
vessels
vigilant
resentment
squeez
antibiot
drills
relies
remarked
taxed
instant
retiring
skyr
answering
samuel
outsider
escalated
sob
##hin
plug
flown
reader
masses
helicopters
jesse
kamala
bharara
drum
relation
charities
sectors
recipient
grip
hayes
skyrock
gly
##fed
atf
separated
adjustment
swiftly
bargaining
pound
rup
##tery
extending
marches
germans
gardner
heightened
preference
tomahawk
##gel
##ata
unilaterally
defiance
accessible
deranged
belongs
crafted
swedish
bona
jugg
pione
quinn
showdown
acid
##ierra
recordings
greens
hadn
proceeded
inspiring
rescinded
misogyny
kay
kaine
unconsc
##addy
##health
declares
endorsing
dissem
pear
##athing
##star
climb
allah
healthier
viewing
holdings
processing
financed
inspiration
insensitive
##town
##ja
trending
geo
waive
##quez
loudly
grocery
sputnik
douglas
wag
##olics
jailed
diagnosis
vile
wipe
##chers
shakes
##ovs
invented
##luded
beneficial
rescued
disproportionately
omin
knight
##attering
linda
retailers
prestig
recognizing
bak
##rop
##atement
unjust
imagined
##kinson
examination
gabri
proponents
##pent
algor
forc
retained
midwest
europeans
controversies
floating
weakened
villages
unwanted
salvador
##esy
shine
pepper
milo
nuts
lamented
bargain
gamb
accum
tendency
##ummings
##ira
peer
cultures
##umbled
logs
categor
cellphone
bou
cummings
shul
tracked
bottle
societies
algorith
##feld
sealed
cared
restoring
verbal
sweep
luis
##net
weed
strain
systemic
goldberg
narciss
strongh
devot
awesome
catholics
ellison
www
lank
suck
segments
wors
trey
lah
##antha
thy
legislatures
digging
produces
oxygen
##enting
##urry
unidentified
crop
crops
guarantees
outlaw
rigged
arbitration
hors
##rane
##caster
holes
commissioned
goldstone
restraint
##wau
albeit
carpet
takeover
bothered
converted
thedcnf
reconsider
inch
spill
personalities
ordin
paink
presenting
##guided
anxious
calculated
forensic
##conn
airfield
prisoner
telegraph
olympic
eup
mong
##urbed
spacey
grief
ende
insistence
luke
grabbing
fortunately
relentless
mask
##arro
adj
##acted
commons
doe
overly
temple
havana
perpetrators
inspire
achievements
tuition
ineffective
kal
nc
sty
##press
blackmail
visual
designer
asserting
tribes
unanimous
awaiting
liquid
bite
nether
yelled
##zer
albert
distant
breakthrough
demonstrating
titles
certification
akin
feminism
mexicans
endangered
meltdown
##leting
##utt
perkins
##airy
##aza
thrilled
birds
purchasing
hungary
autonomous
seated
poly
wayne
milwau
socially
##former
delaware
difficulties
roc
##stated
chad
empt
suburbs
raids
##forward
proposition
renov
disapproval
privileged
cents
nau
naming
pond
cream
meters
abandoning
marginalized
stephanopoulos
unsuccessful
kg
undec
lefts
commenting
respectful
clarified
##worth
minimal
lecture
##president
##ista
premise
manufactured
##illions
suppose
pai
thoughtful
thankfully
actresses
rans
rapper
cov
orbit
realm
charlotte
persistent
searched
encountered
saddam
emboldened
cats
undergo
exploring
erase
##mingham
bottles
spiral
jenner
mull
##racies
##ansing
fren
margins
glory
muscle
metaph
embed
draws
interfered
recovering
streaming
strictly
ling
##illery
enduring
discont
facial
download
wasting
gillib
samples
colonial
entrance
monologue
hats
##dale
##bu
##fia
proclaim
thursdays
##tw
##erner
earners
penet
birmingham
plagued
fist
horm
junk
rack
##iations
knowingly
insect
cargo
publications
morality
salon
probable
lucrative
culmin
emirates
dairy
ss
sierra
##itating
aging
righteous
taxation
prevents
possibilities
holders
##drop
boxes
spectacular
wyden
smuggling
conferences
lung
##donald
##ii
##urances
shattered
obso
critically
enjoys
wholesale
mika
##uum
##erating
##etime
trap
preview
somali
misguided
ignores
limitations
constitute
slamming
dal
rash
##enth
costume
predator
britains
samantha
traitor
recruiting
enrolled
##isclosed
nig
crap
globally
marketplaces
verified
bombard
mounted
pornography
jenkins
##colm
obsolete
bones
witt
##rons
whove
miners
chooses
males
doubling
vigor
legendary
milwaukee
gol
tac
##pot
##yo
##wich
##lege
shia
fraction
consp
consecutive
itll
endure
melissa
confronting
kilometers
netherlands
cure
dyl
##ucked
implicit
confid
violently
infur
infected
##atters
valued
prediction
dispos
hamburg
casey
provocation
##ulsion
elevated
bogus
astonishing
##eb
##wer
interrupt
execute
andrea
##umptions
dug
sib
expires
backers
harmed
slide
portman
predictions
abdul
kirst
boehner
joking
##agans
bru
##berry
faction
subt
collision
iranians
erad
rallied
intolerance
parallel
tissue
nauert
##ami
prototypes
richest
##wealth
digit
georgias
reminds
frustrating
poured
apprentice
commissions
interrog
invoked
schedul
acquis
certified
transformed
provocations
gaza
cognitive
nico
rit
##zs
framed
secondary
##works
facebooks
proxy
puppet
frat
ian
mold
tore
##kind
##emost
newsletter
onfacebook
militias
greek
##faction
altered
disgraceful
##chair
##ached
instability
forming
ensl
malcolm
championed
imperative
##li
##pin
##atics
noble
appalling
upheld
killers
sounding
exceptional
appreciation
omar
##onts
inad
##ecd
##irs
##raham
smiling
behave
chairwoman
singled
baseless
downs
##ranean
##kamp
disgu
inviting
undisclosed
reasonably
respective
talented
sacram
terminated
fabricated
lesbian
aggrav
adher
crick
politicized
detected
communists
feminists
orchestrated
unequivocally
##ollees
inadequate
gillibrand
gust
lod
##iq
##inces
##usive
usher
everyones
##aches
moab
ridic
googles
fiery
enrollees
recounted
prejudice
tx
arn
preval
persist
vacated
frightening
wings
statut
##azier
barring
collectively
grandpar
ramos
entrepreneur
detr
transf
proposes
diminished
cns
dor
hikes
rend
stelter
##ifiable
inclined
debated
educate
autism
environmentalists
beside
quoting
hassan
foul
##olent
##prod
projections
deportations
enhance
otto
upt
leagues
amongst
neglig
##goers
resisting
transformation
robertson
enabling
##izable
acute
courtesy
surp
##ophy
##ooney
shoulders
observation
##emele
bleeding
components
maneuver
toilet
bapt
nag
ws
##pec
##urer
capita
contaminated
wiped
##list
##ji
##aro
##itas
assumptions
##phos
natalia
contested
tyranny
rewrite
vp
wished
overreach
yorks
apparatus
punishing
comparable
proliferation
nicholas
##steps
dose
waking
clooney
##ellation
##ensibly
refund
traject
rehabil
hypocritical
inconven
##aad
##ura
disabilities
defenses
poet
federalist
elaine
janet
ambig
navarro
##club
fulfilling
adverse
cynical
each
##nels
##iderman
remin
##igo
##ivism
##usions
useless
marathon
playboy
continent
rises
sells
nominate
kasowitz
ferv
lud
sot
tipped
##hab
##reated
shay
endured
parole
colluding
detectives
nickname
crit
##enew
antics
booked
bankers
envision
traded
balls
sections
haul
unusually
detainees
recreational
jemele
##ento
leah
destination
treats
cheers
sheep
tortured
petersburg
bishop
##were
##esity
chains
blm
drudge
garner
##rooms
hungry
destabilizing
enthusiastic
##alid
##usc
labeling
grandchildren
restricting
begging
manipulate
empowered
bureaucrats
bend
perv
happiness
realities
testifying
halted
turkeys
commonwealth
kenn
hernandez
inthe
sherman
foremost
colors
clearing
mindset
rockets
stationed
bolton
ashley
gonzale
vehemently
gordon
##met
inaction
expired
flint
infring
shortages
moms
independently
intentional
arthur
disinformation
obesity
constrain
identical
aiming
preferences
landsl
##erable
conj
prescribed
comic
gran
flakes
privat
travels
labels
maga
counsels
clever
condemns
petro
toughest
predicting
survivor
incompetence
glyphos
aided
kess
chees
##illers
crushed
complying
huma
practicing
displays
vastly
##writer
katy
bragging
oxford
warrior
alepp
homosexuality
promptly
cautious
hoc
##gom
##ocy
repr
outd
positioned
angered
portfol
graduated
eldest
printed
loophole
spearhead
vowing
##istans
speculated
despicable
rivera
overdoses
ceasefire
stevens
during
drastically
abraham
revive
frequency
negatively
airbase
submarine
##ece
##imated
chick
worn
antagon
readily
salute
straightforward
latinos
##ois
##itivity
shoe
##earing
spare
filmmaker
resisted
objection
proceeds
nukes
territorial
chocol
approving
nightclub
liberalism
misrepres
murderous
withdrawn
cartel
springs
eleph
incarceration
colombia
critique
ez
##last
plumm
##ardash
disconn
soccer
corpus
accusers
fascinating
exploited
boasts
jamie
excluded
statutory
aj
waving
##oh
##heric
defiant
marking
productivity
exercising
reversing
remarkably
bullsh
goss
##oped
indians
interviewing
potent
globalists
feedback
coordinate
bronx
relieved
balk
pier
##quately
courthouse
snip
malicious
derail
backgrounds
jung
lion
anarch
plague
earliest
gucc
standoff
operator
spicers
photographed
sights
intimidate
belgium
heinous
rear
##osity
earnest
refrain
smell
pushback
unfavor
renewal
undermines
constructed
biblical
incapable
nail
##table
##esco
##ovych
ons
bigoted
imported
merk
terminal
aka
exploitation
analyzed
impartial
aleppo
bug
kardash
##inable
shook
lip
##including
sensible
subsidized
forgot
gonzalez
codes
jaw
##mons
##orus
stones
triple
brock
campbell
detract
informal
residential
drafting
stormer
ostensibly
wholly
##umed
deck
slot
saturdays
montgom
arrangements
donnelly
insufficient
tai
##dam
##gle
##icter
incrimin
timothy
patty
epas
richardson
surgeon
broker
tennis
pronounced
diamond
##pb
##ener
##they
drastic
boyle
##aux
martine
lobbied
outdoor
kyle
oppressed
harms
paych
cracking
disgusted
yanuk
##mouth
assurances
accordingly
underest
barn
developer
safeguard
bike
cum
dancing
ix
seniors
##ussions
stricter
flock
schem
modi
analog
preca
disagrees
stanley
unreal
accommodate
oakland
nicole
glyphosate
hend
##yard
##erent
##ocracy
assign
advanc
embattled
utilities
##ethat
taunt
hudson
eleven
stored
##aying
shred
adolf
bez
makeup
gene
policymakers
themes
internationally
err
gaps
hond
oz
wi
##aters
stiff
bever
indul
alliances
delivers
innovative
overlook
cigarettes
kenneth
jol
sized
wig
##pm
heit
twisted
##azed
prevail
engines
purge
generating
totalitarian
pulse
rubber
pitched
unemployed
##adi
##osy
arc
##eyer
flowing
appropriation
qualities
emphasize
lavish
ritual
mack
mps
##amo
cla
polit
##quit
timely
schl
raided
##working
burgl
transported
dumping
brackets
vows
yo
##fc
sting
##immer
polled
disav
##onserv
##fty
sober
playbook
dennis
embod
combating
teaches
miracle
montgomery
vel
##lys
crushing
revoked
agendas
bombed
hacks
byr
##eshia
switched
vessel
friedman
hefner
pav
##ecca
thorn
reduces
probation
##iterranean
stephanie
cnsnews
furn
mim
##atable
##lec
seed
dailymail
existential
persecut
amounted
vacant
infections
overturned
schneiderman
auction
##akis
leakers
appet
mug
foia
restoration
foxs
formation
eyebr
fatally
affirmative
dj
napol
##icked
entren
realizing
travis
knees
butter
arabic
boris
scenarios
coch
kc
##esters
commod
genital
posture
specify
extensively
caption
interfering
boosting
evaluation
disorders
convenient
downplayed
reddit
heitkamp
bs
cinc
stif
succ
shi
shark
objected
provoke
servers
substances
unpaid
constructive
inherently
voc
##afe
##py
##igated
##chen
firest
marvel
enhanced
tokyo
arbitrary
bc
kris
mets
ninet
trillions
partisanship
finals
vik
olds
laud
counterprot
##official
garrett
definitive
cameron
tearing
schmid
undecided
ranger
tn
##thetic
##umble
manual
vacuum
garnered
dominican
innocence
outsour
##manship
wyoming
premiere
dual
wives
apps
mediterranean
owed
listing
##weather
hoover
perpetrated
autonomy
gir
nol
nus
##gement
slipped
reflecting
pulls
honesty
##because
czech
fide
hut
null
alumin
shady
demise
##issance
continually
##white
sexuality
populated
portug
grandmother
##guards
disruptive
alec
unsurprisingly
##itures
trains
asp
impending
corrob
euro
ruined
ahmed
##graphy
assertions
dodd
busted
cem
mm
zak
##jor
stu
chapp
polish
abusing
##enna
regrets
csr
imprisoned
embedded
contention
servic
extends
morris
##lett
operators
forcefully
evacuations
acquire
skinny
dolph
tantrum
federally
trajectory
bour
cater
##iott
##kh
wouldve
jeb
sentin
seekers
norman
walmart
constitutes
remotely
shrinking
sisi
wapo
##eton
weiss
expans
extortion
juven
between
kenya
grande
volc
kurt
distracted
dumped
prolong
yanukovych
dread
hb
##stan
##ivable
clue
remembers
##annon
devil
neglect
adopting
##yright
courageous
collapsing
grandparents
martinez
sr
resorts
withheld
colts
advant
securities
reconstruction
buchan
hog
##mal
donating
amended
processed
technique
stockley
closure
intervened
blasting
rejects
detective
ott
sang
stump
##osc
flies
abide
upload
studios
performances
reminding
cyberatt
cartels
conceal
translate
tasks
renegotiate
tirade
nh
##atem
##ocrats
fronts
finishing
behead
johns
authorize
delta
##she
acknowledges
delegates
humiliating
sketch
##washington
##ario
spouses
minne
secretive
snl
structural
tayy
poisoning
minimize
congratulations
victoria
sunset
whistleblower
siege
##istry
correl
judd
artillery
broadcaster
pretext
ambition
praises
copyright
##meade
cruelty
diesel
tossed
extrad
ominous
firestorm
kin
rushing
vinson
clips
specified
judging
entirety
##yler
fitzg
rebellion
cemeter
pets
##rous
immoral
##ugn
starring
eligibility
consuming
gao
unfolding
nadal
reagans
cooking
##ighting
continental
religions
coupled
necessity
melan
##throp
emotionally
bun
daw
##erie
##rath
debacle
thrive
##brand
austria
overwhelmed
belonging
touting
outcry
##vs
##stal
stall
coerc
courtroom
militar
disturbed
banker
fearful
imagery
dismissing
vulgar
brookings
clerk
binding
stalin
##keeper
tire
##ridge
##lins
##bling
patron
counterint
connecting
jails
psychology
exemptions
diane
adequately
inhab
gravity
outfit
holland
##hm
##etics
exon
monica
interestingly
catching
abdullah
chronicle
##wered
cliff
evolved
output
payne
deterrence
finalized
haiti
pipelines
manufacturer
proclamation
chocolate
bots
faking
##tone
##iner
##ochs
publics
daesh
thrones
charleston
##gal
##witness
##enz
blair
backdrop
corrected
slew
gw
##rock
##tor
shaw
noon
##ensing
marino
abram
distrust
comeback
laughs
prescriptions
antonin
gratitude
manipulator
fict
vogue
##alar
##aders
skip
verb
palmer
falsehood
ivana
unsub
osc
memorials
kilmeade
illnesses
colonel
wiretapping
deplorable
ambulance
shulkin
tayyip
##usa
allege
##riet
contend
annih
underw
descended
shareholders
misled
sharpton
commissioners
negotiators
restriction
assessments
echoing
flowers
##ozen
untrue
minneapolis
tmz
##kan
tresp
##opia
##uma
manuel
medi
wrap
moran
influx
lightly
hallway
myeshia
gorsuchs
rubble
scrutin
rossello
contradicted
tunnels
fragile
bats
eug
ig
lining
##uan
##iently
##icy
peg
martha
##ceptions
responsive
turb
jacket
bosses
barrage
##iability
##estone
arise
brent
homeowners
experiments
considerably
competence
purple
planted
knocking
shadows
decreased
unreason
profoundly
disagreements
kabul
##omer
trumpism
scan
factual
origins
counseling
documentation
knelt
dressing
occasional
raging
railed
tables
##eal
##mers
prud
unesco
##rix
insanity
maternity
departed
logo
nye
vitamin
sincerely
lazy
rs
##xamin
##ests
##apes
brush
signatures
concede
propublic
solving
assisting
supermark
adjusted
snowfl
airstrike
prioritize
hughes
sacramento
bachel
sater
##anics
shops
##eard
proport
caliph
faithful
breathe
barbar
astrona
certificate
##veys
invoke
frozen
##erness
mafia
##aneous
pete
sentinel
yoga
truman
ensh
appalled
relates
arrives
compliment
lowered
conflicting
exchanged
malays
obstacle
sticks
monitored
vigorously
rangers
##ainted
brat
##berman
blessed
wednesdays
accompanying
ezz
##raining
##leased
scathing
infighting
penned
sidewalk
corkers
encounters
fingerprint
exhibit
theatre
wreck
pesticides
remedy
##xaminer
##anthrop
##itary
##otics
##uto
##andered
##ags
syd
intensive
airing
glimp
beth
descend
routes
torch
appreciated
atmospheric
satisfy
airplane
bezos
gambling
ns
pse
yang
spurred
fra
schwar
childs
hardline
footprint
creators
sterling
portfolio
dile
##gical
apples
orwell
regain
desired
needing
despair
obsess
pulp
mercy
overlooked
##alous
thenew
##imag
obey
endanger
farmer
##xture
booth
staffing
analyses
fastest
hispanics
eagle
academics
wade
##fa
chast
als
twel
blond
lauer
understandable
appointee
laboratory
tours
traumatic
wrestling
confidant
##err
##oker
guatem
washingtone
sufficiently
arabs
microph
pseud
##olu
##adan
accordance
##elligence
##etti
rhode
##rehensible
echoes
julie
diaz
slogans
annex
tumult
drift
indefinitely
washingtonexaminer
##mn
##oons
candy
denuclear
summon
substitute
punched
dispatched
taiwan
hating
wald
stagn
seas
whod
evan
frazier
##anked
##enews
distribute
startling
christi
pageant
lucas
glasses
ecu
concentrated
dynamics
##otype
oriented
botched
aluminum
dy
niels
wrath
##pear
sums
agalar
shower
solved
fellows
hawk
mentality
dismantling
browder
rust
##acent
whopping
marie
thereafter
dreamer
precip
alerted
schmidt
twelve
##eny
##aniel
##aki
##awa
##intend
defines
relate
plead
truths
murdering
dining
coordinating
chanted
nashville
aunt
nefar
upside
racing
sanctioned
designs
prosecutions
scottish
tragedies
exclude
throat
cement
gosp
tying
##orating
deflect
memes
sword
legality
suffers
hopkins
satan
miram
prospective
crafting
gabriel
iter
kor
sul
##mac
inbox
braw
richards
appropriately
prepares
shaping
mitigate
recruitment
jav
ware
stip
##occ
preserv
continuous
judged
recep
summar
eyewitness
kennedys
nuke
transcripts
ransom
bem
cope
dmit
linton
##number
##bles
##emocratic
##rians
demol
famed
tooth
hacker
resistant
analytics
schwarz
puss
sars
##report
conform
spouse
democracies
billed
addicted
##isms
speculate
slain
gibson
expenditures
hodgkinson
##yc
##itano
inmate
##unc
meyers
decried
##atories
owning
horizon
philanthrop
radioactive
qualifying
satellites
tube
##oqu
##human
##urally
stroke
boots
johnny
circulating
encomp
crimea
consume
##iberal
athlete
uniquely
dodge
betrayal
kessler
dud
fitt
lighth
##busters
##stant
exert
manages
blitzer
insert
goodby
reforming
fearing
indications
wilbur
manipulated
kaspers
climbed
cousin
lyr
pensions
vance
reperc
coherent
plight
heidi
scape
refres
pleading
madness
bidding
louisville
fueling
bailout
improperly
##osystem
##gos
##fell
##illo
shak
pervers
intimate
afflu
profiling
swall
freak
comparisons
fortunes
barrels
submarines
tongue
horses
nusra
advantages
bil
fug
hollow
tally
trace
flesh
provoked
steer
testament
eyed
observe
cheek
rosenberg
crusade
hypothetical
painkillers
bret
bellig
bounds
mice
##gencies
##alt
chants
reliance
antit
exploration
seeming
honour
begged
golfing
grievances
##gc
trio
whil
depress
mills
upward
harassing
reacting
rapists
inexp
radicals
nigeria
translation
spraw
ecosystem
revisit
nefarious
bam
ja
niet
waging
##oos
##times
leaf
##group
impress
exclusion
predators
accidents
inherited
stabbing
fitzgerald
athe
nj
##long
##hower
reins
chen
##chat
unaff
blows
harb
farage
filming
positively
holistic
unsafe
havoc
characteristics
honorable
brutally
romantic
souls
diminish
rupert
inadvert
baff
##cri
seism
contended
monitors
recused
fres
newsroom
playground
transaction
predatory
cycles
contributors
unfounded
rumored
buffalo
volatile
reminis
boring
fy
gala
rib
##hole
##edient
##grad
everton
amen
##ediat
punching
battered
admiral
cowardly
invaded
indiff
confl
debating
forceful
bombings
rhodes
automation
compares
compromising
dragging
http
scapego
##page
##again
informing
arresting
availability
selfish
navigate
licensed
bedard
recruited
intrig
##qualified
guccifer
fitting
##hy
##into
##itics
blaze
farming
legalize
##bron
striker
euros
circus
hotline
forgiveness
mathem
evangelicals
bahrain
antitrust
##zing
##omon
imperson
##ernal
corners
retro
dealer
##brid
scrambling
masks
eisenhower
shakespear
gerald
kra
##ew
##mind
thumb
demean
cav
governed
mccl
stealth
excitement
murderer
spectacle
mortality
blanket
pivotal
idiots
outdated
waged
##lem
##osion
negr
chlor
aviv
legalized
sanction
##govern
rocky
hugely
recognizes
myri
consultation
disrespects
rumor
compassionate
mascul
foresee
##artisanship
spangled
liz
##oused
depicted
outp
palt
disclosing
macrons
cracked
blatantly
dilig
dilem
pec
uae
##ndon
unthink
demograph
standpoint
internally
estes
penny
mayoral
trailer
explanations
exempl
cocktail
hail
##comp
##olo
spurs
pla
loath
hannitys
unintended
napolitano
miramax
aint
baked
##ili
chin
saga
antiqu
basement
generic
behaviors
texts
guts
exploiting
shinzo
metaphor
lumber
leh
brass
enlight
someones
myriad
caf
##ensual
strang
schwe
smashed
therap
throws
princess
matched
anticipation
deception
inconsistent
politifact
##rot
##gi
##atz
##mpt
stap
trophy
##neath
outnumber
posters
anna
underneath
creek
##auer
dedication
bipartisanship
barbuda
rigorous
adversary
holidays
weakening
fidel
dash
##angh
##eters
dislike
commenc
administered
owes
##ielder
homicides
originated
ivankas
heroic
empowering
scholarship
looting
acquisition
staging
guant
infer
specialists
uncomm
probing
communicating
raping
lieu
predicts
feeds
plotting
mcdaniel
buchanan
lover
vag
##bard
anecd
wonders
graduation
lifel
betrayed
exhausted
aerial
dylan
wre
##rists
heed
descent
millionaire
##roe
downward
martial
prominence
horrified
advertisements
accelerated
supervisor
indonesia
commencement
nathan
sore
##mus
##iterate
traction
##imat
spat
unans
##oko
compel
compounds
confessed
highs
mcn
journalistic
msm
deterrent
prosecuting
capito
maxwell
archive
boxing
profitable
fluid
goodbye
repercussions
brick
patt
greece
pollster
##roid
divest
competent
oversaw
imagination
vaccination
buckley
unfolded
indirectly
cheese
hew
consulate
backward
forefront
leveled
damore
supplied
anticipate
toys
mumb
pd
##orum
caes
parish
glam
##iker
corrections
subsidize
qualifications
proceeding
inspection
recruits
triggering
manifesto
argentina
mishand
forfeiture
protein
sydney
fift
lax
rains
##ilou
thaad
backup
farther
##bedard
prohibiting
andrews
blogger
intercepted
sheikhoun
ardent
carnage
caliphate
fraught
pbedard
##leum
thunder
chasing
alz
emma
persona
switzer
engul
superintend
robin
rampage
accelerate
enlisted
forcibly
nam
##vantage
##edes
lib
##rien
exposes
parked
clearer
distort
shorter
weaponry
lays
steelers
wheelchair
booed
pertaining
ezzor
gle
##arty
guise
estr
receip
developers
institutes
pictured
strengthened
rhetorical
kurz
marcus
brazen
convenience
steadfast
swimming
doc
pont
upro
##erra
coin
##quite
amateur
insin
guine
directions
redacted
staring
merced
empowerment
transfers
propublica
##teen
##gone
stems
shipped
plots
reset
expelled
savvy
jurors
##eva
bradley
notoriously
beltway
instincts
disposal
whilst
pediat
##stage
pricing
stub
##ainable
interstate
carc
servants
militarys
radically
generators
seriousness
gays
persuaded
suspicions
stemming
vandalism
lahren
mum
ala
##rypt
harrison
emph
arrange
sanderss
##icultural
unsure
surviving
delaying
villain
motivations
canadians
sinister
evolving
appetite
sarsour
nug
toc
##troll
ana
##otherapy
##entional
gunshot
swir
accounted
merck
sara
princeton
myers
tuned
excluding
resurrect
vegetables
frenzy
glee
##maid
##oa
##iani
flurry
backwards
fools
raf
swast
streak
successes
packages
witnessing
rossell
disciplinary
preemptive
nielsen
uproar
repatri
composed
invisible
smarter
reds
balloon
shelby
integration
borough
entertaining
eyebrows
jama
von
##bish
##gents
##giving
##icidal
rethink
##ensed
assessed
continuously
delhi
mckin
constitutionally
cheating
characterization
microw
pleasant
paranoid
petroleum
tyler
##yon
reyn
##omatic
##agen
offender
##izers
terribly
colored
mineral
complications
assassinated
loyalists
nichol
theaters
revolt
dividing
mcdonalds
arrogant
deregulation
kaspersky
reminiscent
kel
kiev
##rac
##names
##yt
##irical
weaker
inciting
cait
orb
impair
slapped
legislator
socialists
wrongly
misuse
capitalist
hospitalized
lieberman
smartphone
gregory
bucket
bronze
deceased
##hardt
bypass
bullshit
##eday
##emer
##rying
blaz
scour
outlining
visibly
##iscrimin
divert
regulating
##shed
remainder
##burst
meaningless
separatist
gossip
nord
nause
##fields
##arten
taxi
genes
herb
marchers
louise
restrictive
derrick
dictate
complicity
libyan
tablo
coleman
livest
detractors
##note
##hart
##urt
lever
strangers
flipped
fargo
menu
tarmac
lightning
unsc
reciproc
layer
katie
levy
kuwa
proxim
prefers
baptist
entrenched
counterintelligence
##adors
decree
emolu
toe
handler
thrust
flagged
powder
comedians
oceans
implies
##scale
rescinding
polarization
rewarded
resilience
nicholson
dale
rings
vow
##orist
##orton
arlington
marilou
defying
lauded
turks
divides
predictably
duo
bolst
lauren
unreasonable
gospel
alzheim
dade
wink
##bucks
atop
acre
elias
corrid
optics
feld
spirits
textbook
backlog
electronics
disadvantage
unanswered
ratt
##nick
##ken
unfor
##announced
unden
slashing
swat
revision
trev
communicated
##weigh
dangerously
stereotypes
dock
fost
##wind
##aba
##umbs
implying
thatthe
oppress
morph
glac
opener
chef
##borne
##perform
screamed
withholding
tangible
cfpb
landslide
cochran
daddy
fancy
giff
pand
##isations
heath
fracking
##anner
identifies
snapped
crossings
ossoffs
accomplishment
bureaus
trademark
innings
wielding
##namese
danny
ratch
vil
##may
##told
##also
ink
##imer
shaming
ate
afor
##riages
cancellation
rollback
automated
dissident
sung
vietnamese
exceeded
evidently
mechanisms
relentlessly
tattoo
affluent
dic
##marks
##akable
adhere
arose
colour
watches
starbucks
integrated
lindsay
fatalities
snapchat
destabilize
dysfunction
ludic
lyrics
cun
##bled
coats
indoct
outer
pressuring
explode
veiled
ethnicity
reassure
intensified
injection
unrealistic
steyer
drought
raj
revived
ahmad
chemistry
punitive
constituency
juvenile
uncommon
wif
##eno
prank
##imed
##illon
##asso
prey
imply
##rospect
perspectives
illustrates
instrumental
unsuccessfully
albany
lid
pale
##fan
##opian
adap
usage
##aven
whitehouse
strained
believers
surgical
liberated
purvey
unleash
czar
reaffirmed
uscis
cemetery
batch
wanna
##idav
saves
##ocation
dept
goers
##arez
indiv
defy
tariff
globalization
guardians
blessing
proximity
lur
##omey
conaway
sev
shaken
grain
countered
scoop
assignment
roe
metals
sandwich
multicultural
heartbreaking
hopeless
horr
porter
slee
ramadan
constituent
bureaucratic
humiliated
varying
exaggerated
bribes
inland
##tering
brun
irgc
buys
passport
behar
affidav
locate
costa
compliant
subscri
senseless
haters
prosperous
irrational
screwed
unthinkable
mercedes
declines
illegit
moh
dodgers
##world
postponed
schemes
lending
##national
chorus
adoles
##ourse
blake
doom
discusses
strategists
vulnerability
literal
analyze
snowden
lyndon
imprisonment
kirsten
hockey
hust
lov
pens
pizz
tast
##iler
##igma
lex
cough
caval
scul
needless
maid
mighty
##ompan
curve
surround
surrendered
assessing
reinforce
shipments
peskov
unfavorable
bury
lia
thel
##usional
##uber
##ptic
##ibus
##aha
winston
thanking
panama
jewel
principled
methane
translated
nicar
fetal
analytica
scratch
antibiotics
hoff
##waves
##usp
##bermann
systematic
nightly
denmark
burger
considerations
clarence
rodgers
kaepernicks
grievance
kardashian
glimpse
lump
mush
pc
##ecret
##irk
crony
outburst
equation
cambod
consultants
ashes
surgeries
masked
culpr
voxs
erected
unsubstant
jae
##vo
##orge
##ammer
saa
notify
bryan
outweigh
ellis
emper
singular
castile
martyr
hello
psychologist
emphasizing
discourage
omn
theorist
fiercely
##rieve
trademarks
mesquite
ecuador
umb
stint
delusional
emergencies
females
handsh
affection
matching
asserts
pardoned
gallons
hungarian
persecuted
unsubstantiated
dared
hoy
lend
##lam
##mund
millionaires
setback
topped
owens
singh
accepts
unlock
overshad
dissatis
implication
traffickers
affirmed
curtail
vincent
pissed
pam
tory
wired
##rad
##arn
reauthor
unb
mines
thewashington
hesit
viewpoints
punt
incidentally
embar
combine
knives
bobby
interventions
fantas
tackling
kgb
til
##even
##mir
##waking
##ouds
rejo
stairs
couch
##keeping
disband
statutes
electing
##ahan
delicate
germanys
languages
catalans
kidding
screams
sparking
##ilitary
disproportionate
##look
##gov
##aco
impede
pressures
surpl
buddy
flores
multip
smiths
complexity
outsiders
belonged
vitri
dilemma
bos
kend
mgm
rakh
wax
##gling
##word
##wick
suited
claud
hepat
careless
undergoing
slowing
behold
costumes
bests
expressions
cycl
commandments
sensational
balances
cruzs
consulted
viewership
shrug
philippine
luckily
shameless
discharge
contingent
unconscious
siblings
lifelong
lb
pierre
tended
##igs
uneth
newsh
confess
concession
headlined
kicks
fashioned
kidnapping
distinguished
depicting
cp
lens
rift
##iy
##ente
##leen
##leck
##ecks
leap
clad
crashing
commands
invade
thef
profiles
void
crosses
musician
manufacture
recipe
tricky
sneak
pedophilia
apt
dowd
ripping
sacked
wan
##agos
peps
abilities
continuation
cleansing
rosie
engineered
plaintiff
functional
apprehended
paramount
##space
cec
gad
##you
priced
lees
##obs
elon
insurgents
merr
concluding
psychopath
cardinal
vulnerabilities
extraordinarily
divorced
soda
kirkuk
hepatitis
bm
byst
duff
tos
slowed
editing
rests
insurgency
revival
travelling
merrick
garage
constitutions
##franch
insights
curs
jill
rook
wool
##len
##omay
##chant
repairs
brew
sane
openness
solo
persian
bluntly
psychiatric
brigade
comprised
lerner
##di
##oiled
##ida
reprehensible
##ardi
stranges
soap
someday
avid
downgr
rocked
selective
windsor
charts
reluctance
forecasts
pussy
switzerland
bunk
##cip
##houses
##embr
scold
discern
matrix
ideologically
lottery
hardworking
boarding
wears
consequential
explosions
julia
olbermann
durham
stimulus
unmask
purportedly
stronghold
indivisible
sculpt
zar
releg
##ulu
quist
consensual
genetically
harveys
deadlines
pollsters
escorted
squarely
coordinator
ample
unexpectedly
resilient
errone
aum
bands
kelli
##cade
trinity
##illes
grind
##icking
directs
subvers
practiced
alternate
pipe
skeptics
hints
advancement
preservation
superintendent
horrendous
riv
##rus
##nst
chunk
residency
usda
##cont
elit
affleck
toomey
employs
lineup
pulitzer
precinct
listeners
downing
distinguish
dolphins
mamm
##vis
chips
lease
shen
shining
unimag
##rily
reclaim
warmer
depressed
airspace
employing
hurdles
murderers
bloodshed
lockhe
deploying
speeds
inspectors
organs
contradictory
olympics
sotomay
demographics
aqu
hig
oun
pistol
##fold
plowed
disob
fined
##azar
bigots
revoke
loos
encouragement
biology
akhm
inflict
constraints
cattle
hens
##rics
##uish
##stop
proactive
##ccc
resid
assim
outgoing
aval
debts
chaired
favorably
tempt
freel
unsett
altitude
wilsons
branding
logistics
frustrations
pruitts
fortunate
obstructing
reservations
pesticide
prestigious
rehabilitation
hondur
rakhine
akhmets
wen
##eon
##mod
##inqu
##ivist
##ulse
outages
minus
slipp
themed
erratic
emerges
kimber
loop
moscows
unconv
nixons
alienating
overdue
trolling
instrument
abolish
sixty
pedestrians
aiding
bore
tract
lips
##aws
inco
consists
insured
##iki
vacancies
##regular
rapist
consequently
dogged
camerota
enacting
bait
lifes
duncan
incomplete
lynn
unrav
cincinn
dorm
tiger
##lie
##enuous
contender
outlines
protoc
morale
systematically
honors
virginias
groundwork
##uffs
hearted
roundup
circumstance
gallery
isolate
polarizing
hammered
grimm
masturb
aggravated
sow
chased
monopol
highways
grey
michel
microb
accidental
bullied
polarized
washed
exhibition
lighthizer
protocols
##cut
trim
##chool
gram
flop
##urrence
nationality
oppressive
overst
cannon
breitbarts
nazism
sweat
earthquakes
pragmatic
isaac
##ompanied
cm
lan
mt
nit
render
##acas
alito
seeds
##abad
colum
harming
futures
silencers
lashing
malign
anchors
rode
##aj
reeling
tricks
##econom
saf
##ando
ops
ideologies
##unting
acquitted
weighs
freshman
societal
cinem
bst
##comes
##hu
##pre
tramp
exod
spont
twitters
statistic
rooney
##lude
trek
satire
poorer
pathway
cabin
canadas
museums
devotion
inconvenient
wang
##itutes
rewards
stranded
confined
anyones
coron
encl
lovely
combative
preparedness
congratulate
contradicts
gmt
warheads
marxist
emancip
pervasive
fitton
fifteen
rental
##atoes
alf
adul
clouds
groping
##nings
norway
guit
organisations
swan
viewpoint
osama
boosted
reno
roster
##ulative
shelf
shannon
##ousing
gro
induced
happily
barric
##atched
procure
louder
riders
insulted
stretched
flexible
abusers
enlist
buddh
microphone
sprawling
##said
alumn
shk
clues
cro
amanda
neglected
completion
respecting
rebecca
precision
propagand
ramifications
ellen
unaccompanied
diana
dmz
fals
##reports
coates
invalid
desires
geneva
buses
servant
influencing
vacations
##holder
deporting
evacue
streams
creepy
bout
cort
gases
##pal
##itives
##leep
##ementioned
abet
congresss
redirect
funnel
pickup
derided
pyongyangs
doubles
perpetual
northeastern
screenshot
arnold
stuart
trevor
lester
sins
##run
##lon
##waters
##esa
bravery
nostal
dement
juda
jealous
massage
franks
clarification
wooden
casualty
unveil
theoretically
vetoed
cricket
viktor
inadvertently
guantan
mumbai
ludicrous
unethical
comr
sper
scattered
strings
withstand
refr
irmas
postal
subordin
convened
burlington
indicator
ensures
poorest
paths
scrapped
ratio
sicker
slept
dubai
obscene
fischer
contamination
nostalg
nast
tier
##rower
##norm
##bin
exter
##lick
blum
##asha
succession
illusion
encrypt
unload
scarce
gauge
batteries
chartered
supervision
conveniently
enraged
bracket
eminem
abstract
ancestors
gmo
##cons
##itative
inund
##cha
disarm
indo
abhor
severity
geographic
destroyer
derip
##roads
chapman
climbing
aspirations
pearl
fictional
affidavit
newton
##ovic
discord
severed
halfway
remembering
##ascar
animated
jacksonville
retaliate
ravens
lankford
cried
nud
rips
##russ
##kis
##fox
##asi
trades
forged
##inted
accent
cairo
invoking
convict
locally
popping
messy
islamophobia
nfls
robber
discriminated
##onymous
illustrated
cincinnati
guantanamo
avert
hires
##sky
chile
incend
##otto
bader
horrors
autops
sny
bbcnews
pledging
cardi
torches
correspondence
celebrates
manipulating
cosby
mexicos
bernardino
lockheed
exodus
ae
bik
diver
##hop
##oust
cooked
technic
inspections
motorcade
unsealed
giffords
aforementioned
##ecked
##oshen
shov
quipped
shorts
replies
destiny
divine
floridas
creatures
appointing
walters
mockery
ferr
intimidated
elliott
illustrate
undertaken
brooke
eagles
bishops
merchand
kcna
reynolds
sotomayor
dementia
qaid
##rol
##estine
##abs
meyer
recyc
##issible
parsons
underwater
californians
figuring
silenced
flagrant
disciplined
vendors
shepher
fresno
dude
kims
##moon
##isk
##ados
unofficial
##ysis
fara
teammates
suscept
##rompt
whatsapp
##gregated
akbar
baton
breasts
hobby
intermediate
counterprotesters
erik
moul
##poll
unear
isil
weekday
accords
norths
hardc
declassified
risking
##shots
measuring
appease
iceberg
terrific
##american
mourning
leahy
spearheaded
oscars
##jah
##irable
suicidal
##anton
asleep
imprompt
foes
approves
starter
##steen
awans
islamists
mosques
permitting
mobility
cloture
mobilize
hover
kaz
wann
##during
##pg
traced
disbel
quitting
pole
schiller
milestone
irregular
serb
transc
denomin
formid
creature
ranch
##wrote
##character
hysterical
stockpile
prolonged
dime
woes
##cit
##kas
##onso
sew
spree
completing
newsbusters
insec
runway
budgetary
forwarded
angrily
closet
celebrations
announcements
hype
tightening
erdogans
spinning
underscores
privileges
livel
surrogate
shiite
akhmetshin
pork
rices
##lance
##wo
lebron
adf
##ustomed
demag
sox
meter
##beh
limbo
ingredient
sprayed
hijacked
##leasure
seizure
shakespeare
bj
mak
pax
##sy
##amil
unav
liking
criti
##itty
theb
kindness
similarities
footing
maggie
industrys
displeasure
tightly
implicated
breached
nicolas
sinking
delighted
supplemental
agalarov
chal
repugn
##anson
cries
ort
merger
felon
separating
snake
rhy
undoing
gentleman
hazardous
umbrell
surplus
incendiary
formidable
duration
##iets
##atical
##igating
preserved
monarch
fruits
overh
swiss
disrupted
stupidity
evaluating
harshly
saints
cheerle
honeymoon
ankara
prevalent
tumultuous
illegitimate
emperor
kash
##bone
inept
exec
libel
ploy
hefty
bluff
firsthand
eli
becerra
militarily
slashed
##ueling
ruh
dismay
sectarian
##boards
inaugur
lengths
eagerly
stadiums
tornado
reopened
misunderstanding
squeeze
mohamed
ner
sou
##ders
##lif
##watch
##erity
##atible
##asper
sphere
##ieves
impunity
dob
penchant
espns
ordeal
thankful
knox
jackie
amidst
hunters
assumes
reinv
##gregate
abdel
nets
allev
coer
##uming
meddle
mayweather
##ampton
handles
steering
insurgent
secondly
salacious
emergence
keystone
councilman
resigns
displaying
##falls
##written
mutilation
##icopa
mahm
pedophile
decertify
expansive
aumf
rendered
##buster
##olve
thune
##ivities
##irm
newcom
uphill
slope
medicines
frontier
volumes
alabamas
touchdown
beds
tribun
patrols
torres
rammed
mentor
affiliates
transmission
detonated
cousins
bryant
wsj
wart
thail
dising
staten
agu
beats
rightfully
farrow
slower
boz
prevailing
convoy
jeans
builds
homan
miserable
tales
ultimat
conspiracies
digits
giul
southeastern
dwind
shayrat
cill
cows
kell
wint
ya
##iqu
##fired
##imon
##ante
upst
humiliation
authorizing
blackl
salmon
packing
domination
birther
vetted
sacrifices
coincident
upholding
analyzing
prostitution
separatists
paycheck
inhabit
emoluments
dccc
jagu
wishing
##lar
##made
##osl
crashes
graff
maricopa
intell
sandoval
benefiting
conversion
grounded
sheldon
boasting
subpoenaed
reimbursement
wagner
livelihood
celt
faux
nass
tak
tipping
wend
##je
trent
alv
alask
shelves
##apolog
disen
perj
defied
confession
culturally
freeman
sellers
derek
derived
memorable
miranda
venues
leonard
averaged
##keepers
repugnant
upton
##inho
chop
glaring
kneeled
peterson
sensitivity
colorful
jointly
asth
katz
concerted
conceived
ceremonies
biography
cohes
supermarket
dmitry
guinea
hier
hanks
upr
##iva
arming
feas
surreal
ivy
##romagn
digest
dresses
phrases
munoz
installation
authoritarianism
alphabet
krauth
nan
tul
##aly
##ecraft
heg
evid
##eys
billboard
abnorm
guiding
##yson
collude
admon
butler
funn
ambassadors
hannah
sams
retweets
inventory
priests
retracted
yuln
gamble
maximize
articulate
chappelle
deripaska
lloy
wounding
yall
##ocrat
spi
spun
impulse
misses
easing
melting
petitions
folk
soviets
joyce
bonus
motorcy
incorrectly
gloria
##ipedia
addicts
disconnect
volcano
rookie
beng
reich
##etr
contends
heb
enables
assail
flows
hars
onthe
muster
humane
greet
financier
misery
##liners
laughable
overtly
denials
admiration
intersection
disenfranch
cias
waved
##jan
##inges
repud
propelled
brewing
damon
understandably
stormed
broadband
freaking
leaker
initiate
##ihub
##heads
advertisement
galvan
##informed
lectures
guatemala
evacuees
bucks
nond
nih
##rows
##esley
##iri
cooler
mankind
capped
marit
schwart
publicist
humble
patent
holmes
probability
complied
misman
##othe
ethan
mails
perpetrator
uniforms
borrowed
kidnapped
apocaly
dame
hipp
nude
##arted
unver
blues
indec
oprah
soaring
filip
restraining
labs
deepest
injected
decidedly
behavioral
wallet
jerk
pakistans
stakeholders
zionists
barbaric
cere
tig
##mm
reim
inhib
shores
##anski
polite
cros
floy
electromagn
foe
enters
possessed
waver
blockbuster
iraqs
safeguards
madman
embroiled
occupying
gulen
solemn
theorists
##onservative
abrams
bemoan
tainted
##bour
stitch
stances
looms
commanding
bernstein
cubs
mcmah
smartphones
anonymously
pardons
bodily
deliberations
dodged
contradiction
nonprofits
stripes
paranoia
clauses
seismic
dre
eternal
raz
sig
##around
triv
##quist
draining
preach
infin
cape
interviewer
shoots
individually
smallest
walt
scramb
musicians
montes
jihadi
dunham
obstructed
oligarchs
uptick
hutch
thumbs
shun
brows
##iang
poem
believer
antif
posob
centerpiece
europes
boarded
sponsoring
recalling
nichols
brokered
cigarette
parallels
sixteen
##productive
fm
rats
##edience
##atom
##icating
##estically
spared
coat
blist
removes
betting
superf
adamant
wikipedia
astounding
##cribing
wheels
paraly
hijack
caesar
nugent
slippery
emancipation
rut
siding
zimmer
##isively
##uliar
suu
donna
impover
discard
transp
popped
erin
awaken
heartland
cracks
barrack
mohammad
utilized
onsla
peculiar
kuwait
snyder
gat
gome
laps
##arious
blo
flav
reliability
haram
laure
handmaid
hardware
circa
accessed
##ijah
battleground
malware
discovering
applicable
alterc
clergy
congratulated
thesis
indefensible
poetry
cyberattacks
##against
newshour
umbrella
dense
pie
vanc
##zi
rect
poles
forge
contenders
contributes
statistical
accustomed
joan
amash
wrist
publicized
activated
##onny
excor
skies
vacancy
prepa
semia
registering
montreal
hait
ventures
##ometric
sequence
intellihub
apocalyptic
pts
vets
recept
spilled
whack
clut
cland
sci
remembr
penis
whoop
robbed
observations
integral
##iosity
astros
warranted
surrogates
maritime
jens
nca
paw
tus
tiff
##tenberg
##ilate
##aser
##agua
agorist
blade
##ensity
##eneg
bark
organised
civility
nonvi
successive
armored
blockade
hurdle
unspec
titans
arizon
sickening
peddling
calculation
##ogenic
detrimental
semiaut
gin
stam
unquest
resolute
offend
##isham
showc
primetime
counterproductive
observing
overhauling
fooled
gridlock
cherry
catherines
thailand
rented
totten
wit
##ux
##stock
thug
adl
##abol
appell
fray
frog
universally
apar
pollak
lows
laser
competitor
dogma
acquaint
delegate
forecasters
ussr
atrocity
beverly
furniture
unimaginable
susceptible
clandestine
dive
dots
fias
pt
rin
##hire
##ouver
newark
bros
expands
expulsion
mays
outland
allerg
goodness
distorted
protestant
curricul
##ypse
simpler
pengu
silk
canceling
dismal
uneasy
touches
renowned
podestas
inherit
perceive
bathrooms
ruthless
ascend
shaub
portugal
qaida
onslaught
aster
lith
pant
tut
woo
repay
plaza
manila
feat
hears
desperation
respectfully
negotiator
sarcast
subsidiary
borne
methodology
lutheran
concepts
intellectually
##aea
oddly
publishers
stretching
transmitted
paradigm
dip
fret
tat
##isch
##thers
unimp
grin
##before
churchill
domestically
temperament
hybrid
volunteered
dynasty
brokers
##unctional
reinforced
excerpts
energized
kathleen
ordinance
dillon
hbc
##enable
##otting
stigma
wher
whining
quar
taxing
needle
companion
halting
travelled
mcfar
falwell
packers
malia
watts
flatly
jeopardize
instruments
ambiguous
envisioned
feldman
nicaragua
merchandise
vancouver
berman
kit
lon
##elig
##essa
neph
graves
explet
countering
##ovan
##ovals
eddie
classmates
favoring
afforded
carolinas
apologizing
plainly
taped
altering
sirius
unchecked
tsun
absorb
roths
mantra
elephant
tabloid
columns
bass
bicy
lamp
##uz
##itus
##uru
chill
dracon
callous
assurance
upwards
pointless
elses
canv
erosion
##ueless
fearless
suspending
faa
scrub
settling
##anche
principals
murdochs
villagers
naive
rabid
defunding
schwartz
##vable
unreg
perceptions
theod
juice
raun
denig
cantwell
virginians
painter
mistreat
athletic
satisfaction
brazilian
ibd
emptive
nhc
tottenham
crem
gret
kap
lest
tilt
ubi
wiz
##iless
##ubb
newfound
grades
##ipiac
recol
recusal
politicize
retribution
boon
legalizing
civilized
journals
opting
landl
participant
##burse
sadiq
circumvent
rodham
litmus
alienated
delete
dissenting
awaited
solicitor
duplic
likened
annoyed
forbidden
distributing
scheduling
summoned
impromptu
posobiec
unspecified
binary
ct
lame
oc
##mob
##hine
##fied
strat
notification
dew
exile
##asts
##rio
opium
finest
elijah
overhead
filter
musc
skirt
veritas
totaling
chicagos
harmony
treasure
paired
randomly
frightened
simplify
condolence
discharged
mossad
xenophobic
stubborn
tep
wires
chatt
##allah
newborn
##kef
timet
defra
signer
slurs
extinction
##ieties
embry
patrons
confidentiality
obliv
huntsman
reciprocity
alzheimers
cald
eleg
tah
##oli
seam
seahaw
liars
brend
politicizing
infants
relev
format
weiners
mindful
instituted
checkpoints
cooperative
recommending
##iotakis
traits
sunny
incarcerated
authenticity
enshr
foreseeable
ruhle
ds
zink
##antis
crist
disar
worksh
quint
warpl
childish
modeling
ramped
translator
swinging
incentiv
grossly
philosophical
scotus
adjacent
appellate
fiasco
cess
fencing
nab
rude
##lr
stair
unapolog
pean
resemble
disl
onward
##ospace
pelosis
thanksgiving
cathed
axis
dysfunctional
endeavor
fellowship
##amiliar
mahmoud
ptsd
draconian
dyst
##sex
usur
##sof
genre
realised
##nery
quicker
cyc
superb
having
determines
pitching
richer
fulfilled
stoltenberg
malliotakis
aerospace
proponent
fonda
belligerent
iaea
lash
##nb
##hat
##strom
##asan
trumpian
alde
seizing
brav
twins
joh
quad
greatness
geograph
menace
##being
urine
persisted
bailey
diary
##withstanding
accelerating
aspiring
narcotics
lambasted
disingenuous
aber
vest
reapp
perf
framing
scav
imposes
assemble
remorse
thebl
mao
classification
truthful
behaving
superpower
writings
compensate
favourite
troopers
belgian
fertil
inexper
paltrow
gomez
curriculum
seahawks
dix
hir
ia
lakes
##uley
##ipher
##actively
medically
explor
viewer
floors
wildfire
ontario
mirrors
concertgoers
intensely
censor
kissing
enterprises
csrs
sequel
quinnipiac
henderson
schwarzeneg
intriguing
pepsi
guitar
floyd
electromagnetic
aes
mta
##mc
##arial
exh
##ellar
brom
##aways
##ineering
charism
denunc
reasoned
magical
starving
trusts
attracting
speeding
wireless
clicking
inappropriately
tenth
abolition
jarrett
endangering
yulin
tacit
falsehoods
nieto
handshake
outlandish
gaming
jak
rus
##olitical
##amble
exited
liu
brace
indign
charm
discrep
ideolog
hesitation
thriving
kinda
expresses
panicked
unsust
domen
dismissive
automob
suitable
feroc
daring
intrigue
benchmark
paradise
algorithm
serbia
reimburse
baham
dap
litter
ngos
##bet
##iromo
notwithstanding
incite
##athom
passive
lara
gloves
geography
researching
kinderg
experimental
strategically
accompany
##afi
quebec
detection
bellic
summers
superiority
sunshine
mensch
mourinho
algorithms
lloyd
sigh
##ju
##leton
##igans
##ulture
stroll
breed
antar
auditor
behaved
ensuing
cleanup
appropriated
advertised
##cker
mutually
##ilitar
elevator
gazette
##oshenko
ultimatum
blistering
rang
vivid
##bir
##sk
##fielder
stalk
##amine
clueless
grisham
legion
judgement
redef
midfielder
revamp
canyon
medicinal
molec
hitlers
contracted
escort
defeats
disrupting
upsetting
kyi
rabbit
wiretap
stringent
wicked
conjunction
temptation
dobbs
kane
lure
tighter
uprising
##rest
##pret
##xpl
##omen
##essim
##unic
##agons
brushed
bristol
outset
departing
dao
gunshots
sourced
erick
conducts
practition
superfund
degener
rainbow
tolerant
rabbi
##first
crippling
extradition
iteration
masculinity
honduras
krauthammer
remembrance
boko
viv
##lain
##esson
##quis
indisp
smash
cute
floridians
constitutionality
influences
definitively
recommends
warships
unwitting
contraceptive
academia
lunatic
relaxed
fertility
mistakenly
burglary
kimberly
autopsy
rothschild
zinkes
cage
morm
moot
ypg
##stood
coie
##alls
##berger
colony
starters
steak
raiders
swipe
risked
divul
admire
snaps
ridge
guter
reassuring
deceptive
bh
laced
onc
##lassified
##wald
##oux
##ionable
##ules
prover
liable
getty
sym
schul
slur
artistic
revise
turf
lighting
dispers
roadbl
pacs
conditioning
machin
stonewall
shelley
nutri
cornell
validity
tumor
##occup
bbcnewsents
cillizza
asthma
unsustainable
pessim
meditation
planets
businessmen
aven
willfully
summed
havens
earths
animus
apartments
layers
torped
conception
mislead
prophet
cardinals
rockef
nigel
incriminating
hesitant
lance
rag
sv
##dec
neat
marriages
amber
immun
emo
teamed
apost
armies
miscon
starred
shotgun
superher
unfamiliar
victimized
myths
bartiromo
accommodation
viney
allocated
abundance
conspic
succumb
judaism
lanc
zoo
##ivision
leic
demilitar
##blem
bele
invading
intake
antide
prevailed
modification
advises
downfall
felons
varied
##rowing
physics
lewinsky
blasph
calculations
poisoned
retweet
disparaging
synthetic
boulev
malaysia
##economic
fog
fdr
qur
ripp
soup
tin
##game
trove
ador
unifying
##unes
##rique
offending
abys
propriet
setbacks
ernst
kimm
destroys
goldwater
tendencies
yielded
rahm
whistleblowers
subscribers
aparthe
indispens
mourn
rotten
tyson
wm
yong
##aqu
##iola
##olk
exiting
spied
forthe
crumbling
obrien
monroe
decorated
##anners
federalism
overre
hesitate
mattered
footsteps
burke
roundtable
intervening
renegotiation
crawford
apocalypse
euph
apartheid
cv
humph
mide
pains
rena
vested
conquer
unab
noaa
##ooks
endow
erased
damned
downright
circulation
populists
favorability
##castle
weary
bye
mcmasters
logistical
untou
munitions
hinder
inexplic
pediatric
higgins
leicester
bits
fatt
hitch
maced
mtv
vault
##orf
chatter
alluded
leather
clout
meghan
##quet
newss
retrospect
##amph
histories
multim
illumin
angels
ignited
floodwaters
pursu
govt
apologizes
##adox
##blatt
lewd
##proof
symptom
exhibited
pumping
rodrigo
fractured
disadvant
handcuffed
underwent
mideast
bored
brett
gy
nem
##anue
stoke
suicides
unify
unqualified
polanski
hemp
suppressed
paradox
massively
anglo
reactors
##riminal
hollywoods
daniels
##respected
prominently
##gregor
pharmacy
dads
shielded
libertarians
slice
disavow
pulpit
hewitt
anew
fgm
istan
sizable
wack
##ele
##enter
##idious
inelig
exor
shill
arp
expon
expel
##inks
schum
carriage
guerr
subd
afflic
transpl
booming
modify
towels
simmons
##uffle
willingly
contracting
eliminates
exercised
##baum
##ulsive
bells
pinned
salvation
disparity
whiteness
unwillingness
underscored
exacerbated
rafael
harsher
unverified
schwarzenegger
antidepress
euphrates
cue
moy
nk
rants
ranged
##rans
##inged
unhealth
##elles
##ghans
grands
disrespected
blend
backp
countryside
provinces
deniers
establishments
scrapping
queer
##wasong
forums
##help
elevate
adaptation
infantry
addictive
seizures
enslaved
microwave
liaison
altercation
guterres
fences
hect
pave
watters
zh
##oticed
prager
##olph
##urable
##aman
plur
heir
bluster
fro
yougov
glen
badge
richs
##enchon
hawkish
apologies
randy
resolving
relieve
lebanese
##rahim
ovation
impulses
endeav
kang
zomb
##erous
anom
invites
terrain
particles
totals
banana
cbss
dinners
attraction
prosecutorial
fundraisers
deductible
breaches
borrowers
lingering
jaguars
mcfarland
jorge
##fax
chave
depp
##angling
relayed
schiz
genitals
homophobic
waived
nonex
##reli
spraying
##john
lonely
reopen
insecure
bahamas
indispensable
rattled
##holes
nex
timed
flipping
reliably
specter
surged
runners
hostages
devote
incidental
castle
embassies
julius
reconcile
sacrificed
intellectuals
curtis
rouge
absorbed
huntsville
discontin
blonde
carcin
embargo
shkreli
semiautomatic
tsunami
hwasong
nim
##gles
##ussen
##aval
##ovis
imbal
politicos
smok
smug
undergrad
programmes
criticizes
marker
sexting
executing
guarded
captivity
spreads
welcomes
bottled
treasurer
casinos
literary
until
ramping
adjustments
mastermind
presumed
venge
saddened
expedition
intolerant
nurt
upgrade
##ecretary
hardcore
giuliani
gou
##hed
##zed
##zan
##ulatory
suv
yearly
agit
decap
drowned
deplet
inserted
famine
eloqu
concoct
chemotherapy
ensured
worthwhile
fillon
unpleas
darker
lockdown
dependence
tighten
preceded
inspirational
infectious
contradicting
spoiled
seldom
vouchers
astronauts
inaugurated
whoopi
ced
##only
##alos
##arling
stym
##emi
neol
choke
##illusion
evasion
anthrop
connor
reinstate
mocks
unnoticed
neighbours
stretches
stirred
architecture
municipalities
vendor
aet
cakes
ferc
wah
##inga
##oto
deuts
repression
seals
cronies
expir
##avier
mund
carles
provoking
mooch
ruining
tenants
motel
motors
destroyers
##liner
harmless
dictates
venezuelas
luncheon
qatari
coffers
rigid
punches
hypocrite
ridiculed
ridicule
chickens
engulfed
samsung
beleagu
bids
doses
hs
vap
##uers
##host
##tar
##ershow
chechn
leo
newcastle
disillusion
partnered
##integr
attribute
##annah
parody
##icht
afl
anders
boos
ski
##engineering
premises
robb
beforehand
biases
compromises
villanue
darwin
freddie
sidel
kissinger
disparities
smugglers
weaknesses
cosmopolitan
vindicated
airplanes
jungle
ica
lem
wip
##nell
##uition
stacked
##omos
notre
refere
parental
airborne
tops
paula
##shev
cypr
horribly
documenting
untold
ladder
tragically
pronounc
undertake
glorious
resembles
wolves
outsourcing
multimillion
cel
dul
stumbled
comcast
efficiently
##urned
paras
##grams
gloss
sessionss
berry
noteworthy
purposely
traitors
portrayal
rahim
outfits
theirs
inconsist
istanbul
ki
tuc
vett
##din
##bach
##pable
##anz
thest
grotes
bracing
twent
commend
##eks
stricken
backtr
refuted
harrowing
daunting
viruses
awe
closes
touring
endorsements
portraying
looters
tailored
donnell
impulsive
gaffe
rattling
kellog
theodore
beleaguered
dina
dwell
rasm
##pen
##reet
##usable
brunt
stature
##enson
stewards
foxnews
classical
complicate
transferring
submission
evaluated
shallow
stalem
mildly
navigator
##politics
plunged
prudent
proportions
denuclearization
antiquities
swirling
perjury
cathedral
bellicose
unhealthy
sank
##could
pepp
fromp
carroll
earns
undes
##fefe
lefty
condone
behest
christine
skull
skipped
autumn
satanic
snub
worthless
##risome
doubtful
cornerstone
possessing
infiltrate
clayton
adventure
##firmed
fraternity
brawl
expletive
kimmels
##ershowitz
dershowitz
kraft
##bank
##some
thieves
plates
meddled
everybodys
helpless
sexy
swear
denier
stripping
accessing
##uchar
sensors
mali
parenthoods
grabs
##holm
sampling
reluctantly
tampering
databases
expedited
unchanged
meteorologist
deplorables
relocate
confiscated
ounce
paxton
nonviolent
relevance
boulevard
unpleasant
cyprus
motto
pals
vom
##bys
##gess
##stons
clich
##awi
composition
directives
slav
exploding
specialized
westminster
destined
occurrence
subscript
ridden
pentagons
##marked
darling
moderator
habitat
kristen
rugby
wifes
evidenced
impoverished
ineligible
kum
rails
sut
touts
##eta
deeds
clam
worrisome
obese
bew
socio
nightmar
fireworks
murky
diverted
##umbles
painfully
rounded
broadcasts
mercen
obligated
wasteful
hinting
undertaking
plagiar
##atriotic
prostitutes
evolve
lungs
precaution
schweizer
indoctr
trivial
vettel
faw
lighter
okee
poc
##via
stokes
chand
sho
##endously
maniac
evade
##inda
rove
wrench
caric
finland
mature
empath
distanced
##iciencies
housed
admittedly
woodward
accuser
screenings
switching
marsha
laundry
barrasso
##oppy
liquor
cinema
hormone
refreshing
inferior
aldean
heter
##oil
rey
worsen
grilled
heel
##ensical
mariano
insecurity
##resident
purse
##ophren
cheat
creativity
senses
conspiring
gayle
retali
yours
forests
untruth
alpha
merkels
outnumbered
disbelief
renaissance
lovers
tsa
##fur
##icacy
deer
spelled
coons
##endo
grues
cair
instruction
slips
moroc
explored
receiver
devised
coalitions
nominating
accomplic
kickbacks
pregnancies
bodied
contests
rooting
commemorate
reprim
lauder
dart
nhs
tass
##icular
##itations
alley
bred
perp
scaled
warrens
##outing
thinkers
investigates
signatories
realizes
android
restrained
rulers
ledger
waist
##boro
declarations
graduating
concentrate
trickle
railroad
prolific
lenin
arrogance
burdensome
flourish
correlation
warehouse
chavez
okeefe
nv
piled
xavier
##hall
##hift
##atized
traces
##uds
monkey
decisively
##ondition
policeman
airwaves
launder
creed
restruct
willie
devils
sniff
bythe
objectively
welch
cabal
vaugh
##comings
monumental
curtain
clowns
mongering
infuriated
uploaded
elitist
unconventional
nonexistent
retaliatory
fom
gos
rope
##orph
choked
clo
complement
issa
realization
antith
specializes
collateral
##onnie
puff
tillis
educators
assistants
panetta
curbing
bolt
iceland
disapproved
sponsorship
xenophobia
swastika
procurement
arpai
schizophren
ces
##zman
##isiveness
##imeter
memp
strains
backyard
remn
coral
foil
antis
antig
kemp
distaste
shortcomings
baseline
treacher
churchs
strangely
cleaner
punct
concerts
bolshev
pardoning
instructor
bandw
intrusion
poisonous
rehab
unseat
astronom
grapple
gusts
dudich
undeniable
cunning
shovel
scrambled
gruesome
ase
gn
##eer
##green
##asement
chimed
##aines
##vez
liabilities
mann
ami
mayhem
speculating
realise
airs
glance
##atorium
solitary
awake
voicing
indicative
utmost
capturing
characterize
caroline
precarious
darkest
rubin
masse
discontent
rackete
indifference
abnormal
memphis
tand
tapping
##ci
##late
##words
##isy
alice
presided
coy
compos
scorn
indiscrimin
flavor
##ucted
goodwill
valerie
communitys
ensued
wording
imaginary
settings
spacex
fatigue
yesterdays
beaches
unlawfully
deprived
ankle
annoying
covfefe
snowflakes
wartime
##bourne
vas
##might
##frey
##witter
##onian
##states
enqu
##ryn
bees
recurring
##ledon
engel
greene
mcint
mosquit
balancing
unpatriotic
punk
##ochem
microc
disruptions
harrisburg
intensify
stabilization
depressing
feasible
ein
hos
nah
wimb
##fin
##aments
resides
ama
regnery
confin
carpent
underage
pollut
admired
heartless
austrian
scroll
fixes
##claim
##laus
eaten
dishes
exceptionally
orthodoxy
geoengineering
vitriol
icahn
grotesque
fak
lapse
ritch
ramb
reimp
spiel
donovan
disqual
##ouring
countys
maz
afghans
retains
##atural
artifact
opera
collisions
makeshift
##shaw
armor
positioning
clem
curfe
begs
wilderness
santos
alienate
axel
exceeds
treasonous
airbnb
eradicate
scavino
wimbledon
gadd
lac
vert
##ienced
##enow
##itim
incess
deme
##ailable
##itte
lawfully
depot
studys
moreno
gunned
sanity
sonic
environments
rollout
toured
franco
derog
consistency
chao
sunk
magnific
perpetuate
resurf
tammy
depicts
amplified
outlawed
wittes
sniper
byrd
corridor
hegem
confinement
fs
ucl
yug
##jar
##orian
##asting
unfl
crunch
attributes
respir
sof
harness
edt
condesc
paused
latitude
complains
accessories
projection
pretended
cato
capitalize
mcmull
litany
leaned
blowback
elaborated
krug
hastily
bcra
expiration
bashed
kits
##ingham
congregation
alis
##abouts
orph
imam
quiz
quasi
hermit
replaces
mcgregor
iraqis
worded
integrate
wheat
coffin
rioting
diminishing
drunken
reshape
mcclatch
estranged
hoffman
kendall
alumni
bum
rife
regress
stoked
##ivasan
implant
idol
soared
transgress
delicious
purity
multilateral
dreamed
curiosity
semin
sadness
villa
succeeds
distracting
translates
teachings
possesses
northwestern
miniatur
worsening
fingerprints
villanueva
fah
hicken
jok
##non
##nie
prow
shir
pep
freezing
##haj
amazons
sheets
pointedly
psychologists
##avering
faulty
intercepts
binder
enrichment
moulton
diction
dwar
##mith
##taking
chess
##akia
unwise
droves
preoccup
strive
backfire
reliant
discomfort
entail
surges
homer
treaties
vari
arabias
buyer
captures
radicalized
royce
constituted
klob
excellence
##interview
swaths
disguised
negligence
lehtin
overshadowed
abhorrent
ortiz
ncaa
stalemate
dizz
fd
fas
fisc
omb
congl
exasper
sparks
clovis
plut
##agne
##avia
couldve
backbone
daylight
remake
showcase
goodman
sloven
muscles
metric
firebrand
criminally
easiest
favorites
recognise
shockingly
uncontroll
telecomm
obliged
photographers
nuanced
railing
##strong
baghdadi
vibrant
extermin
unearth
rockefeller
hickenlo
bp
socks
##tic
##foy
##owning
weaver
britt
##ovo
endlessly
powerhouse
sanford
tarn
sandberg
exclaimed
generator
bushes
wingers
panthers
dismisses
baiting
chapel
bailouts
unpopularity
##republic
receipt
tiffany
machinery
demilitarized
pursuant
grandson
dv
damp
gav
##onf
##arus
segregated
cob
monarchy
frantic
mayo
judgments
redstate
patric
throne
##broken
beneficiary
ruff
suffolk
narrower
fairfax
overseen
curse
curbel
captive
dictated
ticking
guessing
acquiring
cooling
professionally
irrevers
stabilizing
unreliable
scrutinized
comrades
chechnya
gum
lp
lol
nails
##bill
##binder
##gio
shoved
spains
plank
bride
enrique
orrick
##ervice
finn
finale
russiagate
caliber
equiv
keynote
armys
verification
catalyst
advertiser
gradual
replacements
fromthe
romance
haberman
reckoning
fetus
psychiatrist
utilize
schneider
intermediary
articulated
pioneer
categorically
proclaiming
emphatically
culprit
refriger
arpaios
pesh
tpp
zach
##gey
shab
##ogues
decrees
reflex
breeding
swung
develops
epit
ruins
magist
benz
arabian
closures
promotional
improvised
nonsensical
jennings
girlfriends
naples
sicily
resonate
greedy
##hearted
plummeted
overlooking
omnibus
spontaneous
rhyth
rasmussen
fib
sizes
yach
##vation
##asia
preet
insign
breyer
thereof
salad
burton
felix
ultras
collections
keny
##boat
retirees
sprint
huddled
roofs
inhum
laptops
tyrann
stirring
slaughtered
breadth
upgraded
thwarted
hanson
bombardier
zarif
alleviate
ech
fod
fiat
ranges
##journ
##rea
pry
spate
##agate
##osted
marin
flower
syl
paraph
vienna
headaches
nearest
raul
danish
diversion
layoffs
baggage
structured
unwel
delegitim
sympathies
toback
hangs
gmos
reopening
supervisors
grappling
mishandling
gown
oconn
sreen
zap
##kers
##atal
nepot
exits
spac
unman
plast
arson
supplying
##angu
intox
##isexual
edges
blackwater
swearing
basics
existent
tommy
coasts
casually
romania
chapters
containers
infamously
fabrication
##robe
resurgence
nicknamed
vandalized
incoherent
spiked
theblaze
ave
iiss
##max
##istered
sues
whisp
anat
ish
megan
##inkle
marlow
relinqu
paramed
maur
barre
##parable
##ipper
starvation
battled
performers
alexis
quarterly
reinstated
astana
inflated
warmong
toddler
discouraged
detainer
pillar
gifted
dishonesty
swayed
wicker
portraits
juggalos
schedules
precautions
zakaria
hollande
eugene
reinsurance
dicap
adapted
pamela
fantasies
sperm
graffiti
celtic
quran
aetna
hickenlooper
sreenivasan
kagan
##iters
monstr
doocy
##affer
hardship
herbert
singers
armada
gillespies
stimulate
cheney
cambodia
fernand
gast
gmail
lena
pup
##iaries
##bms
##requ
aloud
shade
spit
adrian
coined
scoff
dover
happier
##enegr
startup
esteem
candidly
halft
armen
dolls
seasoned
dominating
ukraines
spirited
biometric
confrontational
jumps
wherein
hyd
oliv
enormously
sympathizer
exceedingly
cafeter
##unications
klobuchar
bisexual
dipped
euth
pall
paved
rf
zip
##hairs
##icia
adjud
newer
sykes
milan
retake
morell
globalism
discriminating
blasios
transforming
thedemocratic
coincided
hazards
mixture
handguns
ousting
bryce
deteriorating
narcissistic
annihilation
wheres
warplanes
mcclatchy
mired
pity
rw
##oria
repet
##season
shangh
craz
##izens
partisans
##ostic
caves
recapt
flame
desantis
pastors
audacity
tomb
battal
crosshairs
montenegr
heavyweight
teddy
nuns
springfield
sideline
wwii
underscore
paramilitary
##avelad
exacerbate
insects
dissatisfaction
fattah
antigua
axelrod
inhumane
cans
voy
##rued
##iya
##witz
tran
##estation
##agh
raft
massie
ruler
unclassified
selfie
felonies
paints
bombastic
malaria
eyeing
dncs
unwavering
athletics
tremendously
baltic
dimension
recounts
enthusiastically
reservo
incorporated
commodity
hensarling
mismanagement
torpedo
cis
kud
kass
nras
stack
##andro
anarchy
manus
emblem
hostilities
geological
ceased
messing
urg
impacting
commonplace
casts
impeachable
heroism
skewed
mixing
gardens
loudest
cookie
feuding
cordray
dividends
erroneous
nostalgia
endowment
paraphr
bere
ration
yon
##ais
##reter
cozy
dooms
helen
##obama
conventions
ideally
accountant
selfies
preventive
snoop
mistress
filmmakers
faiths
baier
distractions
gigantic
##handed
puzzle
scourge
proverb
enquir
fiance
nance
nda
nascar
pumm
##hots
alas
deems
coaching
unin
pea
usaid
heating
invasive
evenly
differing
tarkan
willful
designations
##afa
locking
virtues
archbish
savannah
interpreter
farewell
hierarchy
mistreatment
lehtinen
bb
fuk
jaze
mam
mouse
seller
##cor
##gue
##neum
newman
compact
outward
allahu
centrists
morons
thriller
silently
burge
##racted
rebuffed
##iscalc
pitches
suppliers
olive
pilgr
boycotting
scripted
dearly
unravel
deprive
architects
poroshenko
accumulated
neoliberal
aub
ming
sauce
alright
##ahe
onset
smiled
downside
florence
##their
educating
groundbreaking
capitals
derailed
tablets
corresponding
pharmac
cleric
hindu
facilitated
ebola
surpassed
fervent
analogy
bachelor
bystanders
timetable
disarray
miscalc
zel
##ea
##tm
##xx
inception
womb
humility
##atte
misbeh
pershing
township
avoids
escaping
scramble
sickness
mobs
selecting
acquies
##writing
merciless
mortg
widening
container
adjusting
aborted
philosopher
omitted
bonuses
gearing
defections
hugo
bunny
buddhist
zimmerman
curbelo
kant
##sight
##wins
##icos
spaw
resumed
atlas
##ordable
blink
lawlessness
indias
statehood
abadi
administer
mrc
provinc
onstage
powerless
slipping
##lette
superstar
##haus
australias
guilfoy
normalize
##rolled
regretted
printing
##friday
wisely
voucher
handcuffs
merkley
coercion
hebrew
nephew
rauner
racketeering
ritchie
irreversible
monstrous
kavelad
##xm
##once
##enne
##emit
##ulin
##chief
whom
##agements
nobodys
monsters
dole
##unders
holdovers
goddam
furth
hyped
champagne
reactionary
assemblyman
toxins
##akedown
slightest
gallon
shroud
sidest
coincide
scripture
##hillary
infiltrated
spurious
unequivocal
abundantly
prestige
##build
ezra
anarchists
seventy
unsettling
bozell
recollection
tepid
tucson
derogatory
joc
pneum
sack
##did
##ews
##esch
##alach
ingest
truste
unres
arist
attribut
billboards
outing
irving
barnes
raced
meticul
generates
silencing
tomlin
benign
embarked
hammond
animosity
miguel
khaz
exploits
uttered
collapses
hijab
dwight
smoothly
coveted
jolie
shaky
downgraded
awakening
bung
eh
kham
mell
reside
commuters
fluct
daytime
wrought
withthe
earhardt
millenn
uphe
glowing
currencies
wedge
winding
flagship
greenblatt
protectionist
##ascular
mandating
vaccinated
warsaw
whereabouts
shoppers
forgetting
renamed
submissions
##charge
fluor
gestures
defects
pedophiles
amplify
topple
replicate
staple
trustees
cms
dh
hilton
lug
nope
soy
##aut
##ei
##bound
##pv
##there
##ection
##grown
incurred
##introd
pertin
blitz
strapped
backer
prototype
confuse
harlem
buoy
nearing
mornings
mcs
landrie
indicators
disperse
ethic
attendant
bedrock
complicating
forgiven
santorum
dietl
supervised
redistribution
newtown
gorge
neighbourhood
##upport
guru
implicitly
bachelors
atheist
bestselling
critiques
handmaids
depleted
foll
fade
woe
##eur
##kar
shack
##aga
incitement
aggregate
defunct
belarus
efficacy
smashing
slander
edged
boil
incremental
profanity
erode
designate
talents
subsidizing
impeaching
woody
observatory
occupational
sustaining
bulls
bleak
decreasing
kerr
stalwart
quantity
worsened
hogan
verbally
plaque
jewelry
shepherd
fiscally
nepotism
shanghai
aur
bakers
bacon
ck
coca
ober
pine
vern
##pace
##idel
##reve
##opic
##nton
prese
coma
univision
envelop
interc
preaching
backfired
##many
departures
condo
handy
blackout
metoo
engagements
collided
acronym
ofbul
verizon
grahams
protectionism
cleaned
modernize
advertise
beard
asthe
parliamentarian
affirming
omission
lapierre
hijacking
proxies
gaga
toppled
buddies
nullify
overheard
kashmir
unwelcome
bick
##aic
appalach
syc
undergone
jeh
giveaway
ambival
resignations
guardiola
wealthier
watered
endorses
mouths
censored
disappearing
outbreaks
obliter
misunderstood
unaccount
disguise
stifle
pseudo
pf
zika
##iu
gofund
##ials
ari
billing
guessed
harold
subc
toensing
hardball
staffs
##bright
totaled
##ippers
snopes
rosatom
recognised
copied
##zza
australians
partnering
professionalism
magnet
assassinate
nigerien
vigorous
flashback
injustices
##unctions
frederick
cowardice
reaffirm
##ovsky
ninety
unraveling
dental
norton
sonny
##kman
##vp
##ilis
trum
##verted
##ulously
spine
spelling
peru
friction
newscast
statesman
coloss
posturing
leftwing
potter
equals
streep
senatorial
uncomp
thirteen
windfall
balked
consisted
purposefully
comforting
triggers
rebuked
taser
retailer
omaha
theoretical
hammering
eclips
hypocrites
hemisp
consolidated
mckesson
rendering
sheeple
patterson
tigers
archbishop
ofbullets
ding
dunk
lous
##sl
##wear
trashed
##antically
acclaimed
##ourage
lawless
deserving
insidious
earl
##promp
booted
##beville
kindle
buildup
diplomatically
balcon
japans
psychologically
kidney
magnate
solidly
lords
levied
clerks
helmet
pharmaceuticals
loosely
bitterly
huh
##quitous
eugen
alfred
sidelined
peshmer
tarkanian
aft
bard
##fighter
##ativity
stumbling
seuss
performer
flir
gupt
parades
elusive
slump
transnational
##media
visibility
restart
generosity
loomer
portal
float
rider
disclaim
leeway
linkedin
bullies
youths
lucy
innovations
disappearance
mechanical
thinly
unnecessarily
installment
mobilization
accommodations
cherished
pumped
syndicated
consolidate
viciously
plunge
mlb
enshrined
bds
fists
pairs
##four
troy
##amy
##esto
cafe
##rae
takeaway
staffed
briefs
criminality
shuttered
reboot
dispens
volley
amazingly
biot
mirac
instructing
stressing
persuasive
masterpiece
reassured
unveiling
##omething
mobilized
azer
sabotaging
recreation
gentlemen
interrogation
mosquitoes
preseason
tog
vain
##wash
##ratory
reconna
##isha
supplements
carved
##ieth
strife
armour
energet
logan
weaponized
kremlins
planting
inquis
##laughter
perpetuating
calculus
artificially
rehears
parameters
refinery
antibiotic
repatriation
purveyors
inhabitants
bewild
jazeera
guilfoyle
pertinent
reconnaissance
lent
mash
##uels
##fly
##enate
chut
demented
caj
##ucous
decrying
amic
desirable
hari
justifying
pauley
deval
pleads
regulator
ruby
embraces
renewables
trailing
litig
boliv
chapo
lunches
coffman
moody
await
synag
##wednesday
bribe
cultivate
merchant
fugitive
curfew
peshmerga
casc
##card
##coon
chun
alger
groom
disheart
envel
decimated
sco
scant
##angement
rooft
slides
##iversity
vein
storyline
fuller
lowell
circuits
pretense
designers
riddled
knicks
scandalous
innocents
dojs
disgrunt
symbolism
sustainability
stemmed
misogynistic
steril
cultivated
volatility
deposits
strongholds
styled
ottoman
sewage
brendan
blasphemy
telecommunications
dicaprio
envelope
cay
dues
eased
sony
tires
vick
##top
##urge
conqu
beans
##ittal
impat
flanked
acoust
smiles
stefan
hardened
sitcom
strongman
totality
misplaced
missteps
##uggish
##especially
concentrations
intimidating
stabenow
overlap
tossing
deceit
idiotic
granite
bolstered
adolesc
schumers
spacecraft
cbc
cache
kan
kph
licht
pits
poker
ripe
temer
yields
##lieb
##wal
##orates
rees
pern
housew
workings
drown
belated
surging
payouts
distancing
affront
headache
calories
geoff
apolitical
deadlock
espoused
lowers
starr
loosen
hurry
births
rescuers
smithson
rodney
lament
alerts
infuriating
inundated
ethanol
arizonas
ubiquitous
provincial
ike
xl
##rera
##uance
##fusc
##wala
##avior
deconst
marble
toldthe
wraps
##urrent
spewing
refined
smack
##asht
mores
orderly
socialized
futile
deepening
knowledgeable
sucks
imperfect
persuasion
menendezs
galax
pillars
##interpret
kristol
soliciting
remedies
caveat
skyrocketing
privatization
unaffordable
pizzagate
superhero
magnificent
respiratory
cio
elic
tipp
vying
##nox
##mat
##atra
congo
neal
presc
spie
whipped
##una
incest
invention
markey
impet
defens
carve
barz
edgar
blackm
swap
booking
solomon
misde
silencer
trooper
sensation
amazed
sunlight
##blue
punishable
bumper
contestants
stressful
pinpoint
smears
tyrant
stereotype
pedestrian
cocktails
elephants
servicemen
mormon
ucla
fodder
faded
rays
tame
vip
##nia
##icans
reorgan
stomp
stoking
trumpers
spells
coins
asa
grill
displ
obnox
drank
retaining
potato
watchers
epstein
populous
hotly
tenets
ambushed
goldstein
rankings
clarifying
pyram
dissu
motivate
whereby
scales
nicely
terminating
besie
juncker
satisfying
installing
mobilizing
kathryn
contemplating
swallow
##wakingtimes
razor
wizard
dictionary
landrieu
sina
##ten
##ersh
##ctv
chopping
saul
alvi
spencers
##enda
ans
arra
houstons
accred
obfusc
wrapping
theun
parr
harper
affinity
steered
##atta
shortfall
melbourne
periodically
surveilled
grips
broadcasters
transporting
comprehend
mortar
sampson
absurdity
exporting
distinctive
drip
trespass
oblivious
kindergarten
burgeoning
biting
eo
fount
nay
##iency
##fi
##fo
##zes
##olini
##eca
##esting
##very
oneill
carrie
maver
andthe
antid
distressed
despise
greeting
tempted
cubans
ratified
##daq
surgeons
jihadis
webb
elevation
enhanc
salvage
##ariably
psychiatry
southwestern
extrav
bundy
postpone
fixture
paragraphs
indefinite
distributors
refineries
baffled
wenner
restructuring
nal
pett
rides
wither
yog
##neck
##amount
twists
strident
outpost
everytown
repeals
arranging
specialty
localities
simmer
##roach
divisiveness
tread
launchers
tripled
dismayed
trustworthy
unexpl
gatherings
cellphones
##clinton
rosensteins
inflow
censoring
manslaughter
rioters
leslie
rewriting
gottlieb
imperialism
override
underestimate
##runner
transpired
urgently
dab
gull
yane
zor
##rh
##eh
##law
##emia
##emade
##irre
prescribe
unites
grub
inclin
invariably
preacher
supplier
parscale
onerous
##ampaign
swore
calam
pops
sandra
professed
seasonal
updating
registrations
festivities
egypts
springsteen
nasdaq
notoriety
gabbard
publishes
breathtaking
raymond
federer
enablers
detonation
tubbs
exhausting
detriment
girardi
tirelessly
freelance
asteroid
vengeance
patricia
khamene
doping
gch
##osaur
alarms
perri
aman
onlook
airtime
clearances
ilk
mccoy
patently
midtown
devoid
salaf
surprises
tvs
##weg
handsome
modernization
nigerian
finishes
mcdonnell
unproven
hassett
hodges
quantities
discretionary
apprehensions
staunchly
reservation
throats
##patrick
incorporate
tattoos
inexc
prevalence
claude
inexperienced
perplex
upheaval
gofundme
disgruntled
bach
cuff
hord
jazz
ket
paving
sop
vangu
##gis
##edo
##esty
repar
##eyn
mario
growers
builders
canal
thirst
sharks
eighty
stockholm
natos
registry
qualification
evacuating
icbms
loads
lapd
discounts
siriusxm
mortgages
sycoph
hemisphere
cels
dough
pist
panned
yu
##des
##zh
##atars
princes
congreg
presiding
shamed
shouts
unatt
unhelp
clamp
disintegr
stats
induce
norquist
entourage
missp
liberate
hardliners
patents
lessen
videot
involunt
devout
##ointed
tenuous
macdonald
##burger
quotas
naj
railway
retweeting
inflammation
exempted
pirates
eruption
gwyn
summarized
avenues
plurality
ultrasound
cafeteria
cic
cott
dt
fiber
fizz
jal
tories
zimb
##hap
##ori
presently
peac
demoral
##ogby
##ourt
blunder
deference
##oodoo
sloppy
setup
boiling
debilit
raucous
engages
moist
purport
preposter
offerings
faithfully
honorary
assassin
ferry
##monday
anticipating
##interested
depths
microsc
quantum
schlapp
merrill
funneled
kazakh
kaveladze
celsius
piles
voodoo
##felt
##ouns
##stad
trashing
reprieve
timber
commits
opined
##owner
refute
estates
messenger
mischaracter
productions
##rington
sharon
respectable
hurled
physi
parenting
vanished
catches
darren
oceanic
tackled
rewarding
boomers
expedite
suppressing
prostitute
thetimes
perilous
relegated
motorcycle
frompovich
carpenter
yel
zo
##ng
##city
##published
##tys
##ilated
thur
##imented
chol
shove
dragon
drowning
imped
charming
upstate
visions
homework
cantor
##etto
marty
##rolling
mirr
astr
pipes
cowork
bowling
conceivable
##glasses
championships
mulling
hindsight
vaguely
disseminated
negro
dissidents
hoyer
artifacts
spiegel
poul
raged
sans
##nut
##bag
##volent
##online
##orah
##iden
##ulk
courier
goof
shiny
spd
whirl
polio
asians
crane
brist
statistically
##ovakia
flank
deposition
outed
viability
barber
failings
winfrey
##whether
destinations
tempting
customary
screened
spani
savior
trainer
attachment
equivalency
pumps
renegotiating
yankee
unseen
##funding
sodium
outdoors
neighbouring
medioc
livestock
unhelpful
cull
dice
fiv
fry
hiss
kw
kon
lil
mused
sri
##onial
##itens
##leigh
##otal
prer
##emont
groped
expos
bland
fruition
##ekah
asshole
teresa
phased
##insons
handic
veil
poppy
##workers
pauls
satirical
copper
kara
plantation
blogs
carters
unprep
hyde
provocateur
smeared
##frame
contraceptives
classrooms
placement
morphed
##journal
unmanned
vanguard
bert
fifa
hil
lugg
linger
mates
sf
xia
##came
##called
##bons
##gens
##jas
tracy
##ivol
dehuman
prescribing
unamb
plough
decor
decriminal
frost
termed
##ibal
##gery
importing
organizational
singles
variation
variations
lois
loesch
anglin
shuts
##ija
##lights
characteristic
sherrod
legitimately
##oxone
##monuclear
revolving
hashtags
grenade
anarchist
aspen
corroborated
dwindling
wacky
remnants
pernicious
misdeeds
luggage
bree
eaves
fend
ks
livid
##verts
saber
alonso
##aku
notions
incarn
attends
caved
itd
flatt
accordingto
militaries
overbook
overweight
geist
reformed
greitens
canned
generational
##etermin
populace
##ieces
tomatoes
portable
verse
##weeted
reacts
##bole
evils
mnuchins
speedy
constituencies
##daughter
klans
interventionist
hampered
intensifying
levitt
##trak
snowflake
duffy
subversive
das
gel
hag
lis
mb
rol
rino
##ross
##horn
##pan
##girl
##villes
##ometer
##ety
goose
##awk
phd
caputo
nowad
##biased
thermonuclear
mcgr
skimp
misinterpret
angst
appeasement
performs
francois
furor
attendee
reflective
acquittal
lamenting
forecl
calculate
ringing
marshal
leonardo
demonize
scratching
conveyed
barricades
unquestion
automobile
unprepared
eid
fats
haid
malk
##iks
##enstein
reap
choking
##ustered
frames
scumb
assuring
amassed
##ilyn
schatz
##ificant
informants
explores
democratically
reviving
wrongful
multitude
boyd
robotic
innocu
radicalization
succeeding
calmly
collaborated
dismantled
colombian
lodged
byrne
gleefully
redskins
schulz
zombie
unearthed
unresolved
cc
cush
gently
hott
krik
nave
nerves
racked
##aci
##udging
worsh
frivol
scans
norweg
acas
afoul
passages
southampton
freeing
reformers
noncit
holly
merry
tomi
##balls
cyrus
ultr
rebut
prayed
automakers
deployments
outsk
reiner
comfortably
persuading
fledged
alej
taboo
buffett
irritated
orchestra
misdemean
melanias
bengal
nutrients
gushed
pug
##both
##fam
##washed
tray
##aka
unreported
workout
##erty
emission
millers
theology
empirical
researched
erasing
rebekah
hallmark
imaginable
patriarch
tunis
dotard
skyrocketed
hormones
conspired
stagnant
minerals
multiculturalism
vineyard
rhythm
barzani
gwyneth
nowadays
outskirts
ace
bounce
cud
dess
hailing
lanes
muted
tp
yun
##itaries
##released
##elos
##estab
comics
spills
limp
disli
##ussion
newsmax
marilyn
flashing
##angle
detaining
skirm
emeritus
shareholder
superstorm
preventable
cooperated
renewing
##baij
splitting
karma
activistpost
sighted
illustration
barton
haunted
outpouring
cohesion
acquaintance
dulles
proverbial
inexcusable
preposterous
unambig
fow
gee
pkk
wenger
##cat
##pour
##urious
##usch
notices
##ieved
cluster
##lich
offline
isps
compart
##isson
passover
esque
esche
morals
redr
banners
moveon
equating
mcf
##ikas
rupt
burma
##arching
##hea
knuck
jacksons
environmentalist
reinst
doubted
bodys
punishments
warrantless
overturning
lynchs
implored
jordanian
intrusive
descriptions
downplaying
phillip
abolished
beckham
whisper
culminated
misrepresented
receptive
hegemony
krikorian
fading
zerv
##eight
##master
##high
##oufl
##enthal
##thursday
##ffe
##ighted
unfet
plural
agitated
compounded
compuls
belly
playoff
elena
afar
slack
numbered
hourly
islamophobic
uncondition
ukip
loom
berets
confrontations
scientifically
exams
collaborative
dignitaries
installations
solicit
disconnected
antidepressants
undergraduate
tyrannical
trumka
sinai
unfettered
cain
fen
kub
mint
muss
ostr
vince
spikes
##mert
assanges
edit
turnover
debuted
modifications
firefighter
##unted
contacting
bennet
conflicted
roundly
checkers
madonna
hospitality
examiners
stuffed
streamed
feinberg
interpretations
gregg
precedents
hooked
geared
detainers
hersh
joelpoll
allocate
paso
euphem
beheading
coercive
proportional
disarmament
hutchinson
yugosl
smithsonian
joelpollak
ely
nailed
ras
sock
##idity
trench
congest
##thes
manig
bef
##ishment
amusing
needy
cola
soho
factually
delusion
denounc
thermal
situated
moines
responsibly
davidson
versa
sheila
babys
sorrow
observes
stickers
luk
##opolous
santia
unheard
heralded
prioritizing
marxism
whiskey
##immig
mimic
complimentary
annexation
disobedience
azerbaij
zimbab
debilitating
bates
dour
etern
flick
mald
##rit
##lift
##mi
##mor
##enko
##otus
##omi
##adas
##ifier
heap
attain
maya
##anco
##ieri
farce
gunmen
audition
ofa
projecting
persists
winger
fills
rapone
fatah
smartest
ramire
narrowed
enhancing
shadowy
bastille
knights
wendy
jokingly
fernando
lenders
ole
pandering
ud
##count
##story
##uspect
##utable
deleting
unbiased
cling
lily
beau
counters
quart
indies
inducing
##pring
entries
devolved
##iscover
downed
combust
mosqu
petrae
innu
packaging
maloni
coastline
acknowledgment
##factory
pennsylvan
perpetuated
blinds
constructing
batting
discouraging
inspires
lecturer
phenomenal
recounting
revered
unpredictability
undercutting
neocon
styles
misrepresent
enlighten
therapist
nerd
newcomers
dystopian
disillusioned
mcsally
yanez
ail
cctv
dum
jpm
lenn
mello
osh
pend
##iman
chore
republished
unv
weeds
##ousse
republics
quid
impasse
striving
outperform
allison
##feas
ante
overarching
secretarys
steemit
openings
traders
heartbroken
peacekeeping
connects
robbing
camoufl
reelected
scaramuccis
gorkas
reassurance
forbids
unleashing
smuggled
unmist
immensely
hansen
abundant
vicinity
deposit
descendants
scapegoat
livestream
waning
transcend
tusk
prowess
battalion
montenegro
obnoxious
manigault
ie
jed
ome
wemble
##metz
##onium
styl
##ateurs
whims
##rium
##ogy
mara
centres
sergio
overp
overfl
texting
eras
singling
##ikers
expectancy
narrator
correctional
londoners
dominica
texted
##wright
webster
griffith
colonies
forecasting
novels
simultaneous
retraction
overrun
gilbert
certificates
ransomware
jamaica
bjp
peanut
backpack
besieged
khamenei
bites
lust
tumb
vander
##aton
##opa
##then
##thood
presidentdonald
##uder
clan
fors
pee
crank
evap
recert
##ovascular
imposition
stray
depiction
soaked
justifies
toast
sexes
filthy
##alegal
equitable
occult
religiously
sharif
centralized
unelected
derangement
venezuelans
beasts
ladys
kissed
cryptic
ambiguity
underestimated
embodied
beholden
subordinates
exponentially
demeanor
krugman
perriello
zimbabwe
au
kern
pi
##holic
##enh
##otas
stero
##ieval
bricks
perch
minions
pais
revisions
##books
##iscop
equated
miser
letterman
cheated
commanded
citizenry
germ
reassert
boycotts
exceeding
theatrical
inhuman
steinmetz
facilitating
degrading
interrupting
irregularities
unapologetic
transplant
vapor
antisem
halftime
prerog
wembley
ecc
ibm
jub
litt
tender
watt
##isure
stigm
coke
arb
quell
consular
dove
propel
retic
handlers
profiting
swings
expressly
essays
ivory
coptic
squab
cables
caucuses
apologised
gutting
telepromp
dodging
munich
fateful
##strike
summons
victorious
mudd
brigitte
reverber
resembling
exxonmob
unwittingly
disadvantaged
ains
gq
jost
rita
##rador
##acement
##emin
suz
presumption
forgo
beir
scrib
screed
mediation
medieval
##prom
password
underpin
subvert
thrush
sonia
lackl
cancers
cynic
utopia
londons
mandel
natal
precurs
deliveries
recipes
skinned
abducted
uniformed
marshals
mechanics
dietary
reinforces
ushered
commodities
catering
ideologues
unabashed
imbalance
smokers
doomsday
spawned
innocuous
norwegian
bake
bened
eminent
iger
tps
waff
rech
stellar
trots
choler
sag
contra
bra
##inding
frantically
evergreen
flare
flowed
##outi
minn
theological
upend
overstated
glitter
##ype
valent
christina
excused
mattress
##osphere
##owsky
conversely
suffice
heartfelt
chev
superiors
ethi
beret
odinga
permissible
cuomos
contestant
resorted
stampede
galv
brightest
ranting
rudy
hilariously
unbelievably
robotics
interacting
shepard
blazes
monopolies
safest
unavailable
charismatic
fukush
##ashtun
aung
gimm
kyl
pashtun
ruse
tug
##bath
##gap
##isput
almight
goh
seaf
arising
broth
joey
implaus
mayer
intric
guides
courtney
somber
runaway
submer
vega
owing
mole
audible
skipping
counterfe
combining
laborers
coping
claremont
disservice
leanings
##def
taping
boundary
paintings
synonymous
browne
misogynist
steeped
nolan
scolded
unregistered
heterosexual
enquirer
santiago
ramirez
mosquito
cind
dried
fathom
piling
tink
##hh
conquest
sailing
##ocial
leisure
presid
blur
amster
##ancer
showtime
##obi
##ahs
props
sermon
protestants
betty
kindly
homs
##apeut
dreaming
licence
beyonc
soften
transitioning
catcher
reputations
hamptons
ecst
libraries
dolan
intolerable
hyperbole
reunion
puzzling
reauthorization
disbanded
paralyzed
elegant
agitators
##ochemical
pollutants
clemency
magistrate
balcony
hale
kt
pony
piano
tina
zogby
##aels
##ben
##public
##wire
##enza
notifying
spice
outlier
##raught
guthr
onboard
sioux
distances
glow
extremes
autob
dedicate
survives
trails
ashore
commercials
##profess
preceding
stresses
kingdoms
scholarships
adoptions
societys
tycoon
jarring
discounted
stereotyp
apprentices
prematurely
renovation
fervor
kurtz
mathematics
glacier
kellogg
energetic
misdemeanors
cholera
bugs
jog
kats
zack
##killed
##entric
##stown
##ocese
leigh
peek
resched
offence
grac
##ongo
showers
mujah
campaigners
immers
propping
passports
barnett
tweaks
therein
tweetstorm
##forth
humanities
limous
progressed
ethn
checkpoint
definitions
romans
magnetic
assassinations
bono
albums
venice
enthusiasts
mysteriously
ibrahim
ajit
orwellian
demeaning
cardiovascular
recycling
coincidentally
denunciation
dapa
lauderdale
guthrie
alys
bt
bie
bode
juries
sands
tb
##cw
##oton
##ivation
##ocus
grapes
branson
interm
teased
carus
promul
artwork
##been
classy
negativity
turk
waits
deepen
broaden
veracity
motions
ivan
haar
surfaces
pitcher
belongings
murphys
crowley
masquer
passionately
jenny
toyota
manifestation
simplistic
monologues
astronaut
bolstering
residences
superficial
gretchen
indoctrination
oconnor
colossal
alejandro
petraeus
duce
hpv
ngo
pdf
sord
vint
wo
##atollah
traps
chech
peaked
##actic
disloy
demons
interactive
marist
upscale
##conc
##otte
vegan
stopgap
citation
homemade
eroded
learns
verma
improb
austerity
introduces
crucially
mercers
##ucci
nuance
censure
podcasts
schultzs
equivalence
shakeup
cdu
discarded
roadblocks
emoji
misbehavior
hottest
fukushima
dos
nhl
takedown
wich
##women
##arrant
##elight
##thal
##thora
chalk
##ulently
alma
##chi
spider
planners
arises
peas
atthe
lasts
carne
##uggest
minhaj
tester
fourteen
understatement
erdo
marketed
salazar
labelled
credence
trusting
hurtful
consisting
strait
joni
softened
##writers
bowe
sympathizers
shielding
undersecretary
broward
sociopath
cumulative
perverse
bunker
##imonious
antifas
penguins
andersen
gorgeous
naloxone
zervos
cuck
kather
lec
pok
##gon
##good
##gates
##jack
##still
##anti
sewer
shale
conte
##ifiers
meh
politicization
##oupe
caracas
##itson
specially
retreated
slater
overste
redeem
keeper
storyt
devise
injunctions
ofhow
burial
loun
##backer
sunglasses
adamantly
##anois
dubke
industrialized
rigging
fetched
cadets
pirro
scorched
gaffney
prankster
cavaliers
practitioners
conglom
gupta
disliked
bount
bothers
kyr
oig
##north
##inch
##itiveness
stain
##emoth
##ocino
cringe
consort
strides
doha
##appers
helena
belitt
##otty
distraught
plethora
eroding
cruiser
squawk
transgenders
lifts
rams
##breitbart
shapes
cookies
sacrificing
pinch
boldly
##america
injecting
ayatollah
screenshots
relocated
neocons
mantle
deteriorated
##invest
cryptoc
penetrate
underwear
enlightened
tribunal
nightmares
galveston
aq
fnc
genders
hic
jag
maim
mama
nair
pue
##rals
##rocal
##inst
##ecc
congen
##chester
plains
crazed
##associ
noor
perimeter
fram
indisput
amus
undue
corros
maternal
behemoth
filers
resting
firepower
angus
naturalization
navys
shouldve
hallowed
malice
corrupted
bulld
panelists
##ecker
boxer
lobbies
tanker
nasas
##assioned
neurological
tantamount
offsets
mendocino
unconscionable
shrugged
coerce
excoriated
galaxy
jpmorgan
ain
drey
dyer
rows
siss
##isse
##olam
##them
neon
albright
cran
crass
disin
beverage
flops
flung
colberts
policemen
eliot
moratorium
turnaround
restroom
homegrown
candor
metres
commenter
##major
silva
horowitz
reactor
woodrow
qualifies
whichever
##meas
abandonment
unwarrant
appreciates
steeles
submitting
collaborate
awaits
hiking
paychecks
sorely
caitlyn
tastes
##between
nexus
referee
softer
condescending
almighty
amsterdam
cryptocurr
unwarranted
nro
roch
##dar
##enburg
##alle
##stick
##stones
prizes
whome
politely
##agher
grove
hex
bevin
##ensional
imf
##ishly
impassioned
carey
upbeat
retrieve
clearest
organisers
readings
calib
winn
menacing
civilizations
equate
flyers
voic
impropri
collects
grandstanding
subjective
unsav
unsuspect
innate
promoter
reciprocal
archae
festivals
berkeleys
##opolis
streamline
ceremonial
smearing
navalny
seventeen
throated
isolationist
wrecked
meteorologists
maneuvers
entrepreneurship
crippled
renovations
chlorine
##birth
degeneres
fakenews
insignificant
auburn
lousy
extravag
bauer
dort
eats
fitted
kol
kee
kont
oge
upped
##uzz
##etold
##asions
##illas
##iav
##ieu
aron
##umen
heis
brash
manpower
demo
quits
deficiencies
allred
issuance
goodl
annie
nevertrump
supers
organisms
holdouts
##brook
islamabad
greenberg
demonstr
snark
bloodied
brownback
domino
harmon
jerem
honorably
literacy
sucked
ticked
ramming
cups
incompatible
validate
lectured
bubbles
converting
yellowstone
bursts
baffling
fostering
lexington
hovering
delegitimize
goddamn
dessert
exxonmobil
alyssa
bending
flet
fuming
pab
pagan
tones
tiki
wt
##dis
##uaries
##von
##lean
stave
conyers
##istas
dele
fork
##rift
heimb
incited
flush
flims
ammo
defies
wellness
##azquez
differs
policymaking
speechwriter
salomon
deterred
coales
nava
navigation
saturn
discoveries
champs
ontwitter
lifeline
irreparable
dumbest
dustin
psychiatrists
degrad
reimbursements
troublesome
indonesian
skyrocket
walden
##hyd
diligence
mammoth
assailant
bemoaned
reimpose
alisyn
preoccupied
sordid
unsuspecting
ghani
hof
semb
##lace
##fathers
reintrod
##ref
stink
##osph
alignment
spa
uninformed
##endra
##aggress
commended
intuit
##achers
##uges
presser
vii
nears
espouse
##planned
envy
afghanistans
angles
##auf
presenter
packaged
spreadshe
normalized
torrent
enactment
disparate
##oshima
prejudices
reinforcing
argento
grenades
refunds
pierce
impartiality
impaired
crosby
dispersed
wahhab
pronouncements
yonhap
frivolous
katherine
dined
gem
niece
pimp
##ricks
##him
##kal
##orp
stinging
repulsive
clums
clinging
crut
recal
scaling
timeframe
rightwing
amtrak
##onder
##uese
approvals
judeo
redund
legislate
messed
nonstop
damond
butcher
verses
goalkeeper
mistrust
angelina
strengths
psycho
applicant
adamshaw
burnett
spectator
khal
faults
reassignment
bragg
collaborating
dolly
abuser
infiltration
insufficiently
upgrades
reunited
subtly
balkan
portuguese
maiden
sculpture
bicycle
teleprompter
whomever
adamshawny
bowing
clement
diving
iphones
lite
natives
token
wandering
yash
##idis
##ige
##ecoming
##adish
noticing
shades
##eared
weir
franois
##ulton
assu
##center
##pract
parrot
paralegal
##itsch
##ontas
michele
polluters
epith
burnt
palpable
template
rebutt
gutted
ridiculously
fundamentalist
arkema
netanyah
napole
cordes
renegotiated
jabs
scholarly
extraction
slick
objectionable
ottawa
avalanche
swansea
hbcus
auditorium
macedonia
amicus
miserably
autobio
unsavory
semblance
gand
gagg
mapp
tc
##dia
stare
##ivably
repub
exotic
aras
##agency
agon
recon
invitations
workplaces
rightful
courting
##annie
schr
redempt
denis
homage
starve
angu
fairer
##rified
semester
tablet
dissolved
modeled
salesman
deliberation
contradictions
imploding
elevating
dignify
homelessness
reiterating
homosexuals
hypothesis
vagina
docs
cycling
slovenia
simmering
tumblr
lackluster
gaw
hull
riley
vod
vog
wf
##clear
##inich
##iga
##asked
##uri
leans
##article
shoving
##abi
crater
##ifiably
brakes
hound
##ludes
syph
protagon
emerson
genesis
onetime
constrained
herd
herring
##bringing
listens
wests
cannibal
improves
superst
kenny
ethos
roller
##ethirty
##enched
developmental
catalog
clara
qualms
folly
splash
vanessa
duly
fanning
perpetually
beautifully
guaranteeing
strikingly
laundered
gears
squads
puppy
harboring
crawl
sociology
fidelity
precincts
technician
filipino
hijackers
caldwell
wichita
conglomerate
jeremiah
hw
ls
pounding
rok
##corn
##orient
##opl
##thia
chah
sage
##andi
unwork
##endering
anath
grams
##eps
##eport
roaming
allan
idf
##ahontas
retrie
toa
authorizes
redactions
avowed
calvin
rested
builder
##roft
waterways
episcop
##theon
measles
negotiable
necessities
islanders
roses
battlefields
malf
scotts
awarding
caucas
torr
retirements
sticker
dukes
skew
emphasizes
gutfeld
telecom
haired
blindly
calculating
icons
rivalry
sidney
tricked
bizarrely
zionism
repairing
whitney
affirmation
resonated
kohl
marrying
nagar
sketchy
endangerment
indifferent
diligently
sleeves
adolescent
unloaded
haitian
euthanas
##aheim
puebl
##ethirtyeight
ducks
fuss
gyn
kot
tt
##yah
##onement
##orne
##icially
##otion
##ppers
##cht
exting
seaw
uned
whales
clog
manners
donb
reclusive
inval
gettys
dayton
intra
elbow
##entionally
deborah
estonia
swarm
declass
soured
michaels
audits
misg
designating
anguish
embark
competitiveness
maligned
hamza
##eseen
##zzy
reflections
limitation
softball
##blown
fanatics
diab
affiliations
trendy
scripts
fulfillment
mlenchon
sobering
cyberattack
obsessive
nausea
microbi
tulsa
aesthetic
ferocious
erickson
caricature
impetus
innuendo
diar
density
hinges
igor
riff
##ril
##iak
##bil
##alone
thiel
repris
uniting
scler
quota
##outed
parcel
changer
bananas
armstrong
ordn
frontrunner
ignite
establishes
philando
accomplishing
##zzle
strengthens
haqq
fanfare
cartoons
africans
isolating
lynching
alcoholic
miscar
adversarial
amphib
applauding
metrics
disorderly
prioritized
confederates
wreak
ecuadorian
##russia
##lifting
discrepancy
guerrilla
mcmullin
malkin
unworkable
cerv
fumes
laz
mow
rambling
##pins
##foot
##along
##ivated
alluding
whine
perma
capping
recap
draped
##ertained
deficiency
##conf
##congress
conclusive
payout
boiled
repeats
wholehearted
cancels
odious
patriarchy
methodist
haircut
entitlements
championing
buckingham
feuds
navigating
contingency
bakery
wreckage
paramedics
gaze
hots
kates
lv
vels
##kam
##enst
##aned
##anahan
rebrand
##eching
repressive
residing
##ustering
bled
orgas
relish
aller
protracted
wellesley
guad
parity
concedes
antip
edu
##letta
texan
thenational
progressivism
momentous
vacate
crowdstrike
ranchers
cassini
radicalism
villains
bloombergs
mortal
warmth
validated
mitigation
utilizing
mesa
commemorating
ancestry
spectacularly
mugabe
mckinnon
adulthood
##laren
untouched
inconsistencies
disclaimer
limousine
netanyahus
ordnance
fulton
gosh
gassed
ritz
##nitz
##dings
##jal
##recent
##acs
thc
conways
##ctica
##apal
##okh
monaco
##rys
callers
politicus
itiner
defuse
immort
##legal
phasing
##iffer
soar
farr
programmed
patton
questionn
purged
skys
selfless
frontal
tempered
watkins
settles
doorstep
devastate
comparatively
reverses
preferring
interpreting
mouthpiece
containment
griffins
mogadish
wynn
exported
##judicial
dishonor
dimon
suppressors
resettled
tangled
reunification
gambit
pavement
impersonation
encryption
concocted
wiping
onlookers
dortmund
fletcher
degradation
episcopal
euthanasia
gettysburg
bowed
cues
eich
ion
mia
tid
tanner
wels
##kys
##ww
##eria
##econd
neb
whale
##awing
aback
opcw
##achi
##raf
speier
##wayne
realism
##onte
authorizations
polluted
persever
embl
creditors
##eshad
##lantic
jonah
planetary
disturbance
markedly
dutertes
durant
averaging
cohort
thorny
fugitives
receipts
##igsaw
resurfaced
ainsley
benedict
gohmert
framers
heimbach
cly
dm
eit
gores
hater
jaff
pell
qatars
sj
wu
##mich
thinker
##athed
guild
undone
pars
##azolam
##resist
boobs
convene
gloom
mccull
readout
revital
chairmen
towel
##rection
godaddy
bodyguard
berated
conspirators
routed
stonew
weakens
elliot
##frost
cbos
chronicles
cadre
evolutionary
inconce
reimbursed
adventures
narcissism
sibling
adherents
##angham
mcnair
outbursts
avalere
##ubbels
quadrup
gild
jett
##lies
##bits
##tuesday
##yles
relic
##opathy
saff
sailed
deed
bronc
evisc
flirt
remar
entails
surm
edison
swoop
restrooms
optional
labrador
influenza
rulemaking
fairy
autocratic
tracker
assembling
unconfirmed
scalias
contrasts
manhunt
toxicity
compensated
possessions
alexandra
resemblance
navigators
toppling
turbulent
glaciers
abetted
antarctica
tandem
gavin
miscalculation
##etermined
cindy
permafrost
mogadishu
emblaz
cask
faked
gue
kling
nt
penc
piet
rents
sacking
vie
wwe
##rhea
##lia
##bly
##gp
##inine
##olving
shane
pepe
resounding
incensed
marred
depended
##prop
passions
timesand
construed
avoc
despised
homophobia
purging
foothold
accessory
curiously
correcting
sheryl
perme
hawking
drafts
samar
sucking
romero
headscar
sparse
rowe
##trumps
penalize
downturn
brighton
busting
molly
wrestle
vegetable
enriched
ambulances
tanf
adherence
volcanic
glamorous
sarcastic
stalking
gaddafi
broncos
ausp
dann
eject
fumed
##lared
##alan
##mph
##istor
chag
##ulary
##arts
whore
anaheim
brangham
disaff
demint
attire
prepping
amel
harr
andr
profite
sanitation
midazolam
##allenged
purview
ofs
jeffress
unspe
shocks
dinosaur
semites
rescues
channeling
fascination
attracts
gerard
rename
dares
feminine
photography
watchdogs
demonizing
stockpiles
squeezed
alberta
ponder
##product
beverages
demolished
strangle
waxman
ferrari
livelihoods
alvarez
cereal
regressive
intercourse
inclination
fivethirtyeight
carnegie
syphilis
velshi
dudes
kre
moll
naw
vine
##jad
prix
stanton
##asis
truce
##ceived
leone
##nee
whitson
##endale
##order
moniker
workable
warsh
taxable
colo
##azing
paypal
edin
overblown
esqu
despot
linebacker
epile
multib
davies
granddaughter
snakes
guarding
restricts
alexa
spanning
##door
elders
warmly
##ymmet
danielle
biograph
folded
cynthia
reinforc
gymn
intersectional
midwestern
rashid
zakhar
upstairs
uproot
infinite
workshop
hiroshima
blackmailed
mirrored
submerged
##professional
amusement
emblazoned
eer
qb
wubbels
##cam
##pd
##othing
trian
##change
shines
##early
crad
expensing
monter
scum
quir
roaring
caro
##obe
funder
fared
sliding
sanit
candle
thrill
marche
mcen
burgess
meryl
walton
williamson
hawley
graders
apologists
tonnes
softwood
dui
fortified
pedro
spectators
darn
resorting
concentrating
inflicting
cherish
cheryl
admirable
nytimes
vocifer
##iliatory
woolsey
funneling
mundane
morocco
antithetical
asean
incessant
precursor
cmp
hq
hap
poking
tpm
yep
zuma
##rano
##uly
##inh
##orad
ingen
chided
##artered
shrew
ungr
libs
plotted
interd
newsworthy
thatcher
lastly
schuster
needlessly
##prol
payload
topping
deluge
metabol
moderation
spokespeople
saturated
flynt
burk
tenfold
##aneously
collectors
oils
laboratories
rapids
frequencies
psychotic
morales
machiav
##ifully
cowards
volunteering
neutralize
##without
fetish
bulletin
squadron
pivoted
tagged
sneakers
kristof
absentee
detonate
merchants
assignments
nineteen
malaysian
perversion
kaplan
landlords
humphrey
unexplained
mediocre
rechnitz
consortium
dreyf
goodlatte
inconceivable
multibillion
bild
faint
hails
hugs
kany
mik
nudge
ond
panc
yar
##creen
##try
##wn
##reys
##olence
unic
whiny
brits
impot
assists
deprec
##ankind
idly
mats
payday
swell
visc
hostin
stafford
therapeut
fullest
awfully
benefact
benefitted
predic
balloons
lofty
dreamhost
ethically
recognizable
matchup
occupies
fanatic
unto
shrunk
recklessly
philippe
boycotted
brags
detainee
librarian
dimensional
enlar
nutritional
ayers
duped
exaggeration
vindict
##rupulous
riverside
culmination
##oscience
##giene
lurking
recycled
bloated
spielberg
pyramid
presidencies
flimsy
gid
ile
ni
##mu
##mud
##ships
##kids
##follow
##zai
prized
prague
thief
trun
##user
newhouse
##herence
noises
computing
perks
drained
billings
elective
syrup
insure
feather
colleg
upbringing
continents
entang
sluggish
currents
classmate
purports
europa
##until
buttons
eighteen
gasp
##esterol
petrol
exchanging
snacks
crossroads
sorting
acknowledgement
definite
consultancy
cardiac
heyers
instructs
dictatorial
novelist
lapan
resurgent
tyrants
deceive
bitches
degrade
##represented
vindication
comprise
toilets
confiscation
bruising
mathematical
wannac
disenfranchised
geographical
littered
subdued
endeavors
stymied
pocahontas
astronomical
yacht
synagogue
gchq
navajo
anathema
bant
cosp
lashes
ses
##edas
prong
##ayas
##ffer
sporad
clicks
peel
##aryl
disf
perennial
##ussia
bean
marital
fluff
schilling
ids
foundational
continuity
concussion
profiled
christies
middlebury
roboc
petr
unsatis
##hammer
deriv
conditional
confidently
alternatively
piper
entertainers
telegram
hygiene
conceivably
tightened
mouthed
adversely
collaborators
culp
shedding
##democrats
buffer
buffoon
##crowd
romanian
sodomy
expenditure
prophec
turbines
purveyor
lanza
tornadoes
treacherous
kenyatta
manuscript
antidote
cholesterol
implausible
bounced
coded
eus
nang
##uf
##call
##vity
##eric
##onias
##atist
##anct
##alities
##iloni
##elman
##urys
chi
##irus
saidthat
forging
##apult
offences
isiss
incidence
flaming
poign
desec
##fein
conciliatory
barth
blackstone
revoking
successors
counteract
affordability
watford
##recogn
kickoff
##uko
dependency
implicate
transformative
anxieties
lyon
converts
pronouns
##zyns
ebay
##repid
unintellig
unintentionally
aligning
##invited
contemplate
##federal
narcissist
golan
staircase
pessimistic
robbins
ostrac
eerily
geller
tucked
venom
##gre
##eson
##escent
##enf
##itiously
reiterate
##omas
##iros
leve
levers
unannounced
craven
manned
inclus
##avan
interagency
tebow
roared
opa
upended
lefties
speculative
##gett
transmit
markers
midway
canon
ernest
mclaren
catapult
haslam
naturalnews
byron
southerners
transgenderism
rebuilt
wastewater
concealing
##exp
feinsteins
headquartered
##peace
thornton
traumatized
obscen
kosovo
shells
##americans
trucking
harvesting
deafening
cripple
contemplated
embodies
croat
socioeconomic
intoxicated
pilgrim
woefully
bickering
gullible
##practice
invaluable
haqqani
dull
giz
rinos
wies
##liness
##jard
##atan
##aning
sto
thad
shod
##heres
contag
##itically
compatible
scars
assailed
abomin
campaigner
farrell
majors
underdog
underperform
barletta
explodes
swirl
##ooter
midday
owen
potatoes
##plan
##adden
designing
counselors
petul
surrounds
imagining
rhetorically
normalcy
controllers
motivating
occupant
terminology
entertainer
gallagher
overtures
narrowing
barbec
truckers
loyalties
implode
harshest
cautionary
excludes
gentiloni
steinle
deprivation
threads
ruddy
apprehension
mcgowin
wrecking
relocation
cfius
colonialism
negligent
jolt
militarized
enshrine
encompasses
mishandled
coerced
jakub
miniaturized
uninhab
acoustic
coworkers
chechen
welsh
unspeakable
bisc
fanc
hairs
mince
pamph
wong
##oza
##aros
##istine
goff
spans
##aby
##license
asymmet
##berries
##avity
intertw
decay
abl
desjard
embody
detached
##otta
judith
paolo
allowance
toob
humankind
authoritative
insurrection
simpsons
professions
educator
magically
frontline
hasan
heavier
berk
doctr
rosy
malfeas
squir
warship
occupants
romneys
harvards
noticeably
bloggers
untenable
##edaily
fabulous
sprink
nascent
loading
jammed
gladly
mudsl
##funded
cultivating
cautiously
sucker
chastised
encrypted
aegis
wavering
mcmahon
abysmal
gouging
kumar
dissuade
haider
enlightenment
erdoan
desjardins
ness
vans
##rise
##eenth
##lass
##qa
##aris
##icates
prose
##ilating
storing
##ammar
choms
presume
##abulary
unru
cranes
gru
braces
partition
firings
beware
recourse
decry
stras
regained
poke
nationalistic
insulin
##prud
centric
mccaul
arrows
weddings
##why
breakout
combines
shuttle
pathways
mistreated
fixation
namesake
noticeable
interpol
khatt
axe
levine
uganda
brokaw
lesb
gianfortes
enrol
rewritten
fragment
heinrich
envoys
misunderstand
consolidation
puzzled
gambler
rendition
hbos
retroactively
tractor
explorer
ripple
inexplicably
exorbit
pneumonia
beirut
jettison
##proliferation
banging
bila
dni
sings
##rc
##uv
##gard
charters
alias
notch
shawn
splin
progn
peaks
crab
##ourke
bliss
imaging
thatll
flatter
sync
##ysen
larsen
morrison
gluten
testifies
emailing
popcorn
turbul
circular
competitions
martins
##black
gainesville
consciously
##break
epidemi
detectors
rigor
gaul
portrays
moderated
manson
voxcare
alarmist
wiretaps
kobachs
renting
boomer
cordial
booing
lunacy
bypassing
lodge
succinct
impressions
cronyism
lbj
loosening
demagog
mcmahill
laureate
mercenaries
disheartening
turbulence
hina
jx
sowing
viver
##bags
##erun
##edel
##olar
stared
alison
lepage
sht
spam
spitting
liam
enm
perino
##avers
joaqu
quash
queries
intrepid
##unday
refining
elm
##ribe
slots
subj
handwritten
blackwell
calor
##attack
freedomworks
##ophys
tenet
breakup
environmentally
vargas
melgens
garrison
angelo
cubas
perfection
scares
grader
waitress
ministries
##guy
wisconsins
filibusters
pornographic
curtailed
distinctly
decentral
muddy
inefficient
orchestrating
nutritionist
molested
crusader
thwarting
bastion
dissemination
##starget
surpass
disavowed
aspire
scanning
glamour
blacklisted
sarcastically
neatly
vertical
ungrateful
cures
gina
ips
noses
niro
yam
##yton
thai
##ocated
shear
shattering
clashing
polk
brighter
##intons
strokes
camping
##mani
##aldi
charade
belle
andres
arrow
beta
filters
homeowner
##paralle
lowry
honol
lightweight
hackett
rapes
degen
psychic
rumours
sleepy
yemeni
jurisprud
absurdly
gabby
uncovering
congratulatory
neurot
covertly
chatting
carnival
commonslicense
allergies
muscular
deutsch
dartmouth
bolshevik
trotsky
seafood
improbable
triangle
fri
fannie
lured
tet
ufc
wv
zoning
##mill
##enheim
##igr
sped
coz
unprofessional
cram
##umont
twisting
##activity
attaching
comptroll
caicos
blaine
preached
opec
spew
careg
providence
minsk
busiest
underlined
slapping
creeping
glut
humorous
handouts
basin
uncles
complacent
godd
peta
stocked
malpractice
legislatively
televisions
bulw
bulgar
nativist
conditioned
weakest
preferable
cohns
tackles
##ophobes
sabato
moderating
physicist
niche
flashpoint
phenomena
experimentation
brilliantly
plaguing
##osaurs
microaggress
flocked
taunting
corroborate
bourdain
##enzie
koran
philanthropy
disobey
fluoride
follower
reparations
involuntary
fowler
rebuttal
donbass
lesbians
cw
cpp
ehr
jigsaw
nf
pud
##alis
##staking
##olith
##imen
forrest
##hert
crust
disson
timess
endemic
guzman
polices
playoffs
surcharge
overcrowd
extort
header
posse
limelight
financiers
footnote
figur
##ooned
ethno
rounding
malta
fielding
avoidance
objectivity
burnley
outsized
roma
astatement
##does
catholicism
##monton
maples
##loat
koskin
humiliate
jeanine
stunts
burdened
unequal
demonet
ftc
relaxing
nrcc
koeman
ordinarily
swastikas
mushrooms
assimilate
technicians
stewardship
camouflage
intermitt
ileana
wannacry
ane
bing
eco
fax
huss
hank
pitting
ranc
yuan
##dc
##lamation
##iative
##bows
shamb
ars
blah
medals
flattering
##onda
##hnbinder
phishing
elle
baron
kew
johnston
glo
denise
jobless
futur
illiterate
hotbed
palins
varney
countermeas
preventative
oslo
captioned
bernies
byproduct
dominates
locks
beaumont
cathy
randall
brainer
carlsons
havey
bumped
renault
khad
sprung
marcos
stamped
##teenth
betraying
tentative
defectors
entrusted
##onscious
erupts
densely
usurp
conspicuously
einstein
##onflic
emblematic
rationing
aurora
adolescents
impediment
unquestionably
cynicism
vintage
gaggle
jxhnbinder
subjug
bikes
cil
mecca
pads
rousing
##tes
##gado
##enatal
thedaily
##these
presumpt
unsh
whim
ariana
##okk
marian
impecc
warring
##ersonic
busch
entertained
##aziz
afloat
leth
glove
averse
filth
posner
turbeville
regulates
##sht
mindless
palatable
godfather
novembers
hurd
balber
capitalists
hammers
measurement
vaccinations
grizz
##respective
heyes
peddled
sparring
murrays
hamper
excesses
##reportedthat
interceptors
lecturing
jeopardized
lori
depriving
tumors
keenly
bursting
##patient
caitlin
tilted
subversion
shenan
unavoid
shunned
embryos
##quisite
variables
kassam
##establish
yugoslavia
azerbaijan
nagarwala
cospons
bould
fb
hanged
ji
lingu
lansing
tidal
##cnn
##gop
##gary
inan
##email
##uttle
preschool
##earlier
coex
unparalle
##iage
grains
##ouris
orban
itunes
##obic
##prov
parach
irrespective
violators
superman
justifiable
airways
##every
numb
focal
dams
simulated
melvin
disposition
cruises
##dropping
packs
achievable
fixated
derel
materialize
appliances
trailers
cuis
cucc
qaedas
bailing
minimizing
hayden
alarmists
sophom
dissenters
inventor
tribalism
airbus
unchallenged
franchises
hartford
spoiler
genitalia
steadfastly
barkley
landlord
cesspool
redefine
vomiting
roland
mcgrath
visceral
viverito
honolulu
jod
pg
sach
vests
wj
##lott
##lio
##itled
##left
##asers
##ersion
threes
##urous
aluko
whipping
worm
grueling
recoup
##quette
invaders
##erton
legends
chargers
##anka
discovers
presses
serbian
passwords
ands
veg
raiser
teammate
polluting
illiberal
misused
verifiable
sharap
periodic
malt
copenh
unease
derby
cellular
burnham
fascinated
fanuc
forthright
handedly
loyalist
trolled
unveils
paralysis
##oursay
genocidal
##cross
awkwardly
degraded
exaggerating
resembled
reconsid
neoconservative
unjustified
painkiller
persistence
javier
anecdotal
corridors
haitians
inheritance
nemesis
fawning
cunningham
unflattering
##revealed
compulsory
blindsided
promulg
bounty
skyscr
gilded
jakubowski
haveyoursay
ausch
binge
fsa
pugh
pitted
uter
wto
##ruc
##cases
##bas
##got
##erf
##inelli
##onk
prism
ston
##ulator
##andy
leeds
unip
##sole
interconn
amused
roast
allens
belts
phant
postseason
clears
empowers
vex
swelling
limb
choir
skit
corpse
salem
salutes
cannes
complac
ensn
notebook
prohibitions
combatting
##ographs
pedig
sparred
disagreeing
egot
crafts
dunn
trafficked
ronan
intrins
mathews
baldridge
baldwins
vacationing
unprov
obscured
##alienable
unrelenting
hugging
overruled
exhaustive
maneuvering
safeguarding
##onservatives
swallowed
herbicide
robberies
conspicuous
discontinued
plagiarism
scoffed
poultry
ducey
congenital
vodka
wholeheartedly
carolyn
malfeasance
auschwitz
fc
lurch
pp
pj
panda
rica
##bird
##pit
##gol
##vide
##jev
##atts
##orig
##otive
##etamine
thump
##ivil
sah
repent
##arta
spoon
nox
monkeys
##ictus
deposed
upfront
postwar
propensity
edits
edmonton
informs
boils
handily
handels
schooling
freeway
##ageddon
bookst
##show
connie
injure
felipe
suspense
cancelling
##weet
naturalized
utopian
pathological
checker
roadside
knit
psyche
towering
textile
cupp
mailed
jurist
khalid
bowman
tremor
provenance
faulted
hideous
manageable
motorists
epicenter
puppets
tailor
fareed
offspring
stifling
weissmann
ratcheted
weekdays
anatomy
paraphrase
klansmen
overstepped
gandhi
shrewd
chomsky
unparalleled
ailing
eerie
fanned
kac
mered
pics
##map
##vine
##fw
##walt
##sten
##isher
##ething
chey
leop
seag
bray
brake
diseng
engr
demurred
##ussian
blurred
prevez
##ekin
abound
##retched
##price
theh
conceding
##otti
veered
profane
broaddr
criminalize
##heit
chefs
pricey
bodyguards
motherf
altar
attendants
catalonias
rescuing
yea
ingrates
massacres
delegated
youthful
corpses
cornered
blinded
##ozy
malloy
salvo
hubs
padilla
gaffes
cyclone
grammar
bikini
bandwagon
indiscriminate
sylv
housewives
assuage
guev
predicament
shenanigans
cusp
hasty
hmm
kes
mg
minted
nina
oke
rost
vandals
##fest
##entimes
reen
prenatal
stacey
##eliness
##usiness
##gefell
foreshad
eva
##avement
##eported
scuttle
governs
flotus
amt
confines
wasps
minut
farc
edwin
extinct
teaming
eurasia
ballroom
narendra
finalize
superp
captors
madsen
wilma
nativism
hunted
logged
rubbish
driveway
occupations
##comb
##uka
regrettable
detector
decreases
albu
exhibits
spirituality
reverence
gorel
pitfalls
fertile
mascot
bakr
acutely
incriminate
servicem
##groups
loathe
ascendant
workshops
displacement
mussolini
malfunction
amphibious
unicorn
culpability
sharapova
fated
hump
hua
jas
scept
##mic
##fing
conor
##imating
##than
##ieve
asinine
meager
noose
quagm
marcel
abject
backdoor
##manns
##ernation
theu
percentages
tweak
terrorize
filtered
cameo
solace
radi
loft
battil
supermajor
snag
okla
copay
normalization
wishful
fatty
archaic
boosts
rums
##expl
knocks
pocketed
reef
retaliated
##ammers
acceler
liners
simplest
eagerness
penetrated
culminating
vocabulary
pegged
atheists
emphatic
propagandists
nudity
browser
ndaa
pummeled
deconstruct
congestion
eccentric
ethiopia
sclerosis
nawaz
meredith
hunk
kochs
mikh
rund
yi
##dan
##bies
##hoot
##pas
##founded
##arhar
##ilight
thigh
chester
coo
anita
foray
brim
donned
obe
compatri
##ogical
marr
marion
marse
tee
relay
emory
embe
emulate
courted
continual
irate
##enex
eds
transact
veep
foxconn
nonb
nonproliferation
familial
waiving
deepened
mischief
##foreign
moses
walkers
ohios
satir
aggressor
furiously
birthplace
jerome
withdraws
splits
gripped
trainers
trait
skeleton
bullock
albania
thompsons
desertion
cyberspace
distinctions
embolden
feces
aggrieved
sociologist
honda
indulge
stagnation
lifesaving
alaskan
wrenching
accomplice
fsb
exasperated
scoops
whirlwind
scumbag
elyse
unmistakable
steroids
edinburgh
opaque
agh
aya
hath
vand
werner
##ao
##mag
##erland
##itarians
##emaker
##thas
##essential
##iston
sak
seiu
shied
lizza
ashe
heil
secede
recoil
deconflic
##ollar
scams
drake
carly
idle
guo
retard
infested
glitch
consternation
redes
avatar
patrolling
middles
holdover
sourcing
erst
excruc
californian
roommate
predicated
friendships
heartbeat
panther
sensing
unsigned
domains
hoard
objecting
psychedel
strauss
hauled
contrasted
anchored
enrolling
beset
kilo
ecological
lincolns
fetuses
durable
krg
hubbard
bollings
cosmetic
argentine
telesc
patches
emanating
exhaustion
snipers
supermarkets
undeniably
bruno
dissatisfied
unbear
coroner
shillady
subscription
reprimanded
fahren
tranqu
elicited
bengaluru
corrosive
zakharova
##zynski
complacency
dov
eater
mowed
mvp
pasc
tents
tfl
vr
waded
##uu
##itr
##istration
sahar
whined
##uba
newstarget
clare
plum
twilight
marque
marquez
##issy
upshot
[...]
